{
    "input_shape": [
        17
    ],
    "hidden_layers": [
        {
            "shape": [
                130,
                18
            ],
            "weights": [
                "Kw6HvmSGELxIK7S9DhVWPUth5b7pFYc8uZBovaqNgjyLa/K9K0AXvjg+zz3mu3M9hBFNPACDhbmgkTu7imq0vBLek73h9tG+CZYRPj5cPb4Jb9I9qmVjva+LVT538Bu9mUSRvSzxlb3MZqU8u/BIPX2rm7wzuw68p+8JPDfkpD3Af8C80gLau+FIF73g/wI9l7FNvi7pGz/Hyqe+ac4rPvyGLj931Um9WDuCvHImtjyMtdO71hk5vRI/671qKAi9HtHKPDdEB71Tqls9oxUZPSPDwbvg1E+/nlgNPqo3hD4U/k2+Cwwivmowsb8pyxC9Yav/vh5dTz3izhM9Zs8OPpq0k70Lxpw8rS7FPYwsjr2vN+48aj6HPHcZvzyrHvo+UKDOvYi6vLpssBo/UY+NPEytKj1X2bO9iVeqvnAeNj04Yte74dIcvnLp3j0ac6E8MT1hvpdTjbzjNiy9+jzEuo8pxbtFm0k9c/HnPQIDMj6Zhoq+VjYDPjj/Ob22XyK9G0gjvmXxgr2a7hU+zB9bvakYArtOyQW+FTSuvL8Jqj0anps7ijSNO0DY4b15CO++h0YFP5PQ+L3bDoW+geNBvleYDj2JLWm97555vhVzJ72cbwQ8QVj/vUAsiD0qHug8jfacPay0kr2Vbds8z684PHKhFrwrTUA+SWSsveSDg70MAS8/zJX4PaYb+j5dz4o99T7HPnMzjjzBZjo9qjsNPXPGj72NiqA980OiPXCg4j0zGi49pTuSPLKAsrwWFxW/Aj6wPUOU870L41y+FIqhvp85Xr6E8wO+awsrv0UWr732aJw8vHOEvbP//TwtNam8571fu2XvUz4EcR+9944BPNoJ0LtNPx8/3tu1vPUnPr3GdIC+d5t1vixAIz40fN08ppaNPZuFGT7iWNm8GzFTvGiZX70OO9W8ItrzPe3BAj17L2A9yAlXvNp4BL2ZBC6+lNBmvD8CLD1Xv4Q7Su/rvQ0reD5mlvS94ofAvpv5Wj1BwL08pYKSveUgpj09xpE+",
                "7PqsvfV8gj39Pvg79ToVPIQgCDz47M69fLmXvWwG+zv+LNE91JisvSZ01Tr4/jk8yVL2O8WTB7w6/7q6ZB3BPBOiy7z+5++6X3M5PUXH+D5ymJu7QhV+u8w0obu/+7c9MLAQviKrGj3XUyu/frxQvUI1qD1rlyG+QSM8v59fBT6jr848/gViPtozgb3SZYG9jx7evCDx2j1/Dcq6Cy32uwehsDwX5h2+QhzlvZ2aJLz831s+nCZFvql6nD/JVbu7lCWCPrjkjz3HmUK9LJAkPg0zJjzzAaW937lPvlAlsby0iA+8f8XwvBv/qrszO5W+H7gMPoJBsj3ssfQ+CnIMPqoOXz+kzM09BQsiPwaPwTwO9B89ZVrHPfzPK73YNhu9hY4WvhDC4bx3y0G8pmtpu4JCOTyjF7C+t/TqvTnfhj1Xrww/H8fqPRm2Er9qtCo+3DgWPwfzDr2En9W9z7VpvRcpZTq6KEq+xZWXvVkCLD2Gx186myMKvAed6boogjG/GcDqvC6ggj01mw8/UDqCvY6PCj+0ABA+lZUoPwqNVbx/7vU9BKr3vY1jlTzZDDE9kgebvas0UTzeKrw7cL9IPeTwrL07HoS+PYzSPDqaYj022fK8tXO1PQeAZL/Pbj89eVVRu1RXs70e8VU80JUnPXDKgbu1EHg957EXvUvivLzpvHu8BoKQugE8GDyceR2/i0bQPqnaGT3oULI+XQk9vpm2uzpElmo9MmOSPggJkL3Vitw8OYIzPi4rtbz1vp48jQiEPbOIJ77fZJG8V4BzPEf5Hbr2BUc+EhrJvU8+nT00HIS+lz20PdsMw7780HK9K2+gvtuKzjw/Lr082sW2vNq+QjxkEII8PVzrvZwSqD1Nyxs876btObmCPjygeTq+ZRZpPWiCGDsmXiO+2D+Tu96ViL58mx69OhpzvhVFTD0MMJo+xMIAvjnw9z1LRtE5R4gjPeYAADzZthg9WMAFve20hD1DZo2+a7i9PXfDQj1oSra+eZLKPM7dwb4NUQs9",
                "+jREPYGNljv1v529eqyEPYnchL0wQEO+sqKGPQs5kb0z3D89ADsHOwj3Nbww/NC+CPhFvdOcB796tR89+aaTvD7ooL6iiAg9px1GvdsGtz2gEJE9rkvUPgiaK75MpmY+GbYhPbHtyb3vZSU98PxUuiDkWr1UFr++9FyiPRBDxLzUrem+QEusvMeFlj4E+cA9AjH8PqQW273sEl68AO6RvnIMbz0iS8O8Dp2DO54w6j2rrZq7BKgzubKiVrwV+hC/2qCYPXJJzD1Jf8I+2V3JvZCj/76Mdj6+EPNbv/kXiD3ufda7nn+WPibzBD3xFXo9CynZvTjs2T3wSv68/TFNPN90cL2XcZo+7S8rvfDakb15SIw+5UjJPUrARz/A5K+9mmAVvpCmmzrtFYu7q606vrsOmTrBOJq99wLlvOAx/Lzf8CA8I4yyvFW0EjuveBS/OY3FvVU40jwyNxA+T/eYPRq3Er/n7289jcmfPe5eOryW7Jw+bzIBvV2lhr3xviY+RfkUvRjgI73puwE9Ow7EvWUnPb5bvOe+oX3AuwsDNLyF9q89vlWwvurSGjxS89I8N1G9PTPGDL7ly6065S5WPZuyDb3byEw8vVU1PbhNvz6XJsE7xYR0vJUGfbzIcQU94YV2vRhhHT0Won09lDRXvqt0/TzGgwu6kSyLvFR5/bzjsBm8ufjTPd4FlL2OYYi9F9zBPRijar4jMYE6DcIEvCf+FruXfis++r71vZyDZT4LIr49LbruvA4Ahb+Ieio8BM5Lvprd9Dwr28G8Pfuivdyrpz0Jrhe+JGRVvpnLSjw3dCs9OCRQuee39zvuDDm/WbtPPmHR8jutlyG/MwPJvXcvtD4hD7a+V5mrv+0D2jz7oNO8WYCcPrvEUb21sL69oAvjPWHx+z25aRc94GYNvJlHEjyIxgA+ra2UvTD49z3DvWg+7fRuPOv0mb/j9hU+XMycPmqrnLwNFJO9lMJUvQGXJr0RqmC+OnW9PQ+Z270i1TM8Jmb5uaapyLz1uIu+",
                "D9gWPrUNoj2qQUQ/lp8yPoUA0T515D++1W4ovypOsL3S6Co99p8oPqPkxbvHKNw8WBW8PbIKD75xKcg89XAiPfJg5LwWGx2/Bmo/v8isST/VVSm++/7MPf6SMD6Bu/e6FP7XPLCoqTyWeFW8KNbVPQv7ajx9DRK+UD03O5Dk8Lu/XFw9FDJzPdMLzDyUaZi/AZOyPuXyIr5PvJ698zEaPl6jnbz36Ku8/1m5vBgUiL1uIS89512PvnaEj7uVivw8yTtdO7DvgT3insI814cMvAix6LzxJSi/zrINPmCQmD4zfHy9frfWPVgNiT6NoRM9EowwPpClpDoEWCS+E1MoPkTxgr3SSYg+yIMFPfMIuzyDY3w9NyjyvO8FLTyybUm/IK8iPedTCj2PPpu+rZaaO2mR6L24Ary9wknVvhKJPD2mw0W9z7SQvDxAnb22rEa+KVI9PpTzNrwzvta8zAvAOJrBzzz/JGC+wmYnPXSje738e5g81t+GvZRaV73t3Iu9lK6LvoV8671aRYY8B63bPCwJ3Dznvm88XB5yvbthsb1dOhG9Bc06vHhLAD2d27a9tbeEPPxJZr6AvBo9vH0nPtMvHb/ilZU9ddE3PqK3Mr1ieu28MU6bPjpnG7yh6Yi9zE9PvTnelL0Iv2C9OoTyvBiUvryV9GG/+y0dvheECrsNcCU/KPaZvudKmL0objg9M4hHPkNghb7ezD48mPqHu+OvJT1DRuQ8h4XAvUu6BT4kQyk86iRMPPN6e7ttMW+9Opz1vR3ZIj23kyQ/qynUvdpeOr+ZZlk+em4vPyQOfL2zrxg9nYKTva6kMb3NcEo9kI1BPiICC73Q8pw8iArEuV4cpzyC2bi+xigtvV/9gb4HLlM+Xv/aPFvsvL+d+yU+DeOdPkmpzjw+UEE9O2SlPiEgsLwz6Rm9OSgFvmKqwr0xQT49lQ9SO4VlED1cmjy/Ufcwvn19zL1u3wo/JuyBvgfjYT/HFGq8o7EXPox2EL2DR0u90GyovZg8CLzokUC+",
                "E+EFPW5vIr6qgZ28qx8yOzCYzbzOu3c+dpNCPQKFXb2f6bq+x225vdfWFT4EsJE8qo2QParjLTwhBE69vAg6PQuPqbs3kpe+AipMPJfcR7yJZCQ8n5etugniCL1Q3dq9oGhjvNBDsD18mRm/k2kKPW0irzsV75C9EwSnvgoQHj3ebge8GFFevTtjBLxHoSi9yRMXPSc6ST74GSG9KjyavKvEI7vx8eO9W+DwPW0QR74DtcE86qgfvMbg4L4Ed4O9sH+nvk3DrjxZWoG+ZupCvjGyrj03pD8+PwFwvlXU2buKyLY9l1qvPAYhr7xNphO/cwoWPaXdHr2MPlG9euEAvsjKrb11T4K+v4I/vtR0ETw1Hpc8AI1vPU1OlTyj/bk8mjaVvRlj6r2cLK+7usOcvFwOrbwwwCq+H1/rPd8ukz1EPA4+NSDZvieoZD1EzQa91Nw5vl7H3rzSJfG6hM7cvJiAtDn2LZK7gSYqPHEKXD4pNAw8UK1kPKy59zsPz/U+8qOkPbrS2zn+WDk/di6lPPJknT7/6D0+XJpQP5VZVztmLp483aojPejRzjygrhw+P9a5vX7jxz2phVy83f88PLcjAz3ll0O/vzDJPZ6IiL4ltou+TQc2vSrTcj+yP8C9HbofvgzTVDykUQM9OKYNPIUCyT0fT4C9PnVWvrI4Tj2XKSA7JaFlvM9vp7z7ykm/rdPVPBefKD3wtQu+JgUXPqJ1N7+UOz885ufgvYJMGzw8XDo9NcanPF2/C72udiE+1tvSPTZnEb2qseu7LsS/PHDaCDtIM12+QG29vU3sKr7qPu49RDuTvRtKlT/+3wy+fSCuvp8nnDzUYoQ6qWotvJDYHr2hnhg9kQnyPXu+xLzWMnO7upj9OwVGbjxoPvu8QTydvVEuPb7hyPU+Rm7BvaHAWz9BaOU9yI4uP4MpZb1PpgG7ryOLPU/l2jzC4fM9bBjSveE1Db2niLo8Z8wZPNlJGTsitzs/7lxSPGNoEjy8j4q+7SqevebKvr14tA+9",
                "ADtXvavOMTuE6oY9BPQVPP0wmL0suUA+RgNGPkQXBD1O4O28OhNFPI01IT38Xrc8PT4YPT60Cz4ZPi49VM8ovsvUsT1pna89JsaWPpM04j1goKQ7mrwVvuQB/zzyW5G9MtVyPCG+Zr2GJV48mBatujJ3bj1OJ5i+dNeBvrhr6b5Acrs8vnKyPSBrpb1BilE9IV5MPl6vHL1zuKK9/B5Wvg0eY7vbp7S9dAZrvQGqVb25WV475KvavcgrBT205fe+eZTWvYDMrD0I7lO/Zb9sPQ6TLj83jEa+98Elv7LWPjyqNgO9DrIgPsNCFb0v+1i+3hJfPWoQIT3Syr46Bpi8u9/qyjstb/q+oBIKv17+nj6JdU0+NGABPqiSbbqMdCg9apdPPqVhFz2qv7C9TVVQvlS8Az1Eu/u8hvSAvdgKibuuQAi9exn7vDXMvLuulDy/EMebvS1jN76st8w+4i6Pu+YajD9G6zk9QDLkPmGT+bzUb009C+xyvPOwLD1w2l0+5xBSu16sU72ipVe7vz5LvNJD7zzdlFi/+liEPd4urz63TL++pVm8PUJUoD+qM/+9CX8kvsLRND1ApM+9+O+PPpQUjbuUtgi+jbgZvovuQr12wy29hDIFPcuFyzypm/a+yG6HPAjVJzvxYGU8B40tvWp4GT3lHfU+zf/xvaFkrrxtPKc6Y7YgO0kywjpWp5q7rAcevABICb137VS7m4CyO6B/urveAoq9Q8u4PcyN3D1TpCI/FDT6PH+D6759xxU+7N/XPuoJmz1rZLA89KSVPadcar1QTsO9cZHavZLg2T1+Qxm8pB/aPE6TI73FYcm+2+6xO7f5e7y6a649TThUvqfL4T4t9b88gS//PaMlwD2b/hg946eEPSN5aL1CRrU9MiAlPvUwkD2Kkym9RQ+7PEPNpDtwSXM9RtQNvkqYOrsHGzU/g2btvETtjb4RgI69MVizvp+0pDwerJM9gGlbvkhklT3XvWU+JjqAvBkLvjqRxNo7P0g2PAkQmjtqlZ89",
                "4AhvPZi/XTxuodU+zTVlPYEWNr0a73o97ChfPgqN1r0gOce80eYxPmYw9L0ST7u8hiG+vCRSTDqP+OO8V1nhuUqaj7vZwPm9GZezvATmnr1UuAw/UZv/PWye7j4qHBi+74D+vt+2Fz05MlE6mGGoPnsDnb14qSM82tL4u4JSJj3Ux5Q8ZLkuPDXcnTxHcMa+/tklvsMFlDzuRmI/Y/psvM3j3L70oSk+wicDPzK8jToxMLC9BH7/vTJQDj3fOlm+XzqDPUQk+r3mVrE8TlsRvTlcF7wbbC2/D4m6va3TCTzlkk6+5vOLPQrKMj/pRU89EoqtPn1M5Lzk2+K6X4czvYxxoLxS6ke+tBslPaukoLwctIM9HFCUur2tFTzWRva+uXUZPoBaQL5UGwG+8S1QPh4/P79U2Iw8nmXMvS7BKT3Tgpg94yLpvanuvb1/coC9YCPQvRrPLTx2DFo9FexSvP9y7LvI2wK/8JmwvUOsg7zHuIi+wwD5PVvOKz8UN5K9Wci6vb/+tr0Efs+9J8OCPlFW4r00dqS8ZFg4vfLXWT3vRRc9/mkjvTl05rqnpF2/nxu4PHKaZ73xohs/j/6WPWQ2HL8mGWo+ZmVMP8H+87wDIFc9z4mlPSj/kT10P847BEsGvtHrIT0PNwi8LYKFvMN4OLyKdi6/gft3Pqrymz1nH2S+JglWPBSAxL4bvpe8RCpVvgcVib0lG3K9XnMUPkLCTr1k5aa8TAwqPg1cFj500KY8gLYIPG3uPr39/dC87WfEPfhUx73czsi+hQfrPfkBRD9FFvm9pU6kvrlwpzzxUok9yKovvE/AOT3Hgqg9g3E1vt57yD1bWaQ7MWJgPE52s7t0imm9dmWHu2wWjb1gAGG/AH5aPVSUML7fGze+qhk6v+Ovjry6r109rjA5PlbunL3YyyM+vnb3PYOjXz3h7wk8nDOqPI/qqrqp47C+gra7PXTVVr70owm+xAloPUBsurschy66f4KSO1X8wjzUbQg9K50qvgDshjxLS788",
                "IOYPvMPplb3IYZ28zp8LvESaJz2q1sO++j4uvDC6/byCYFW+qWOVPdidFTz7RTu9PHxtvjQmzLyIsoS+kiWFvqAEITycuYY7KYXCPS+chT1EUk89zV1bvZ4Dir2X1QW/Ie/JvhuaCL2r5bO+Md/qPa2A4j1WTGO9RUx1vsAuuLtYcDa9YDoPP13xKb7L4YM8kyROu49iVbpbwQE9F5hCvI18abxmRyi/a3zHObRlMD3UFQC7j0W8O89/bT0tZ/a8xCYpvjNiAr33+LU9UYI5vXTji70Mnis+NW6sPtT6hb0SlIW8EkAtPSZ8qTxlFa++cA2rvbmF9T1tb/k+qb9oPXx3a7+U56y7eV2CvmdsZD3mzGM775O+veeHJr2kkDq8pRr4PckxgL1tO9s8ko+uOpvBtjyIo3q+v0IdvMm6S73XB8e+tzknPFvPoD+lKFi+8FMEv3FGsTy0Txq97WxxPeZXz7y5XBm+UlV/PE7FDr3r+so74requytPwbwhfAW/5sdpPAUlYj0/Paq+lEsTvuWxo70Q7iw9xNkQPp3Tjj0Nk5A9d9zdPYpR1jzbKnk+lBT/vQ7J/DwDXwK8/cfbO0kCpzyWwfo71xlhPhgKXz6YSTM+5d00PsH5AT9Y2i69K5emvXoCxzyWwnq+S/EdvefBA75PHM68MxMZvvAjC70ubm+8R9xOPcqMfD2LXZC/6Zk5Pc9dnT13jTw/NeF4Phs3O7/jiiC+3NRSv/k8VD1qWB88hyYGP8U/Cr4eLQC9z8fQuy7s/DzEbgW8xZoQvExxajllY0W/LCN4vSyu4T00FB2+u3AXPTFDNz8WSIq9B83fvYWljbtIVd49j94mPi9lTr1GIFq782PtvSqdFb6fOyA92EtfvYMqGT2Js/++QQ7HPTNtNzs0BAK+4vbAvDuNZb90Ipg5Fo0SvuWYdj3Yrx2+3StnPX9+iT1NoEK+docfvj4cAD0WGrC9N2SpvBunbryOHLy9KqQcvYG1Kz3CokG9DPnEPY/Zg7348xM+",
                "WhIYPxu4rr2zElY96HNmPWnfI7wO1iA+cJvDPY0hMD01+qI8pdQ3PG4dhrrPMt++nn2DPEOmVj2lSLi+6dZIvqlcB75hl3a8bVFzvb1Zsb3RyjS8rq71POTKmDuQuGG9aK4PvoS3/721erI86EZKu7VphDzSPm0+FuyWvkVQh765mx6+VFmZvGi/Eb4Y6F28s2mgvO+f+LxKHj08xEJRvrY8ab1WTt69mliDPcsJFD7iC/k9qOssPEpkoD2hhzq/p+wGv1mYyb3ADeI9xIiNvdqEzr2E8v895pXsPp8+Jb1nQ+k87TJlvpKgkzv54Ls8fWR5vGXOdb0IzKK9SqNNO2cqpzyIUnk+hqAZvrtvLz6YKaC+Ct4KPhYDU77BwZA73RqGO9pxEr7pbYi602ozPbo9d7xpRC87nikdvUNQBD2RDjw9PWyaOxU7JT1KcMS+y8jZPfQoc73j+/q+apwlveXHUj8KzrK9X7ozvijU+LwdZY48PnkAPneZVb3/tg8+ZXbRPVcfwL0S4eC7un2vO/lxlrxcG5s8w0PuvSbhMz6Bkpm+YV0bPK2LY7/DT8k9pyImPphF+7xtYyM8mRJeu3RYaL141Wu9iELfPZ6zALw45La7yehMPJ92/7yQbS89cD9pvfEOhz07KuY+Wk4GvszUBTzmy909VVzkPlymGL6Dpni7mUJDvGuviz2SQx29pUrxvaBmlj7Ldy+7GJEMPe8PajtjvqU+RczxPJZ72zu5IVm/FVKRPcV5Ib60kFa+kq5ov0eaXz3MT0I7Q3gPPoiUir21h2U84hXGPcnCZD0gANw7YZtUOfS9P7uRnoG/ZPWnPZtYTT3Q6dC+gmGhPJu/lr3IwOS9ljTwvqdgqLxdnhy9/U8yvMwISzxZ9jO+I8LTvFC8qjtEnYE70cKYvC2DhDszk0O9Yj8hv0upOL/MNz6+tDsYPn8wiDwDmpi6q/DtPBxegjxrJWm6HWvku5B11zx5JdQ9+9RrPcvjMbxxSTM9iFXMvPDnPbzVSaq/",
                "l7tKu8AvkL37GCs/3wnGPaM9kT3MyVg+jSxcP1honbwPQ/+805YsPXCUfL00YxO+y4S9PVCMHjyqh2084nLOu4vwWLvVS1u/cKLDvjayj74cwMm9+pm7vPce8z4kphC9l+HKPP9E7TxPioa+iQATPtW2sT1SKUE+6pcavlItgTz/u4g9feZYPX4sDb0d+Ya+4gZ2PhSmZ71WF6E+jH4IPqvLAz4Y6Eo9v47VPGysQbxvWtk9CurTPb8aKL5T71G8TZoZvaiToz1NAdI974eGvdcLAz0GeFK/xvqBPvRQy7tVSlW+6sFXParz6T3Edp480lzgPboPi704E+Y9kpCcPJ0Wt71epD27djZJPtXYCz0reIE9Aay6PKwIGj7Aema+ikMePljxPzxRwzg+V0eqPa38Sb6Db9E9HrWzPstWVrma6rK9L+PMPV9tHb5tblA+Qf/iPbmgGb2SzG49DBqjPYq6XL7H2gu/YvfgvbcBujzaSQg/rt1qvS2+6L20GDQ+VBQ0P9499rwKz8y8pWVLPdEO+zxzF0A8IubPPfMpaD4cqUe98MMNvNihH7v4V2Q+Z2JBPI1Bgbzn6Hw9RWOgvmhZN73y4P2+mYWUPe5Knr1bojA8Ns6FPG1RrjyeaA27aqqqu/eKODosOqW8i0skPChFxTrsfYS+fAb8vQJtdz1lBFc/m5drvOoZ277yeDo95D9BPs3To7xH2hY9BRLjvcj7hz2Q+xc+YEHGvVWcAL0OQHe8ZMMYPK4S27uyyxW9TNQ9vTwIF77rER6/FkoRPkzqU78ZgMK9V9Acv8uPKT1mcDQ95d4iPnpH7Ts07ig+lzqtPTAWprt5VAW9spXWvDk4/zvHOwS/bncWPrK/jToTjUe/P+5vPfm3mD40jo89PknGPiYkmLp21qC9STtyPuIwob2Xb32+q17bPEArbjzR6Cy7AmNivGCTwbup65G9uVEUPiv0bL6k0/E+5tIJPi3evT7s4pq9dgxQvsjzqTt57DW9nIJ8vJzwoTnnhOw9",
                "vVJSvWq727sjtRi7d8K0PCKe3Tw058m+31/ovX5H1T1MdTO+T77NvqrQD79pWia9hjSbvuoVLL7Jv3+9prcePWoAZ70hVs28q8STPUnMlL7LDbO8VcWzu0qdULrPC7e9/FW/vWE3Br1uShM/9KcAPHwLqT1ssTq9/3gbvlFZljuuTGK9rGACvirOxDztuJC+QxUgvYoLizzfXuU8DJI/vGSxWbzpm1G9Qg8bvX1Cmr0awGc+gm4TvQQAoz8i+8678uCRPoyREz1l9vU8lVlcvGq/NL06Yys+3GYbPmdACb5UwyO7YcSeOhF5lTzJi/2+N/dhvYJOoT7wBQq+AuM7vZmc2z56pXM9gqipPgCIV7108oS+MtVwvlJBYjzT01i+7YrMvKpd8bxNPgi+V472vIpLqjyEVgy/2OnkvRxBw757dpK98bmDvOQS3z44c+C8QJrIvCnxGz3IlFQ+lc4Zvjr0/D3QSKk+KOVXvY48mDxuhtY8qNEkvUBYGL3EF66+SQkzviyhnL5G5h47kvj5PHr6ib5a7ZA9oOo8Pocb2LweEF4+tKMHvPleBLxNAuW9qwFZPXKBMz19AJC98bySvLX2bTzBSQS+rUWjPnzS0bzQrk4769+9PCU34r0BuD+9VmCavnad2z1lsrc9mhCyvSgrHL4q3Ri9HdXNvYJXhLyvkES9AX9mvQPWpzwBIiu/eYorvk/nyT459CU9SwoIPjkMnL7UVSM9Lbb0PbBt1rydAlU+76ldPkhHRT3cckm96LudvQ8Ws7069qG8bUmDPLgURr2j3Va/WOeDuwfixT0mnbM93oOevVt0eb7xU5g9C+VHPmjsgDkcXUO9v8DaOyT7HD3jH6e9t6eZvcJ0JL7tigW8tZq6PKcJG70c2Gs8RQSgvWQMGr2Oos4+/dJAPfMfLz6/e6S9tRCAvnqun7y3Kw29sPYUvv4O+7ypwf69ZGlMPvoxrLxVOVg89SGQvOTt+LyETM+9g7qHPaOgPjyH3w2/TbgWvqYbib3Qnn49",
                "JLcbPj1j0TuyV3y8eI4hPhA4K7xP16g7cjGuveIa8TyV+Dy8+xJcPCEnFrxNo1k+3RPfvNABwT2gT2k+iS2VPMLXsL9paRI+grhyPluitzv9jEA7caYIPT1+BT2CB/c9EogLvtUZOL2zEwe8/h63u5jh3Lsp7km/GBTkPc2mEr0FFwK/veYovmTxHT8xWGy+PgVGv0P+4j2ADkS9dQuMO2dxmzwCMPo8SYQVvvqZC7xQ2RM92mAeuzK9Bb2BSo69Fu/JPQqbsj3Cdg2/1Klfu/0vjr/rWNg9qHxJPs4/gbwvGao88raNvB5qhj3tmdw9MqoVvnlNKj1vQjw7uONKvC1wEz2sivI+zwBsurmcYDo0wrI6AvK+vZuR+7y17wS/63TmPaJlrbsQkYC6pmahuzHn5Lv6g467fZsbvPse4bzBLyw7VcMVOxtafbvB6oC9Q3jnvXc5tDzMDTg/Z0lPPXsAwb7/6BY+O1cCPyaHarw1fB49ZgEivhXI/jx9Ckg+9sbdPTJdfrvq4q+752zbPP0y3Dwk/P++yc+Hvolj4L57qA+8YNsvvUJKej6fJWY9xftYPkMM1rwqCqI+2D/kPb1Fsr1MjdC8qR/HPUeZOTyVrLO9WDc9PP18GT1iMH69mh6qvjqWSD4Xmt895Y6uvHJlTj0JaYc9AbQ9PklQ1Lw48my+k1cOPlPoMr4PtL49/DQ9PmBuezy84wC9rsayvYQKMD3F8He+c61EPFcqED4eV82+NhvdPRlUY74zrd2881U2vmuUursAk569uNhnvUdAxz2EY6K+fWbGPCGefj3cuIe8cr27PIJPhb3IiCK/3ocPPrhRuD2utzW/KG/dPZJPLb8qRBy+tqpFv+Mejz3gA0M9GaJUPWXG0jyk3k8+XkQevuBgQD2SSBG8l/uFPBO5orumt8u9Pi59vtjMBj8m/Pq98+9rvUOMEL/JNIg93qXPPcZgYT1sYUE9TEvgvesLu7tn94O+FW/WvZ9qMDxF76w9BSyqPJk5ADz106e+",
                "hWOBPkrxOT0O4dc9LViXPNy/XL6Xg0k9LXglPuwfGTswRh69CPLpvRB4h70hmoC9hsa9OgY/9z0ruf+7+9CyvJIWqjzfvX6+mTFfPM2xOj6k6Bc+zZ02vjiHij45/J+8Y+fPPJ88Vb7/xng9Lvd2PakEHrwjPni8Ya0QviYRRb7VSTc90NKxPG5+5TulmqU8"
            ]
        },
        {
            "shape": [
                130,
                131
            ],
            "weights": [
                "Yn6kPpIZub41sHg+LepYv6OrtDu5iKo+Xmm9O7A/Kb/PV8W+HaepvhLF+z6Y0aE+NYSNvnHilz5W0TK/31urPWqze798kzQ/lK+5vjiZxD625VE+G1e4PnD0mz4FMqW+wDj3vtLBuj5cEoq+zpC9vBf4uT3TvWO+tstGvgDOLL9tpym9Nui0PlG77T0MNwu+t3O/vsMnOD4mxIA+PE7FvpwXO78otDa/XO0OvbYTSD8jGNe7mlusPeG+Az7yBhC/sc4hPnPH1z2wvTs9n/iev8Ynj76nK8K+unXNvXuP0T4Ob5E9y+0Rv71GLD/Uag29lFOTPDgtl75W2Fu+Pom6PTMxUr8a2Ka+XsSRvtdn8D0bkDC+PE/UPr2BVj1omhy+8+ZmPoXK3z0m2Yi+Nk3JPTKluT5jqCk9ztL1vs5Mu7v2ToS/yJ1RvlmySjuBI9w93BkHvQZTAz+bvMc+uUmEPqIGF78ghDU/NEf5PTXJAb8W2xk+E+gmPoQqcj7nOJk+l3Z3v+elUz3vkyw+49D4PWZjmb4EaCe/UUwFvwEepr+NZvg9QdRWvgvlGr6ud3u+tDV1vdiUZr7v3qG+qbvlvkGEkTwfMAM92kngPSW2fb9G+vK99YRxvzOCDbuguNu+AoxvuaIrbL2zoSA+oBdtvr9q077hrNY+dl3FPYCEHb9SFw+/NeXIvPw3b76wPG29ioMvPV9+GD0ewT6+okuyPcVecL7BhgI9DQUTPXbECj5LoRK+xv6XPrBArT1/tYu+zlY7vmcRjz1UQQm/XCFtPbqN5jwCLxU8SUWzPiPmjD3xARY+JS+dPc1S2z0dC6Q9yUUfPh3nc7z40AE+DlDjPCnUWL9yiZ49i/xBP8irh7xXugy+92mZvfmUiD1PH7w9Ff0PvoVWmjw06Sq8q7MBvnQThL2ZbR6+OtkSPhi5i7xRi8E8MBCBu5DEbL5FuhC8TsK9vlLurb1eneM+qiSfOysa0joxVRa9GSytvbPSFD2hYic+1iq8vYIP5r0rNY++",
                "zuVWv+ks9DxsSS0/BYumPJymGL2eue6+yIwkvsV4W74pVv896Sucvo0Sh72xtzw+Y1MhvlypeT24Qs09GboUvXICozzstRW/I3S1vm4CXLyLI4w9nVWFPBALnj3lc1U9oek7vdK/FL7CrFU+lEqrvTg8Iz5d/xa+EmzRvvtZsr6ONY2+VBX9vU2xhz6pLUU+IipOPS5+wL1qBUu+7opRPfBj2bzNZju+nmqgPiGkcr4tYwC/8uPXPasiA75ZNJ69aUGgPvNbUD0wmQc+Rg5ZvjHBaj3Nxkc9vLTCvi85Ub6k5JG+6BO8vhavPD2v/pU9JDDVvSVIsD7J5D29soKOPd6bsj3XuA4+WGXjPfIrXTw28t0+8ZFJPQjD2r2P2Dk+PyeVvUq4+7tKrVS+cvW2vMjRSb6kZHy9jTAKPZDadD2tsK097i2Rvkij9L06ZWA+n2v0PtEk4D1uA8E8XJqBvV/mYr0TWj4+81fuvS4K5D1V5ce9C3PdPYqnwrzMTNA9LXfIvSfXHD5k+v28kiGMvMrijrwqvkC+37gKPuNlS7o3sHY9nNUVvpqlmr1Fj749GDsEPerFML2nAyM+jItjPsm4or5ibza9IAJjvoQuhr3l+U47tWWbPUNzRL4MVcw84eCdPqMpq7zDh0A+8A4kPWEK2DzuzZy9UEhVvhnCdr5qRqQ+uAUrPppw/z3F+f89smCcvXHSSL7OO9M9LpVtvefXgD3WYUS9IDA2Pr1Hyz1EIhM/s6UzPRGs873K9xg94gNYPbiOtLxMQZI8Uy6APgz1ir08u+07Cu3PPV2Hm71QXG08iflEvrlBpLvA9pe90/HJPV0O9j0WRRe9qgHUPXIbmb4DP8Q9UNFgvfU+lL6flsc8DTOPPgARg70dcS48NoF3vQqluTwzFzc+aHPJPdkaYz1tI6S+A4yovH2KrDhMGPe9dbdjPkCCk77jZFU+8lUOvHATYD2xniq9XYK+vdrTMbx0eFS9ak4cPhjsJD5+XAk+F7KcvemTNj53oKo9",
                "/he7vsXV6D3LULc9YQVuvc0OPT690eE7jpOXvQaHD759TlK/NfuevoYxU76wM5Q8+e07PAG2mz6CZei9N/CyvWQvUT1Jbr28hi7UPcHEgjzMY7u9OLRfvejm4L4FfPa6y7wxPvkAjb4VPvg+pPqBvcIFQj4kldM8x3WHPsBpLD5jnF0+NkhJvjhPyb0YzFi9yVwXPvIRpjzlMAI/R3WHPs5FLr6RPRy9o4POPRrfNz4Y9Y29pkY8vp0BYD77bgs9EbeavoxJPT+g93i9cFZHvj/25r0Dr449g011vc1rQzxo51m8fC4dvol9aT6gg869nh6gvnxAyb3VB+Y9nPkAPrsVcT55oDi98RicPX2Hkz1UhMG9EY/GPVb1cj4XWFS+yJXtPBCLSr55to09BunWvYA00L05ZbK9TvQSvhx3G78zZr4+EXZlPuyDKb2GNFg+z+awPnmxf74HqP+99MNsvaKVhb1Q/AK+NYaGvicuJ75mbIU+nMTZPQh0gL6EgbK9iANuvtYyTL6+qsi7VR3zve/fZr0eS7Y+zcU2PgzUAz/H20a9ejeKPvRYSr5GcY8+d8muvH6wnD2tTtS+Wd4OvuaFhL7Q7Bw+N4pSvleQ7b1OxgU+ZXjAPt/qfz49okQ+/f2CPlCLqL1ESjc9disVPttNg7zcMHi+cpCWPlfiIj3hm0y9LJyrvaUEID676mW+TFMNvsTKIT5dmwe+kjzYPY12ET0mCsW9X3ADvTWNQb9Mxk48Cv4dvmFDgb18i+Y+ZdInvEbCrb0zt9m9esCQPrmZ6byPlOA9gx2MPXd/Lr5Htai9FvJ/vs7JsL3ABLc+83Y/PicIlz68OUQ9/WKgPQh7Kz3OxR2+W3o4PZL3qLuTmWo94UbIvBaqiD2WmAs+kniqu2SOrr0EZ3w9Xm7NPEgyzr1gLGk9A6AQPuIQWr3b/Mm91NYkvrSS+D3buym+HiZPPRqb2byTTFQ+qIkivZB9Ub52fSk90IbovPl28D1UPSk9RyKNvUMXRj55Yp8+",
                "VsllPUbsS7qLc5m8Iv8TPqd6r74q+6G9gJIOPi444b0Dlf88Cv/zOtxMgb1Z4UC+BhOiPdqWNb3YOBQ+unRAPaubyD1DsN69CHocPqoAWz1grwG+2JQnPiYk07yiyTM9lRDZPIWqcD1CLeW+HCwJvxP7EboPlL69vH3FvG+cwT36kqC92x8WPlQkpLx42xg9SmOoPcWiIbtwuQW+Q8aCPl4c5jxQ4pi9iiGDPl6oyj0oKNM8y/gWPPfKOj1dulg9YQFfvW99lD6Ys+E8ctA3vqgBzD6kYMU90r4WPM4nGD6cEgU+22Y4PlNTyrznB209CXlJPafoHz2eXjO+qqvbPNStZT2fMOc93jM9PgW3v72OUa4+b3OePKJgOD78HGW8GePwvHtJ8L0RUHw+NJAxvEPbZj3tYv89kD+av9/fdr6PiNU9Kp2PPYcOYT7OXrS+QvCJPWNsQrykTDY+FmR8PW9kE77qlo++8oUiPdKSB77xLzY+/NBcPjAb4z2AjS4+wToiPtijs71H1Zi+CMBBPsEocb2WcTy9CGIjPuSIPL7WQwi+PzlJPqwkhjnflLC9+n90vqR43TuOXTK9rAMEPokGYDz8b5O9bNe/vbHHRL69T469f38WPdkXz7ycVSs+BemhPrQ/gz4nPU89MIEVPQSy0z3yvFW+IqSePSzwjz6Pv1G9KA+WPYjMJD4QJT29YUbZu1Y7pz13V6a7+5FJPnM0eD0hwUM/jRVLvlEpoj1f2sE9sYOyvVtx/T25kUg96e4hvZVa2D1WpDM9emENvs1ojbwK5Ok9TmeZvptsvb7SpIC/YRoqvGHxYz7oMi286Hu3PQgDv73FBEk9iUwevmQi2z29P2c90vSkPckEC75ipo09p7n6vS0oAT8zPNe9AkjZvVEKJr7wMFg7J/jdvQj6Kj7H4m2+v5MKvdg0iz492x89kz6BvFjHiLulKnM96W6WvVABKz5sLIA+nsknP9UmYj1NJQW+VdDrvsalFb4RkoE+CndoPNPTZL2CQ2i8",
                "TPlSvlrtbL3FwYU+gn4/vW4+GDzilYQ++UtSvp0rob4E45k8PQYAvut5u7wkX7A9SajYOo7FNb982um8mO+8PRFTp71+bsq/9504PiW6Wr2+6U87Ng75PgiPQT0omYm+JN3sO7DeDj6pkhq/nxeWuly1nb37m4q+Ew3qPs9iGz80+eI+0zxnvnCjHD6dUxq+QmUBPdJD475lO/69QkAOvgHPJLx++cC9cJPrPPJCAT6A9bs+9r8vv3UxYL5A1ww+gWtdPfVzWT4Lllg+Pld9voVSJz71UCo+UG+vvaQ7Oj3Wwmo+k720vurQ3zysm3u+Ei6lvpW0jDxgUTa+wrcdPm1hl72RoN6+FXSYPnOi8r3UJAG9Qcqtu2veZ77Gjvs8tDUcPuDdqr0+GrQ+3XO3vo8Ugr7oNPM9VoeEvsTT7z7EAS8/b6pFvoecJb9NuzK9PeTtPbPjvz2xgYC9UQPuvs/p1D3sScK+vBQYu8AHRL4PmIA9q89jvlbVYr1QbzA+xUMNv3u9kz49hQS+/d8qPm4rY728SZI6ceRyPoIofr4WaQq8iGkeP+xfNb6HRC2/EVj2vRuJEr5JCM695tgTvxTFr76a/By+cCmfPshPgzyxIcs9fuiqvSjBkzqct2w+YlycvpEhPD60zlY9kecOvkvl9z3Szd6+WRMkvcqRJT40ZX29esgCPltYlr2YpNI9ok6AvueXWb0Pa9e98AQOPt6d270Ua80+qfPfPMuQA74luui9wvnOvZshyL6wFB09azSLvST/jj1vZ7W+U+gtv4JY6L4MVRe++g3lvY1Vhr7S87M9jkQovhiEzj15nJ88FNkzPsJXij1gg5K8xXeHPowwsz3kuLK9eq6qvDp4+r3uffY9OfvRPWnySj6WD7S9CnswPgfIk7yGIJS+U5dwuzByNb6NPSq9wss0PR4fe70Shbu9Dd5GPQGRwT7b74C+t1a6PA1JRTzOiAi+SxGYvNF+kL6JpAs+2DvbPf9TCz4kppy99JS9Puwair7YK5K9",
                "4kSIPtxtSr5pajw9trdyPm+AZT4AftE9j5uHPgHVcT56Nbc+zQMNvjrfBb6JHnw9gRRIPkwYxj7wpjw+0Fv/PtnXrz0+Ing+j2vCvRLbIb3r/VA+9zr2vHHEBD3a9PU8sDgJvpfQgb1Jo3M9Hg+wvpUpsj2et329pAqoveqWLz2a19m8F1vXPGHXPT6ELeE+DobJvcMkCL6ANEy8CF38PR9qMz0+RbM8ngwXPeOMwr1kHE+9+OGKPbao3ryFTVu9EY0Fvrb28z3PLeU++Ji1PrZpDD+eCfm96nwOvfGPy7wW8SQ9sjoqPdTi3j1P7mo9/vDJPr70Mj7G0vO9cUMuPk5LxzwhU3y9Ev2nPQ5PkT23Yxs+vNEePPjFuD0f/B29VDxYPVy4lT3tY9Y9RPunvTTiSzyXFia+tB5RPvGmJT7J9Qw9Pba9vYxWWr3aYh89sN8CvqQmhz1VKW48kmR9v4rqwz3c1xI+/MtCvaxFvj6X3qG9PH0cvgic+j4qjka+TI0pvX+7BL7wd6E+5gbBvum7ib3q7N2+jCUHvoeoEj4f+cS+Hc8Nv2tahj3Js2q+zt0zvuKHTL4uOZI9wyvKPkFPTL4H9iM+/zzwPUn6CL54Qdk+X5OBvp7lCL7B1w0+nYPFvYHCAL6BlqK+fKDFPHT1lD5lT5Y+4OSxPiQ/Kb8Zl40+a0eHvr4rij4Y4gG/IpSDvvw54TxAaTY9oNpXPSEvTL7U7R2+Cp77vXUH57wNe2g+OWNNPdW+kr6wrFo+dJnaPmGYVT6S98W+6rbdPTJ32b318ty9a7t8vvoFzTxv53S9mNQ1Pcg29732M6I+SoqOPumwqj69dUa+w976vcsUFD1gxzo+XGSVvk/NKj4lVmU91DgRPsSqOz2rUBO+rw4aPhY2gr6VmMA9ZspWPVujvr67HCG+fO91ve4Jtz4Q/Wa+bjkvPiiXNr586R++bbQpPoVAK7/1dQw+mJBEP0PpYT7/siI9/qZTPTRHjr7xXZO+y8taPajzm70gn68+",
                "L5UEvhQzUr41Fx0+xax+PYiaBj5Nt7e9jA5yvW5lkL0fj10+UxFVPS7bBTxhBi0+l0vLPS2alT6v7Ri/XKMVPQnybr2vjkm9RVxOvRYKwb1ZjbA9LmiMPh0Qe74iWEo+o0LLvjFzkD4MUhW/S1j0PTQhWj0XeSQ9QdJovpz5QL68c2E+JEMvvQ/L2D6oJQc+cu/KvqIhgr5V6cY9RoUnvvXrLr7YjvU9muagPnrVJj4hhnQ98X9qPFhukL1S5Li82MOjPg3xL7zAfSK/93c7vY7xhj6JmUe71gBov/RHMb4NWwA/fRd8vjhksL6UDWm+S+P7va37gz72n7q9eICkPo/8xD5rsPc9ids+vhjq9L3rARA9jWlwviZmDT7c+MQ9eRwHvlQ0VzzXX/m9UixNvrtzc77mfBE92204Pstrur47jOq+trh+PHAkSTyU6ZG9X5wUvhaukz7Mbom+ytiivS90Rb6LuiQ/ptx4PpPjJz078qQ+DQepvl/Grz45Ody8eMeovuj3Tr1moiI+c+sxvkWubL23WSa+SNkzvSE1cb6jN0M+iATQPjoShD7ZJym9v9bpPqPElD6DiaG9EyHjPg8Q/Ls5Uvw+bTmSPr5Wpb3TaVG9r0shviWSrL4AJb6+xseHvd9BLr6hCY2+RtXwPrVETz4UgBE+FIqtOrG22r7iTu08J4nQvR7gbr6PzTK81wkLvvuRVj7TzoI+CDvFvEJJ4L5JST++E9qnPSHkCL43FME9QNQ0v9fcBz6JvVY+IBiYvWY2wL6GdRG+FddKvj54AT09RTa+jcSDPmzUwb6Xc4Q9feayvWVN6D121Em+H0OaPmJB+r13Xd4+FEcjvm79hr6MsZi7JWkyPdtOez7ge/g+9k7kvTrzLT687HY8YQilPlsFvD3CTca9+hWnvQJ7Jb5GaoA+ZL41vL6zFz8sPMK9axLLPab50j1Ao+K9UB6yPhVBqb1Ohxu+iKQePcATzT4nE1M+BBpWvqqloT58WTs+GOcGvk2EO71Fa8C+",
                "vIohvqH7Pzxz9SO/BUnOvdjcQ70JkB6/SugVvuSl2749KTu9y82hPUeBlDtIxAe/gqGIvpNVC77mnYE+n2doPQALNr6igQm7CRO3vUK+Hr32QFw9EOWWPu+0Ir43+OY+KLlZPAFrbr5Pn4q+6+2fvRUP5D6xTrE9ITo5vuVEnD7Vzf08OVsBP7TcQT35VxA+Y/AwvgHD+bzioqY9nlFpvSwA7z689he+2CSuvs2Dyj2rXz69mGaXvs92HT49tUm9+oJHvig2rj4nb749jYTmvl13Pb68vMs+qJ2pPbCzuD6O5dU+dd1fPiJfw77XTu48M4bTvkU5Pz7/Zhi9+CBHvkJK4j762qk8En/1vrUKo72qaQM++jgDvpJWBr49gyO+oFXFPt7uDz2leus+Eu+XvaeHJD2B0OG8x8GfPg94Gz9iml68UQudvjH4pT4mcSA9d6A3vefF1Du88na+tnIrvgnG6L36NJ+9zURgPtCreDzMmAO+8Q60vpcZQD4L7j88suGTvo1VzT14xrY+mE0bPj59Bj1CLY09sWsRPkcolr0wBPY9v/QovNEQSL41JKO9eXi0Pu7EFr4ShUK+n7SQvtDzkT2JhPy9FF3hPoBJCb8nTR69+TbgvKYMj75MMfy+SKqZPR8pwD0jdu28X/SwvjYeLL43rtC+wFnYPtUhD76j9oC83prvvWIJmj4N3rO9e7eivij0vDtk7BI+my/Vvnnj/7x5eUY+Cg/wPinekD5LB4a91uHLPoQ/Sz4VjLc9p/e2vlAKND6bN3O+dHTePHj5g72AVNO+inYdvJzRtD65xjm+KNZVPve5Vz7pKPC8zswmvrSA6T3yVqM9NtSXPMWs+L2XHx2/FwZBPhmzBz/eEBK83cf3vu7jbb6lf3W/5OQ6vgvAl70D7fG7S54iPtTzsTsxKps9+o++PeVlk72J1JI+/GjYvjxFCT7IQo4+oisAPvl4eL6rVak+KvkUP6jWgL6SfdA843JzO+ccTD0h2VW+QHSFvvcy3T5VTti9",
                "zAMDPy6ZNjxu+IS9/pCDPecoA7+XSfk9qDHVPFinyT0tzpa+BN7JPijJlrz55p4+GSprvkHYXL7iIa08oX0qvpy6pD6t4E0+QreZvS81B77CEIU+lPD/PblnnDvQGqS+HZPCvu1Qz70srdo89MQJv+EHXD7/KoO+0K7SPj/g9L1tUQ89OyBuPtiNkT6bUGu/eL2gvgpH8D0X4+i9uyrxPdpk2Lhxdei9+qJTvvpcz72S3Cw+Parvuy8hCD7ZLJe+eNW8vidVLz7hKno9/nMJv9YuMr5c3qW8RKuJPR4IEb4koGq+imQwvYCvEz4FCRk+XaPSvkLmhD4vnos+wOMKPg6i5rzPk4y/36V1vpF/cL7B6pa8DU0cPSuAFj4W31S6RisnPjoewD6KXqC+whSwvYw+Nr6MOeY9PQSNvtZt+b2juVc8FeNXPr0e4bpKQh6+EwGavii6Hb5Mjc69gNgEvmsbKL5bFDo+o4L3PWtFUT6wSRa+UEUfvWBxojreD0i+RJ4KPxHGib398Jc+PpbBvp0V1r5sqBk+6O+vPrmazD0CnpY+nqCaPTr7aL5iiNa9GoqVPQQhFD0UfxS+WVUfPlfXer58d3a+Pek/v4geYz6bH2s+xckXPesj9j4NAoe8gOlSvvlblz0edLc6NocRvbdv5b4C3g2+pW+ePg0Ro77dmwA+qIIkPhNriz5n08y+hCAmPScqB72/QAe+qamnPYDwED01NsQ+yllYvQCw/T2kIcW8VkcHPtoLDj0a136+H+YEPvQ7Zr4OCTG+pGJWvmaKpT22x4q661P8viEOCL6CDDA9Wt9Hvn0Aer52mjO7LUrtvmnQ7j6Av1W9Md4PvtghPL1mct29brbjvmXTwz7A8am9WsFbPlGy7D6DpkE+o1kAPuKVUj4bmBm+qcenPiOK2T3XrOW9ZWW/PVwlxrvQrOa87KjMvYjUO75qdXE+L1F2PsFonTwuuXM9F0zmvWjp171r2Ku82rKwvV6Dory8/CE+E2yQPaxdob3GuAe+",
                "LZpwPmn+4z29uQ49q9qAvAy08jywiAG+m0ehvDNoHT7d6yW+VoAGvilya7xKUtG9Kn1xvPh3IrxndxE+liomv+YWVr7tOTE+F8l5vQWNPb5Uv7A9XwV/vKXDUT48TJA99f0SPvMKi778qUm99h88PvIddTzpD7M70ijOPOSMRj6G/WQ+UmMcPJodHz8wUrC9X5joPYZ9vbufnJu+x9+ovUPKbzwABsY+V53DPRL7XL5cGWA+pKBRPpYIob3FVFo9MK53PiCY1r3/Xk+9fpELPldZtTs+GSu++hC6PsumMD4FHKQ+7DIUPuCioD03lAw+jSXvvHXNz7zSSsA9sGQfvnia+bzfeIE84OtDvtsQP74KwFC/GrQ9vnOCL73KkJe9OIyvvBJVGD3NRhC+kPuTPHapCL6/xOw8j1owPrnwp762VAI+H02VOzgGc74OJ5Y9wRtTPrM7ejwrEiY+JXQevt65qL2Xap89nmXCukj+TL3ndBi9Wyi1Ppf9Gj7Ml66+Mz0yvv7BBz5ovfi8q2lnPZIO5jyKOza+O52ZvMV0ET50lRs+Mtaevxesij4ZI7o9hRqDPvOwGb5/bPS+Ai0zvnvc1r5zhKu9RLpdvwUZqb3xGP+9UFdlvVWyIz56Du6+veayvKTwgL7CCkA/EMNIvmZNC79zSQS+SPbEvp934b0fI1y+kKTTvfUrDj8jWWW9EIr/vsdDTcBg32M+V9c0vqw2KL/JuzC9FAervUSdgDqAxfg+14vnPVHljj6AZMK9LljTvVUrv7+hYl4/BIoovd1gIr9N8qI+EFJovssolT2fm+Q84U77v3djtT7wDYe9Iz0xvdjCfz5ttxK+bCQuvRyeLr2oyKI9K6vlPELgir454U4+gNgfP0hH5D1ega8945OhPWT97DtqV0A95Q90vvcux75Yxti9WrpcPUpChL1GqsE9sjzlvZPTor0Gyxy/qN/gPRBxQb7FXIs9YUfsviDEBD/p+SY9+3qmPRxbGj9G9Lm9bjusPRdFwD4czUE+",
                "vNxZPrh36D0Zlbw9MWKjvs4HHz6gXna+WZbZvi2Ia75WC9w7iDIKPSTDmj2Cjs49FbfjPQYFqD4aH42+pjNbvnhg+D2Gdqy+eTWSvmK4cL70BDa+2Iqfvvx0Yr+hiv68TZ1BvoTVO76b3kK+t+NIvstNAj574E89S4/VvnHSnj5eHNS7NPS7PvPqKr5dzZ89mS62vR1xML4/Jgc/JCCQPtpVLD6Unvg9nMz7vDxNAr76hRS/vBSMvmYuQbpCspI9OVblvAJC7z3BYXi8vFwovF7PXT0sgKw9zlAMvjuCHT6UzxI+mbV6vMQwLD6kaIo9YgFUPsnlPz5vyua+8THgOvYt7L4khSG+8nE0vqETXLz4l1Q+stF1vUsXTD3myYO9bt28Pa+2Lz7vCcC+Pf8PPFOdTj50tqE9HCOIPdSYrrxJu809+w7VPWb4irxtJm291nWsO6kMtT6kw2W+BJrRu1IFIT5scR++c4JGvYZMlTyVLoa+SaRxPsOnJr0Coma9lgK5vexSrz7+BLG98j7PPLp/dLwdnbi+bvWFPTbGBz6U2fg+wG1evv476jxmkmk9KOREvgM1Fr6haqe9gfQAvvHOiL2TFt29rhI5vnuoqz2wO4u9irBfPaOHmb2U9lO+8CJ9vRY6Pr1BLH29izO9PLCpoz4mOUu+ZuVUvUER4DyatIo+KBCGvqHxgz3nQFY93nqEPrHA1T0iXdG9P420PtD+Cb6J44O9rlW/PLkydz2ricS8n+ziPqDYMz24HL28Ov8LPcmTlT0qq5Q+sxSjvRVG5r1pB06+8oilPhwtSb2LW/I9UPM4Ps7amz33u/Y9JieaPpII0D3cI0A+q9sMvf+vH77pT8+9X2IdvtIczj1BjCW9g0CDvkKTKL7Enao+DaUjvNuVJj0e73S+MswCu9KqLr4Ajsm82pr0PBIEuL9wj7a9tIKBvfd85b1o+yG+C/+nvjFRmT0RJ3s9ty1OvuP4gr1mRLQ8e6QZPqqzNr5Llmc8V647vggctL3xle26",
                "fEBYPbx3L7sSDuE9HJsYvYMVqL01A3u93DGQvRmq/b1JXbe9u/pJPqR0ID0YG2S+fx2lvo2zSTz5YFq9hdwOvYUhVr6xeJ897V6Nvm+mAj3aMDI8SYnsPcsjpz1WVnG9kOCHvgRsNj6nSxg9R8ZXvUderD0Bkjs9LZXIvQ5Vhb4HgPO+sFKTvZsFar0IiaQ+QLR4viaquL1NTGo93EuLPPvFpr5KIha+Cl2pPfjcGr43mFQ9X4MKPuq9Vr3wkE0+wGJtPXN3QT6e/As9HfebvUp8Az7mC5W+K3trviB2YD3mjFM+8vUzvmnwLrzYZAu+Da6+vcPaeD6Q4aw9Xi9/vknmmz4y7iw+8N0LPl2wQTyjbAo+cuFHve/E2LxlnNk9XMhjvd/pzL35SmQ+nqvxvbdbsDgCZ7K+nd7vPPq32T631sa+DM4KPrcTHb6Mf6q9CRnavfv6UD3TDvI91/AdvkWeETxwo/48tvADPmZ8ML2X9Ek+wlGDPXLU1z2Qgqa7DN3XPUuVlT1V6J+9FVl/PQyRKz5B0+g+5g7BvoAUdL23kUY+X1YEvMDhir7U5a28Ir2QPMKs5TxWtxI+teASPYm+4L2jswU+zp1gPypCpz7n6NI9FUzdPdFBM75TlYe+HMEXPq8QEj7ptSM+DWSAvpBu+T5lBp+8tweVPpolPz+dcK4+Hd7ZPahwIT8UUQo+F1zuPt50Jr0Cn8Q9Ykk4PvP7ij5SVDG+eMzBvlqt9zyUo9e6uY7jvvZLob6brO2+/HwVPp1Sq73/nrk+LdnnvBkOsb2ZnD0+lPCTPYwvrj0j3gK9yk2QvlkKij40REG+esu6vjr0lL7KTjU+2FXgPUY9fz5vn3y8ehxvvlmHp76IYsO9tK2nPnoOUD5mQ0q98doAPj+M1T1fA3a+l9oePVbRhL2JL5c+CgDcPoMV7L7QxsC+CsUCPmOYlj6GhWU9ooAjPlPt3TyQ/KK8aLGfvnUv3b5Xet2+ItGDPDHBnj2pRvi9pWffvUmPWT2CMfE9",
                "aMgbPvGG7b7i7m+9NlhvPeT5hb15iUq9q3w/vAWAi76w9Ni+EtayvmQJKL3uG9Y8XZLfPs7DhL3Yyug8megmPnVoRT5JUhy+mbnZPXRYWL6R6QW+eaF3vR60+bzDqpM+bun8PL0MiL7Mgx6+ORAtvjhd5L2JC7O9K/4JvvtME72plCW9wkDkvKApCL6o8Sk+K4UavrQOkT4FK6Y9k5J7PpJTsz18Q14+3defPqzyqLw6Noi+PxSsPkqMgT11zVQ7bOnfvFbrzj2WOlW+W5SCvjtxPb/6PVS/3OS7PuPRrL0YshS9A1qjPlJGaD1Cew2+NMhvPvg0Lb55KKI9izJNPaBPmL7V3p2+oM76PRNvsb5tjC4+zNnpvkmcnj1+PF8/s3HgPFA6PD4oiQg+QiEwvvNUFb4LCx0+vvbtvSWh0DzT41W+daedvlA/DD4K8Wi/O5iivbZovT6nRQ+9HMhzPdWI87uHL4k9ZMjLvZ67OD4PuUK+oYhpPCtiHzxFFiC/SDdpPv153j4Fq0e+uyuEvk/zPT5M/xG/3SqYPhSykj4ln889p/AfPzHIkb3vmw2+OXgovVGMyTx5kd+9jlxYvnjiEb4tFHE9Wnm6vsHuQT7Qelc+PDlUvngMKz64nYG9SgJZvv4Iij6tXxo9Vp9hvhwsLj5BBxU+rHUwPoLlv73+M1m+KKccvbTaGj4OHv895D5PPjUdxD0Yi/i9Bs5CPp7JvLxqDIS9TfIrvq1Tb73UJm6+TjtXPmk2hr5LvrU9NoGiO9gtFr0T1au9fSKuvmTcs77C0V0+GZY+PjtUBz31rjs9w8ZAPaUZNDv2opY9o2+yvcexKzw3qdK9/9hcPsMSET6Qm9E9G68VvXP0DD+C3G2+IbWQveqYpLttFqQ8dWhcPYL/i718sa89LLCavr90qj5YXya+qrVJPT1Mi761Xsu+rDCzvEPwBr73e4W87pWMPdOXVj6dwNC5HQ2VPDTFBL8NK54+vcmAvt5+wz3AhJE+FVYZvmx4Qr4+B+k8",
                "6vrJPaXNSz461BY+JY8lvmSbvz2uob48K72fPiadtT0lv5s+xMVFvskbFr96zzA+NEUdPVwepT50/D4+t3gaPZsPAT7PAl69DaiBvlgkaD5wO2C+2gOMvr8nCr8GcWy+P4jUvpCu0rxy7dE9gAyNvjpYNT3bgvc+3/eSvbdSp7yhgUQ+gW7CPtW3Hb4WD1K+Gs1dPt1Y0z2z41o7oK6gu3kLg7w8Ub082C+YPqtLub0O3fG8lncRPsGF3D2xEKa+UM7wvsR2cT6nKaw+wGOSvVeImD342J4+oS8yPIhhMjzVjDy+nP5WvTgBHj4rgOk+vpKRvYniAb52F3S9U97gPLIMOz3oeYi9zCGbvehg1jyk3Q+9dWuovcW7lT0WiyQ9zxw6PmnP2D2E4qy93zS2O6TFsD1rd1a+kElIvGSkcr0DlRu+y5GiPFhm/D2fq9I9YTwLvm05+T0pEpo+wpZCPkuY0j1ZuJ6+BZ0hPaCRSD5rE0Y+YxwRvVFz+z2FHoM+mAJxvSomIT5PgHY+N47qPHPui75oBqC87J3vvYc79L34BbQ75j1/vbgmNT6xT9c9Rk1MvgwRSz1Glro8ij/zvtObsT0Qdx6+y9YZPoJFHj79SlK+Shlqvr1A7L1YhT6+/7aVveRrtL7szIM+IXNtv5Cv8j41ghC+4gkEvqFGUD3vde67/v6qPqwTfT7jxkC+fjB8vmRqzbx2ThI+h2tyvnYQF76d8/k80OeuPrLdJL7svf69nuG/PoD6kz5ZLbk9FyH8Pp/JET45YtW9mEGovkgrNj50G6Q76tzHvcOZHb9OvOA8cbHhvSVNlL7MO1Y9F7IUvE+Ozr1pOiC9fazzPUHt9b7YqcE+eBV8voYLMrtUwSg+LlihvXVE970keDi+2b0pvpjgxb3MzTy+xUjEv69LFb6WvVo+YCCQPQZlBL4FrYQ9SuqxvDw+xT5GozI6HED/PTxU5z0qEtk9xSMePjDDmb5u0/I9LKlFvh3ABr2V7AI+PX0iv8G81T3rsOQ9",
                "7M/+PF88J70+opO8T1y5PXjMgL5LNTa+eFKiPfL2fL7bmD2+LBNmvWM+qb5mMx29R7nLvcrrzT1nzqS9P+cTvxwgDT4TvUC+WoGLvazkeL7/TKQ+rby5Per11D20SPM9vQEBvymBHz9Cok49e6mjvnhv6b0zFHw+d5UAPr/prD2Wqk0+KzwLv9XQ+r0tGaK9G4GvvsJTxb2Leo0+7LyYvtmXSL1TJVM+z3nIPst3JD2kmh4+AFhTPmB25T29QNy+U6ABPb726TwGVGs+t72APlluG75caGW+5gW+POOve71z3Zq+wdILvgxuAb4DAz4+M+CjvpuxWbzwLCY/bw+iPsaCuz4csZC7ftjnvXnQ5rwMlSG++xedPow0mj0LhjO+HROnPrm2Tr6QKIk+uGzbvfnuHT8jpae9gJqGPtfS57yPaTy+eQ4iPhF5MD9eWIq+ddHKvq4jnL3jBY2+Dvo6vgzGLT5puUo+XHDFPF2ZNj6iJic+AS/cvaKbgT3ZWw2/MgyCPmkrq76/lIG+RHeZPgxoJD9VXZE83m4IPtbxobx0t+69KSaVPkb1cT4sSvs+PeAoPkEOBT72ycE9+0tQPi0w5z4F7Gw9eMzlveZ2pj5md4A4n8+PPYSOET779Fg+0yAyP0EviD7BweK+56TEvSfwWL7OIZU9LHfNPUFKhTzJ3cM+wXfLPUj8z70MNV+9MyCyPozW2b6sU4m+24MsvpVMdL3/Uk6/qfJaPXiqTz6VGtY9/1BJPnCptT5lR50+Vpk4viaEHT5yLIY+b7qnvu/P5b0/kVm+d2k+PgQtVT7+vgK9+wlnvqyP+jzY2je+DwPIvloUFD7kOfY9F7oNvnCCSz6jKRQ+dyirva8kZLsuJLG9b+amPM49AT1LI1e+AiUlvjdLjb0tRk89XClju3qtur3Dgpc9HWjfPJiGPD3epIW+Ej9AvfV8oz41OoO+S1FhvkCEHz+HygG/d5qlvn3ao72f6jW+zL+LPR9rcz7Ikp2+G6uAvgd+rj5rLqI9",
                "9syIPgqRMD7Ltqo9ePh6PcH7TT5TxaW+qSY8vATm3b0uKWa+mfKEPhibwr31E+e9cTY9PiJgaL58SwK+tJ/fvSS7Xz7Jahe/aOXgPTNVpT7tdgO9g6Y/vgUmoD607gq+zP3DPNo5mTyPYSC+WBLGPcq+yLvHnq+9tJ9rvtVK379XOJ49nD1ovgfYWL2B5UY+AEhpPqqwuT1aYrG9Nv2SPeqyLT3EwT4+T2yVPunXtr6uzfc8LAv5Pfx2kjxiHji+GsEsPREp976o4+E+cQC5Pk7/HD1we1Q+XtmKPcbGa7qEWoa9qjf1vu8AT77NYk4+X7XPvUFauz4a8aA9p5Uvvk/7Q75HHQS+SsFZvZSw7z2YCda+zwcVPtnEsL7H8IS9mFkVu2e1wz3ep2U+t/uWPuyBp735Whw+l7tjvt1Gw7xCUeq98kd2Po28Sb5GVRa+s70gPR3iqT4/mM09Gk0IvaleOT7pT5K+TYgYvj7ZTL5OqJs+O8jVPiMO5L5gC3A+fZMTPvM7575aXZg+fIzuvSVR8z3gnMq8au/PPfEgEL7PBrg9jEnvvY3qWD5a99Y9wZPKPQCWRT6ixzc9bSuoPlQ5Mr3V5fE6rY7AvmjLMr2G5g8+2ylRPq/CpT1VdIW+PGAgv0/gL74HRm29PHWfO1GVUTzRZQ6+J+KsPNgWjL2wvJ48v3QFP/5eAr5WSWu+lQmRv9tvyrwmYYG+I3c2PCRyNTxxrP690wBDOhYlTr5EvzK+TlWWvho1qL2H0Xi9vCp0PqF5gz1I34w9bbaePRXgeLywZqy8ek+jPgi8zj1f4w6+tJgmvWlomj5rdOQ7omWavqtL9z5jsAE+6oClvJENjD7l5/C95jhkvks+sT16Oca97JYyPqzytz0+W6M+FTadPTSsJr3+kLA+YumAPt8okD1feBI+i1mYPhbPMD3O5MU9rCqaPSnbtr3q/G68/x4oPVESPj7xGvA93xrTvKLGZ77SKM293cMJPbULYz8pRSk9Bkc1vjwalT1W3BI+",
                "mHr6vbPLEb24nlo+bNxnPqZS3b2J5wy+WVgtPzit4L3nfQi+2sScvh2IvrwiTSe+3xEsPUhMob6eANa8k7CBPlXzsL0ga169oTUMvvuORb5afJu+PE0EvrMaVj2nFYQ/xg1sPcSoLr6iUIW+Sk64vBhurz0Fgw+9B5MWvvDKrr3akc+/HYlovgdsED/DMEu+UK1MvlaEZD0jw+w9BYFWvKtEZD0nAw0+2xf2PaFANj3zHgg+Kt7mPY1nojyQ7x6+8pGTvZ+Xkz6bPSC+bPlbvXAdGb0A9sI7vS8avQ5xf73InSK954rmuqMKjb3co80+ux61vTdRkL86cIa979wpvpzzF7zICSw9nbi9PVxgED3Ldg4+Rg0bvnPpqTwVqcy9Dno5PmKXs7yUo0Q+Vo8uv6GLyz7/SJO9qat5v/9Ayj5F3vu8binYPtI7bz6e8V8+adFDveBUvT3Js4i+Vz2yPjfoVb5JI40+eSLHvrbLAj7VgiG+XbxJvlDl9r6O6eC+WF3rvufdGz4Ie3w9oVDNvn7lzz7A6sq9XEAVv7TLO73Y6jK+reTdPem9wb0EAM09hqQDP0N5A7+lkzw+U9g6PXA2Xb5ySq2+WQhLv8fRkj6cjDK+bEvXvrFkHL5Qp7Q+wTgHPjpZA7+XrbY9Hn58Pskhb774myC+mBm0verITL67HLu+8UCDPv14nj66zR+/zcRDPjNcc76fQA+9YzLGvRR2Iz12nsI9Mv4Cv4diF79Ar/o8rGxYPpNvZT6P8XO9Xti3vC/EnD4vhFK9fkKuPoGdDb+B+sO8Fj1XPub03L3MD2A9flaLvp3flD64j3e+K/fpPexzuT57RDK/JQpYvq8qFL+8p3Y9ntcfvh2GWT21ZLA9NuRyvnRBNr1dpGG+W9vTva0I1710w3E+1URHPmDNCj6UaXc+ocMnO0Q2q72Ejxc+AGWdvoafWj7Az1A/7rhyPhj0f76aIBu/UppyPCkgTL6wEDg+Tn5rPh+hAD8/hRK+5ugRPxNkgz77ggC+",
                "+Fksvjb0Yj6ZpjQ+OdyCv0BrgD4vTJS+vMJAvpkYSL6+pBO+vVdfvrnLOT6Fe/C7BF2FvtHVfTwkVta+v3MHvsK4+r2Briy9rNrmvhDxh734ClM9NdhnPk4Ffz3koKy93VfsPi6vBL2HcPo9YQ+TPR+/Mz+VqDY92cQRPQwtBj0+GYQ9UthmvoafQT6lOMu9uHhFvwDNVD0xzLE9Ke2IPqk+vz62SrQ9ektqPVJ5ab42CIs+idNAvC4l0ryGpN8+N83yPkAonD7gr7S+G+StPc6kvj14EhU9tW16velkqDsimIu9/74NvyluTz5zal6+WjGNvvKBtDqY336/S21CvqJNPL5T/7A+h1tqvZi4jj0SLds9pE1yv0z0hbyzcwS/5lIOPN2WEr8+wSg/VIEuPqqsIb5z75W+ZKAPvj64Yb7AsPK+5cEmvdE8tr0bYL+9ua/6vvF1uj6vA6e+sw6GvbIehL2Xvy6+RRlbvgdH/T2Jr8A+WdLgvesWDL6PFI4+N/5WPb0Wzr0NO9Y8u8/6vXVZLz17uoU+ixCfPlgNmb0EbJE+OrmZPWisub4GYLk+N/FWPcZTGj3S1V4+gxGTvADxEL43wnO+Zf9Xvrul6L5JBB6+tXb/Pn3G6DvS3O08qiHlvvVXnD2yq4O9kMdWPrcmhT1HHIs9miHpPsjnLT4BGBw+eubGPpBG6T6+qsY82Dx2vg7fgL5SdpS98o8bvTlVGjxrwWg+HULLvYWFp7wKAfW9H0rOvvDVXL7dSBW+OswBvg6dCL9l9bY6KoULvg0DyLw6CiE+Lzl7vVsP7D1EFRw+zVXIvT6y1z0R8nw+bC/bPSsloj7r5uC980bkPc0YI7++wnA+RyrJvt9JRL0tWym+7lt9vt3ddD0GTV2840+2vRMnwr3kBZe9qL0Avn6bCr+wYmm+ZnGNPTiSCT7j3Fs+2I09Paf+Uz3nRhK8Ra7EvYv7Dj5XUke/hYnUukAAYz0ZExa+7JONPT0bsz7cBhw9Em56vlkyBT2BJGy9",
                "tRl2PEwWaT7SfXi+odfOvXwZcb+OCss+bnNVPn4XTj3WfPQ9oB+3Pv8vHT5sexM/kk39Peu2Ej7PSAk8duKNvXZUm75fdwQ+WqgPPtyWxz64LqY+PmUuvhcqqj518Vw+RFUTPlRAOL4ftko+ctrAPv1jDb70Ceq9dAWOPtiofD4TCh48cev9vo32gj5r+xC+JhFMvcNC0z5D3tG9Js6ZPloiCb1tQAy/0m5bPjZvTz7inNE9QdZ/vudbdb69YWg7JvNrvqQYlT7Wbbe+1ipNvqUKoz04XOa9pTEbPhLp2b3uMxc9vSIuvpVZ272nkTi+GPmUPeNgtb72HV69+s5zu+n1oL7YPLk+BVs3PkOGi71PbxK/oF5mvgnhbb7lUgw+L7tEvvakoD00Yga/oGXVPUShXz7/mwS+s7r7vXlDMr4DDgS/QJDKugOGpj10azm9fvgAPgS0Bb3m6B6+CiD2PNNxBj6lYDo+oPoSvv9bOL7lKNQ9vNS7vVBVGz2CM6U9bzOJPpVN4T0yxH+8Y3bmvSDRrj3Hx6K+XJ5evniVMD2fGKW9RQFkvRxdY7yW0ly9ONeBvfEguTqcg9A+EhkAPqR9rL3twiK9VNY/vWCJIr0lJpi9ducIPt191j0uTho+ZdM8PWYnEL43Ism8m52jPnX3Mr7yKVE9aOUCPhdVdr69rza+zJhEPquhS76geme+nfVGPHXHKD2rpJi85b19PYYVzT0i+Ca7P7UuPIsnpD3zkXI9ppp8PQtRlj2vyBy+OjgbPY7+Fj5QTsS8zVIaP+qHdb1AKRa+MFmHvXTVgD6IrU2+f0Xsvmq1QD/LeqW+yxFou5DaWT0lkye+S7zqvSvEjD1wmZ28T9kwPVYm+zqQfPO9yWUKvtMXhDzUGha+iTp6PQfbr70OKVi+lLnyvUJyBr7+ARM9VWZovUlPs73q1+A9v1eEPiFj37ygWRq+it6rPC/W2j2aeu09A/auPZYBkT0L6R2/9q0evjTuD70xcU6+jymnPjVsFT2mNMe8",
                "OgcaPXVDO702DjA9FgYUvorlPD3ZZuG9uZA+vsvkyD1Y4Q68OGK4O+iNUz3jBVY+8YiEOs1bpj36NHw8Rtgsv/lI171JoZG97/wuPrTrI79pWDQ+dxmavYuu3b2+bzq9c55EvKDgPjxbKIG+z3QGPb5yIj4h3tY+kazdPszJ+r0TPVS/+EGQPXW8Or2Bl0A+VZpZvXEekD0igo09lS2lvpbnXz339+O8jpGIPBq5973uNpG8SPlcvjxCID5ZNrQ8r6cmPlwtQT72o+e9xAMDPPXr3LydzUE+XHcCvh7P0z2abbg9JGUjPqFvSz7k5pA8Xh+KPk5cAT7r+mk+HGgZPsH+Dr00Ba69ZmDgvb+/kD5MzwM+1M4PP4gT2z33CUg+RFwrPp9vPb4RpkM+dullPtw6ET4vP7y7GhABPhFa7b4Z4+A9JlmBvlbDn76DxLo9KCq1PVWMCD78av49/ELwvShDOz7ZtQw/a+OoPYfADr7TfNI9F4+4v6waWb4t6Fm+N/n3vo3MjD5+A+a9xh2VvsnjBr7XCDc8Q1envTiGmj6FDpi9Za85PvIoST3nwoC+BY4evZLXBT6sv7++EvO4Pvkp2b58+82+cdGkPqCddT40kHA+TePYPIEXaz0Z8yy+xBMtvhmDor504+c908M+Pn5Eoz1rQSG7CjZrPbbjnr7S726+8wDUvVwWljt2N5u9QssDvrAqQz7lDRE+x008Pi/Mcb3XnCi+wXN7PpYtgL6jiBg9vYEyPUy1NT4+IBW+edRpO6IkuD1YV8S+M9KXvSx3BTymtIk+arSZvxps4D3oRue9T6dZPZ0TMb6VctW+GacAPZrC6rpusFU+wD5EvX1W5L3KACA97OxBvi7/az5rT+g+4fqsvnPX6r3tTru9UmtLuTL2kL1HVUI9VEW1vDK+bDzpD/68++8PvnkImj0S0EO+4CP6PIVHWj4SnLY9z/3PPmMAA72TK/i9hcedvtRXGT6PQV29+9xRvsF+t7ybd048Cmw4vES+DT8UCUQ+",
                "6tGDvjhTiz4RZVQ9Gw12PSR9bb5XpLg8+RiCPmtk5D1UpQU+RKrHO0+gA78ricK+qdUOPlFFST632Ya9OC+UPiyPBz0EF4k+m0sfPoOppT6EVie+SYRBvppJZL1eKXM+RsmAvielyr5CSAo9dRBtvs1c0T7SWIM+VTpuPqehDjzujeg9MpIpPgLrb76Pjoo+WohDvscVbj57IJM9hvQRvuGSKT6UXUK+jFuRPSj32T0q2yE99hadvVr8BD6CPJ+7t5FhPdeQwby81N89dyHKvrvtJT+u+SO9EAoQP+9ENLu2lic+rCOVvvW/jD6R6iG+fsWZPnoYSz70qQ6/ovXHPmIM9j338dE9BYwyvqD4l76Azk6+NqLRPrRhkT2pkGs9esXFvsw3ez5iWA4+fWZ5vn9vk74vg0o+lp2FO0zjGz44oCg+QSsmvmSyrr20a28++Et3vZG6EL4kYRm+FEaavZDl671NpRW/9ciLvrWOij6b/NY9k6bmvjRhSz6BBsU9b8KCvpsWrb1Wwyk9dtH7vsSJgz5kdr8+kvOHvliwlL1MlEu+xhsJPTqetT77YJA9K1bnPYS94b51HsW9fOQyPEaIuL3GOr28c1+wPXk0ib65fZa9xHcbP1mUR75miB8/RFtZvexkfL5BHum8g+u4PsvXeb3KWKs9WrOXvXzrob2Wq6S8BWG3PqZVrr7WKU2+9oyHPBcxEb0DM5m9pAsdvfFqTL4iFQI/rApwPlid6Tx0TfI9rDUuvZWWur4VwJ499uaYPoSVAL+7WCe+GlKIvnhGpL0FJfo99/wVvtpuQT1GFvS9QEB6vv4DiL2tIi4+9KM5vpCnKjyKGQO/+vW6vUncCL4aFC2+TaKPuyQJ4T1/qT6+CP41PJvRKD7l9YA91KIKP6ZmdjwYao0+OI+FPj7XQT8HA3W9NH87vnaZvj5FCg+9HwV6v468IL5Xdcm+eD+lPil8YLz1yQ+9T00xPsA+Ir1zkLM+GlUpPvInx73fCYw8Oo6TPpfwdD6FoqM9",
                "KWmQPswDN75zKUq82COyPg03QLyDRkg+Soobvm/s6Ds5Wre9S9iNPeW5gz2g+L8+DrErPgfkN75tNTS+o7mgvt6Hdj2+sUg+XKjWvvMjI76W2eG9OzeBPdTFqb2jd0Y9DrWWvs3P3zyO60g9vh0yvhCiIL37cRq+jRiCvVb22jxc3xC+GVIyPkMrbz1MFpi9rAnDvQJwR75P5EU+rZgHvoRVyL0WZ4s+A64uvmz5ML4aqbo+Td+1vCaU7rx15LG8b8dbPgyaTr658JG+z0NCPRHlxj3T5KC9N6sEvmIAub2cwdg9j9gpPPcCCL6s+169LG40vt6AZrypnEo+ZpZxPgzFBL5zuQQ+RTWXvcO4lbviZYq9HnQbPtJoQr6nHXu+LRybPTWI4Lx/vhk8qJsdPVlqEr41+2Y+rzcHPSaAz73TH20+fj4evadIGT5eHZO+NHsDv3/o+jw0BIg+OyvOve8aiT4Bb7++EtPDvaGQvz1H65c++bDKPcJIXT2E+3a/nlnevAbISD5PduY9jw2BPC28HLyHULE+7GTnPtkOm77lYFI80kjrPXWIlT158f0+uRvBPhwjoz63Gm2+GkPMPQTa/j799oQ8NsvevY1KCb5cs5W91XwRvmIhMTwX8JY9Izn1vXA2l701wT6+p92DvmPr4j2xn26+oRMvPENFSj7i0lA9GMs5vmVHBT3rkEk9V/sBP6y5JT5OU2K9AlsqPvLfBz7ZSwu+A/ErvT4uybxLlbe7+jz1Pasxir78a6I91lwsPhlyR7xKfE4+W0j2PUczTb2QS1m+jA23vqVINz//Rc+9X5o1vNeHD7xR8AO+AuwKPpklor4PFl09S9hGv+CCRz26s0G+9XjQPeCYhr3SzXy+emA5PddNnztzAS08SQlcPZ0CBT4NjSy9ew5vPVzW270ObZu9u7TDPYExgD7AXZw9Y16fPqBv9b0j2C8+GujqOkhKlT5eXeA87wb/PerTuryEyeq9fP+vvSrM4r1kEj498zczPoGemj1Sxl49",
                "fhUpvPvkeL2ULB89+LH4vaOiQL3fzz49gtUDvtdNLD1gE5M+maAtPWlb/T3EXQO+AVPAvcgyij3U0Rk+aKaQvfcGjT7AJNI8qVVJvtWtlD7BHC68YCv/vZRbxj3k17k8M/g2PvDNSj3dDZs+FYpePYqtFb43I9w+gj3Bu8gmCL6Bp8C9ZInAPf9JlT6nUwG9VidaPakPL75bLTU+mEJevSJqhD5k8Nm+FxM9Pu4Hob30dRe+OYs3PVLHNz71SqW7dyICvkPHg70unbI8OaYTPiSj3D2e6ho+EEOhvNISRb2tvec8jra0PeHauz6FShq9G86FPQvwDr+dZ2E+KpEpvTe/Gj6gniM9y0wqPlRSar2ZjIU7ykl9PkgO3j0Avq29mrQXvtHxcj7xXBq9qi+RPUZPPb29HRW+J3nAvXUdpr0v/QU8bnTBvR7FF708i+W94sg5Pg/sMz5e8r0+JlegPhibQr3efiG+H5VCPsN2r7yPgzK8OJovPZDn4L0r9Yw8Grd2PbxolDzkndK/RWcfPp83FL1Y6iC9gvSdPb1cnb1wkVK+mdWuvFv+5Dvq4qa+TmFFvj+nOL77OCQ+5RB1vWUYij7jWim+bALqvXpD3b2Yzeu9Cj08PkBlST23Shk+Rv/HvWPxJL67Hvg9a2gYvnRryT4iroq9hG6iPX/nSL57RAY+p0CCvuYpK76WcZu+ScuiPHSZdr48w7w8E9GJPs3Twr0bXIk+bPn4PYwWaj7//mq+jFCxvhKn7L1e1RE+a/BDPv3GDL0k+kS9qmMXPkvj5r7LAuu9xyyYPjfiiL6mPde9pqRgvuS7Ij1NOHy98nWbvZ5mdb1KSUw+l9+pPVLFxb3d87C+fmsUP5BO+r4ju5i+1gk9v0kTID6LTpE+83U9PbsHA773mrY+aZgIPhagDz7sew4+RpMavcLLfD3+SFK9YYyGvqjvTj4UzSi95ThevgZaWL/G1ea9R/qMPSqDBb3D1ZC+ZQievQx4EL/Yr16+XuhHvb2WPz5dvlQ+",
                "iRGkvc0cPD7poB4933rzO1MdPr5HIyu+HtKuPanGKz1rNfi91KMlvc8oSDyPY4A9KBLJvfeTursOEAo+dacLPi+uMr7VGCi+SJ64vVaV+jtiSx09q+q6PatPtz75g5297TYkvvuVtbwvuu89pHSIvvirkT12xfi9t0uAvpidpb1p4r49wvphPkFfU76QGDI+gyauvVhWMT4LHC4+K7yGPjlLGD8Xi2c8NwR8Pbdb4r3HTSm/AzgtPLhjnL6VmKA85wohvi9wVz4BMmS+W18DP1cXZb3SPQG/KQfYPda5B794hIm9yXB4PtFQED60mgY+MruhPQ3tuTvBd7G+pQyEPpQcPz70o5w99OYuPh54wb7Cumm+TmaUvxnGH77410Y+XRxTvojkLT40imu9cRNWPjU7sr1k4+49yFqXvo0T5j5On3e+SmMRPxdKhD6iMTK/VouPPU8D+T00714+0+n2vikIBb26vgg+NysKvxQ8eL4oT649cGABvwEFCz5B2kI/AAj8Pq+Z1bybcIQ+gTItPSKFlz3oQlU9g2YHPdEMNT0oezu+3N9Lveq7Dr9U9IU+yGFYvV7nZT7AHWC8JbKqvVDOwzzhw7c+yK8WPRRu4rvva+M+aFArPPOJ173t37Q9xHdRvPSvsz3BYKW/0W2EPnONj74EgM69i6Hwvek3771p5Js8YR+XvmdlG735A9Y9g6WNvj3zTL9n+TW+8xBevpU7jb1fixi/cSzKOwQ3Vb5YFtI8qgYjvhTxHj5X7zO+syIAvQwnq76a9Aw+RNAKvp/YlL46aEU+/quJvgEKGD9BeKs+PZ+bPaRWpz5i3cQ8xsz/vhzIob7Vos29A/moPrwscD4RFy++mlCEPrAMnL7YYxY9fKUXv/x1Xr1xWJk+xNuWvoDmGT6p/KM+NDPfPl48xb6k47s+OAttPji0D7+1TSK+ssw5PoefRL6+Jg+/mz2uPNuhlr5YC2q+90/FvRm0yz4u3xo+CaZvPTufAj5iPpK9KN+HPmki2D0f/mw8",
                "sr1fvlVzJj4tfMQ9ovxEvkzbgb/Cz8Y9IjcPvZcCTL5IESO9ZA4rPYjUtL4hYUu+fB3bvEieiz6Ls0K+1/ECPhDBPjwm+aM9Ww/BvZlpNr9Dwy+/R0lBvQCrt7wZ5fO9bFS1vgQDpT4QK3w+7UEbvkF/PL9ZNNA9f1kGv7luyD48fLe9WJzIPuSF6L0JnZY9E7lVPVdAST6EwOa+6wYfvl6XFb1wr7Q8lc9IPar0BT6A5AG+VnmJvmwqbz5hmwq/3YgsvSNIjDwYCO6+mS2LPia4yr3YV+C+nwwNPzwwoj53KYS+We0evrui/D79+DQ+LyJ2vWZ6sb72X1c9SOfQPMY1Nb+BjvG8xVhdPjce373R6qw+wliNPZIsGj5S6n4+M3zLvV/yLDng8QC/CUigvbplPz/ghAu/cFrfPWmP+r3nzIC/wrTDPmgVIj4io6S+HTinPiabhD6fxKk99wGKPqlj3L4TkK0+0CfkPSbowL75D1e+WCjzuY8ogb31bSG/6IZEPvAc4L3VdpA+9G7XvevyOz5ZXbq+skZfPE8dCr5cZi+/razZPdWfCb9coZW+scj6PbikAT7z5za+VVwWPd53sjxQiI29ePJ2POJGk7xrl4Q8ONmLvLXf7DuYbY09kAvwPaESFL5Mx4G8EFqbPt18Zz0Y7WW87DNfPSOHVT3CbNI89xeAvuxNyj3ihvI7p+gXPevOjr3FPbk8h2XZPc4pQjxylmm+s+M0PtbdkT5pQVO9ks9qPQ2mUL0sqE29qeyQve52OL1ibSk9LQgNPhQuVz5yzjs+jJ4iPd6p572Rxkg+l3EdvZBOUL2AmSQ+9NALvZz46b1rag8+31IAP+Zf4r0jpyg+FP5IvRMfxDzGPqw+h1iPPSAVV74XDkW+1pqUPgGsuT1ADb+9U/RjvmmQKTzE8Oe9qJR5PvJUGj5vRQg903lwPQO3Ez47Rs09LYEJPmDtgz7OLg8+frYhPo/kcL3oa+G9G+6qPaHFmz6l4K+9TX76OxHZ9rxJevi7",
                "N84NPbyQVb5emrI9eV2KvT3IkzsZLR++9upmPlinrj3yjio+awtsPu2LIr466+e7EhPdvXCNn70MDI+9GCK5vNFrn7swsJW+1FeHPaXPtD0TnYY+fFQwvRyUjj3wt729FOdQPl040zzB8ME9oC/+PY+6Zr0IPtK8NLXmPbspGj5OXly+eRPWPaPhrj6yOek9rvdbPpkRdz4UrY671pMFvXykaTt9GrK9hRVePo/0zzvU7He+lgtlvXXJ1L/nTI89ebSePX/EDj3D2Ja9wNUMPrW0Gj3P8w49CucZPlcGxr3yS509rNbEvT0UVTy9mJI8i1W2PBsmR76hTIg+xuNDPaF6sD31Ex69nxKwvUw5crxMelO+jeYQvdCW1r3LUfA9Ysbxvm5m/Twad+a+UVYQPeTkPb1iHbO9oFFgvmZnWD6wpxY9d+rbPYdlj73YsRC8V4UVvvA6Lb7O/DE+H17wvC61eL7UACK+jI7YvZY4Hz4KhbK9axUIvoHFbr5E7zK+teFOvySCXz5vJcs8GKvgvdJDSbzPp4E+8jjCPCEoKr7nXeE9L3YBP/iQCj0spcS+wuTDvRbtYb4if+C9mKvaPaLrN76OYXu+5hDwvZRrs72YG+M+htrrPQlBkj1MSsy+MN7ivvW6nL2vnAO+uB8dO4Xq4z3zFQg8S/2Wv0O3RL56aVi/+7MPwEzV9b2C8bi8ux1QvPo9TrzyXp49Zi/gvPE2ML475mg+GRFNPsO0x71sld2+ibONvn5j/j2+v329/5nNPSpJob5AFQi9XCSLvV4IlL0xSKy9DZnsvV7Klr12BoE+bMo7vXzL9D3X1Gs+39f0vgunQT6ZNNC9XeAYPJWhQzvkv/G8bM7Cvoplujye0ey91bkwPdJCUr2fN0s+sd+hvr+uyT3lONI9Ey8Vvb7T6j3uLDW8sVmIPCYGJT3SFR29yUVLPyLnET6wWZ4+bRuqPAsZkb7Jz289XugaPuw9Bb52lJO+vqLSPfoirb2F/BU/siWLPlvqD7yMSNY9",
                "wctevevi8D2gwKm+QmgvPshrRL7MMfO9gQAiPozk+D5dRzS98XXyvRP8Dz5/xN48I1nIPn/17z1yREO+VtOiPobtCr4KTQq/FxlRPpV0Ib6v1dE+8QmMvVJitz46KAG9WOD1PivpsTwDub2/HQTpPZsGkD4llO49PJuhvcKNGL5Nrx++qKpHvYYArr6dMhk/Re/XPctV6j1Eg0q8XhSOvcbbh7xPaJS8Zm3Avt01gz7i3t49m7u8u34QM75D5JI+wSJ4PtHbqL0HuZE9eB8+vtGZOz5WO3U8AW2qPjr8Gj4uRI2++SqjvtoVqj5nm8O8+GRLPu6sqT2j8Gc7AvtZvgMcQLzh0U8+yPlZvsSsUTw0MyE9TG+DviSSbD5CSbu92zlxu+63CDyK/Hg9eq2CPq3FVr68Lju/W0xwvS3ZVT7bgyQ+6IDuvX/+trz0QxS+71cWPG1XZD7Uvj0+rioYvtjVET589Si/m+GVPYMDmT3Vtz+9M/olvjb3ZT5FcVW+kPuGPkLggbx9Yoq9se/EvUmOTr5qKeu9VL86Pbljtr7ny6w+aDGovSILgL5sq1K+4RcEPvz/Z71u/MU974krPu5FJ76nIuW9/yaWvrg/zDzccFK/qeHfvqeO+b27M0q+ahKovmesGrx5qoy+LY0svsoWxT6X6iu/PMTxPR4weT5b7AO/wArTvj+KLj51u6Y+/+blvhu9KT4fgg2+SBdlPgFeS77B6G09VdgJv696Uz2wC4G+/TuCPlF6yj1uDqi9nf0FuySldr5zhY2/JUUGvhfiOj6jHfK8yk0rviFfR74FmT0+URivvV/uQT4wU/k9wRCHvgz6rr7xYqq+MhPmPf0UmL6P6HM+4+Uev7H6o72SN26+j+LHPmDm7r09R7892W8Qvs5FAj4tbYu8YjY+PgLzk7257rU+MX0jvuxV1D5++Sa+VE6AvBDfa70yoRw+1kvGvgAFUD5e7Aw+7HPDvMJkGj5KSKY9UFQNPuiEUL7SYBk+P5KHPUq9tj2bD8u+",
                "f0YpPu4tHz6Rdpm+xUwKPqj6zr5AIQe+i4pNvkLBoT4niYy+cuqNvsWIrD7ADsm+j1sMvxQ4/j3rU0A+xD5PPvXl2T7quLq9XMXKvuG1Kj8jL/G9Qa+vPWBCYr6Jl1w9KmoMviq9vj1cYBU8sNgQPboPub6EQoq+yEeePf0FjD5ocOY9rVDzPTsZn7161w6+g5Jivk6K4z3V0qc+UszIPuzbxj4iMoS8xLEEPoo0iD48WXK9k2LqPfXPqz2f2mS9jZXNvZlro72DJxs9pdcUvIG0yL7uBSG+iEdHPhUldb8uLQ++oKkaPp17hrvZ+lS+9qKHPj0shT64vU49NyyfvgzYgL4acX0+Y69WvvNicb3MSGi+PIGavR+ImD5dZta9c72RvgZ3r72ZqyS+ugnYvncXkz7vlhm+PACdPThL6T2jbEG++W4HvYBbpz6/BO48gn/BOT+dO75kKrI9sWGRvlI53Lk8w5y8LUmIPayPYLxwNLg+Cy+Wvq8trb3GhwQ+EjpMvxezAb6g5II+AtmEvZXphr57KgY+92a+PSO+nryj+4E+B9HNvGtENb7C0GG++Tu6PYXCcryz9KQ9HA3hPVQGBD64JoO+a9p2vrM/VL6/Phi+VEqoPSsYWT1+JJ0+aEJaPfDYILwzDnI9wbBkPorsHT6Oy4a+4fk6Pm4NOj3ZXDW+09ZEPZfoC74zZ6e9s1K0vUffdTx4wha/itW1PVV/PL1uUzs9ph6APl+0UD4vKg++HhO6PInWmr4PuDY+CQ7wPB323733gDy+IZD/PVQ/OL6ft2K+li1Tv2dlNb25O+i94K6yPbrBpz2PC/m8rrO5PDhVWT1iLg89PjPUPe0VDr4cGcg9C7GMPGLZkz0+MHQ+qjkKv6rAhL38T/e9KagTPW2K6DtIOt690AgRPlbNCT0Ktj4+cgbbPgZHd74tE4W7hC4jvpmm670odQA9MXvOvMPzh77sZvQ9p4vmPf7MMz5NlFE+TpRaPzQZvDxHXPS+7j4Yvk+/gjywBh+/",
                "fmYBvRSRTb54Mx2/oYpzvjlU7b6kXmu+Vl0Dv9WXlD67spo+VLeCPtnmtD3E0Be/l42hPUzSSD1pxJe9jpb/PFJO9T0VPIc+PUfzPU4A8D18qFA+nTEoPiiBL7+39p++oh/fvnrbW74CP4g+QKz9vMn02z0cL4w9qdIVvqBrAb5NQY4+pymrPcaVKTwtp2a9IUhDP7K/9z1wmBA+t1tdvqvp/D2jWUg+7qk/v+KE3j5g76q/PwGaPqG7ZL6ruB2+sT9cPk9Cebs8tFC91xcKv4VWpb297oQ+UZSuvlcZEb5lS5w+mmyev63ubz0Dw2S+S30gvdXlFj2yDQO/xKrCPpsYKT/FCnI+N5acvR7YJL69Eq69mR2DPmrVZ71g7xc+JIsNP4F7ib6BTzK+seX4vRvxFT5KYE68YpIzPZpm8T7/C5e9JZM5vj2xCz0YiUq+5oPSvQJ92D1uutU9h67GvlhybD71BY6+X66QvndSjz62qQS9QlzEPR/r4D0quBk9j/A7vilIA75SyYK+Z8hyvfrDAr6xWc07rWmvu8xNvr2JYRK+bx9Xvh4aKTdXSzi+VGstPYtpJz0k8Wg98nX6vXxNqr1DqxY++IzHPhZFsD2opT++cS5VPvQ5F7ugjLQ8HFjovKFm/btjCiM9335HPhCXJb5NToG/QjnbPqBc5LyFB4a+lb9ivtGlX72xSgY+TnoFPgmXUD2jArS+9xuBvj//075TVOU+bPWkvtI2Nz5sFUS+07fDPWl1xr0Xt42+cPlKPd4Zqb6+spg9VuuSvuKrlb31UUC71IxQPedahz4G7zc+ReADPIQuFj4957M+CC3Tvt6Gqb2X1QA8qg6PvSNAb70Lc/q8WgGLvIXcNzysiv89jt0mvc5J5TsFN/o9+ouFPpzZjj2gMZm9+KsxvpH/wT2THdM83X7SvpTg+74PRys+jTIwPmBXrb4hkAu8lbd6PtGrLz3SPq4+rqqnvk1Owz6T4ce+tleJPlyWeT5018u9A6gHvkHjzT4bzw68",
                "cDFoPmPgcz5/kAU9YqFTPoSVbD0mooi+F/MvPjmUvj50Jz4+GasrPjIF6L1bAN0+JMBlPBqU2j3KidQ9fKuqvmp9EL1UfXU8Vgy3vhYrGL4KDXa+5WGtvYV+wz1av8U6I3qVPRCCib4xCCA9TPD5vEAelb2AvuM+9zKPvs84CL6S48S8T12evnwJlT22CC2+2ZzBPDopur18bwY/JRgXPiEmLb5JUiG9V+sIP8Bv076r7IA+s6mQPkyANr4cZyk76IYuPgyjSD5CA9q9N22NvpvWLj4XCmm+tAy2PkoscD6F2c28sYJivi7fkT1YeCa/eMkZvi3dRL161xI+qFSZPfE/nr7dhgI/e4RwPrKVDr4oloW8/fLsvoRE8rwF6R0+UzSFvkkfgr10CQs9x3V1PEsqXD0HnZy873g1PyFJ2T6ybYe9mxKavfNKBb5W2Tg8TjzDPfULI76oLwK/ZP8nPT+UCb7Cr0K98B08vvJpBj2MPoO+ly/qPPQEu7/CDTK+IjubPQH3tj0ZqUi86GR0PtIHXzvu5hC/BjNkPhqQGj1Npe48IxUSPX0EOb4Hooc8LuIcvumWBD5nOV2+/Y0rvF3YlrxcB549nOxOPtZN6zzJOQS9rmRCPZtQAj5L/bM9Jc3BvI09FL7iVxg+EcI1Psn0XT7zRD4+/TFhvL/CCL7P+kq9HdZYvWXUDT1nUI098vHmvfxHYT6KWCo9sIq7vp40Nb5Bjhk9xyBNvu4hKL07WwM+XO1XPaIwTz5MzQ0/lv/vPSPwST582zG+ryU/PngcSL6Jxx69GKTKPTpMbL4SI+O9UNE6vaq3QD5uSIw9tUVsPXpEVL0ZY589xGBJPmO1VD35S1a+gJWRvMoZgLxwuRI+sl4IO4VpAb3lnKs9rR7ru8KQX77e3jm9Gxw0u8ZJwL6qo4O9Bh4MPt1NWzyXVye73PrQPTAYOz02N7O+YcKaPQoprD6bL5Y9SrbgviN+h77vmqm9G1TYPQbvpT7Mom09YlIDPEJQzD4eFMy9",
                "Gs0Ev3TJH77Bg5e9bdOav8gTnj0eKTw+Wif9vY6qcj0UdFo+/JUgvhcKVT1c8dk9joZEviQVUj43BE4+aEEXvkX/Sr2ZmIm+ndGBvpTTG79Iu3s9TbvPvszMSD1Rnzc+CTYGvVx2xz1bdk093mHdPeiCgb7BcqA+l7k0PsG7jL7FmeA9K/dPPhiLET0OTRG/NieqvqxiB76Rzmg+Nb+ivXUvzj2tARQ+NANbPQyKG76Mh5c9nnUqvM+BbL5bxx2+dCyTvcyMGz7emJC9uCUjPJZq4r0WAJQ9H25RPcBxYD4u7py+eDsKPtuSxr7WdSs9XGvIvYm2zj4Z65U9dylFvW5cBb5d3f69bL+UPfi2mL47YQc+AUOIvft7pb5nVlg+qT6xPcpQnzzbklG+Exwpvu8fpT6OQ8I7vkZTPu6STj64qK0+iSVOPchnu768WQI+JyeNPv2BDrsBGNK/HRMzvW+V4L1MC88+mtfkvfBHHT5wLh++npSgvejUsT4GAo++CA6KPWujM77KwOA9KPLmvNGjPD3DYui9rj+VPklUNr4943y9udFjvId+rL2TNf89S6mEvbhz3zyJ5xQ9crYaPk6kjT1MCX09dvq+PdO9TT6WfIM9AWgGPuBDbr30w0A9OARLPeLbK77wu+A+pb3XPTB/bb3EoaO9RubyvrfxB77+94298VO5PN4cdb4doKW9eWndvTVZrL31er8+iaR6vqMIwr6CtjQ+J1yPPr38Vj6yR1k+lVLOvgSVeD4V+Ye+oQYjPitee7vHnZk94Qp5vuTWm77IcsM+/ouVPlogrb7Juuk9J6HRvoCDXDy7R789c0/lu/xffD5vfTO+UKWWPJc0wD76yJ0+AVsKvVXggz3SOpm+YhYHva24Ab/+6kE+CWB9vkoOJT7fVxY96KqlPkyUSD4K/jg+Lg0UPsgg8r1l+hS9Eii/ujJu4r4KuMc+6hCTviuUET6M0i2++fXtPaomhj4J4hm9S+EsvwgH/b69XLA+oqacvn3jsz50b3E9",
                "X5kPPWABkD65bTI+gfThvV0qcz53c1y9SgL2vB18175svfe8v44vvqjVFj4Jvfs95M8vPf1ALT6x9RE9qBhEvhcz5TyAtH4+hlPlPKhDLbs7FfK+UnaUPmPygj57wwu9JxAnvumIJr5Jzam9Zq6ZvlAcjL1Pque954OUPtcpMrygIcI9nYUHv/Agnj3jK+g9sr0OPa7MQT1Ka+C+2MKIvP7/sD1f2J06ENK2PTBXYb5H0iG+10T/PdXF/7vD0J68fzl2vjtt9L3wqM++HJi6vTgl7z3MyUA+HN+Kvg1ZMTz9bCE+7ttLPuhu7jyooWw+tzWBPPaRjzyhQAa/ETkDO7OVXr4WYcs+lpxEv/Fr776l8fE9WfkLvu4dS75PHTa+J8YCvR7Mkr6GK7o9/GApPkWC3D3GIJ49uhqqPCCxLr7dd0A7bWBXPXreCL68HgG/8lMkvs2DHb8qYoO+ffVyvqEFSD4V69o+0+YLvQUm9z1dnaE7l2q5vg4Aoj0S2O88n4z/vf1ROz6TuwG+uKWyPS/KAD3G7Mi98XSOPcMRpT4byfG9tFxUPgKR1L0PTeY8B6mUvcG6ub10J0E8udjivt7uqr26u3m8CE95Pa51oL7IYeQ9MkkLvuxTCD8QwKA8iGOyvvLA9T1tOUa9fSE9vrYPPj7rQxM/6bDgvB3rjr3DMxC/smDEvZUJWL2Hye29DuywPgMb1r2bYpu+3mCZvuUq+L5oFJ6+mpSUPlXafz0j13y+wIjmPq4vrT2BmrO6GL2CPhBpc758Q8I9R3DGvi2reb6yEnY9wf0jvqpTiL2X3Os9QekhvsyNgL6uHWg+yWEpPqBsGr5G5wC+IPeLPnrGNr2ShPa+bgP9PdKcMbxjyKM+ChsDPQLHxz0VRNW/BISKvnnsh74Z/kM9i1uSPXNw8L6ZTzq+/IKqvTqqWL4whJu+u0w0PvHUh76na1k+4VZbvuyhDbyNen48E6ncO02k5TzWGkw9h+kZO5Th/z0wjB69aAY+vtVPvby8qji+",
                "tbukPuzsN7x8g8I5Gw02vmJaXz4WmtW9es40PYDKXT0mofE9vYEcPaUlk70Kn/Y78vo6v2nrxr3WZpy97KEMvoDs+jwpsEK++Qu4vsV3Br4yJts951mHvRDeOL3yx+U8onBavRt2Jr7O//m9TyTWO7XBEr6WnBG+VmXcvMa+pz1ebtc9f6DOPHx2rbzuozi81rqdvZOg2D0BtNY9VnC8vPLdVj2NQ+K9pKhHPgjvIr5Bfqa94aDLPYC88r0NyDY+As3RvTKhjb0hO7S9LSM9PoUBF7+8F8s+L0qVvnGJWj7J7jK9lBtNPpBMd7575XK9v7opvezHIL4m+HI+ikq9vudTLb6G4Ri/3JEkvImdkz3vZGY+k6mhvTlVaD1KwR0+OJOsvVz7ojtTc22+rANkPSijCr+NSw6+J0S1vjE0P76Csni9QyKFPuzhqL2Y10++ES6YPoaByD0Lk6u+pcmuPhIuDL3vJlo+vtQuvojda76kEIY9xzgsvvteEb5+4MG9Ark1vSeejD6DIRo9KKq/O1BqSr70i8292p63va9FC748Mls+6ETZvcJsgb3YAB8+CpfvPRmnpz3yo4M8CUsQvJ+YGb3g4jm+/exIvdLbMz17NjC+JUQevsoKUD5S8u6+i3KlvHcNrb3R+8k968bKvvR4Iz6rNfs8BEhiPhwiDL4y/Tw+cSHQPruVlz0sNjC/A4IYvGCsmT2fQc+8FwCgvrdj7b0kDtk8QyfsvcIZ2rq1eY4975rsvUaaBT1vh4M/YdvqvdW5rb1cTtq9Z576O3KNNj6f79A9NTa+OsYDUD6dFPK9Wk0aPpRjJz70uBE+VRvxPcErLL133Ha9OUJkPm34v738kw8+EErsPdl9OD0DyCm+BM+IPeOior2xHgM+EK0pvQ0y9DwFsA++rScLPlGPs7zaely+30VivbIo5j1l6l+9AX4DvpgIPD6G7QQ8fAaIvgBrkD43fZy9OetLviRyLL9Pjxk+cNK1vSkIyrsAgaq+9hKVPrEjGT1xcSc+",
                "FviSvoFOOj1juNq8jY7wPQLuGrotn0M83bccvX5JW759L8Q+R6MGv6k6fbw95Hc9/yQuPXRwvTwMi0C9L7FhvhtBB75a9Qy+zwq1vrvWBr62IjY+kUZvPoCo2L5BJ2W9OHJuPjGKyz7AF9Q9LO1QvQlYbj4SVTu7vWotPj4Ngj7uXgG+ncz1PWljBD5Zf/G9xawKPuuppb2ow/29IDmZvQ4jvbwXaga+DMj2us184L1xeR2+3u8RPwU+BT5tb/g7fZ3PvpWqHb1TfkW9mrLSvd/x/b2FjVO+g3Q6Pf0COr6M0gg+6FMbPgPpMb3jrd49E8RHPsErij4E8WS6zl9IPKAmEz73rym9yIZMvnAfHT7bhE6+RVCtO9pNE73oE/g8tNEIvq9/DLrR8aQ+V59CvXOvc72OiEM+hGbaPSOiWr7+S9U8KRKKPSljsL/NBEy9U8q4Pgd0Zr77dvs8/csVvuQ8OD7YXrO+rg2DPu4ZUb4ozZo9xlgKv1F3Mr9RvoC+ldYrPUDCqj4qo4q9t9kTPdqY4T7l2hg+UJr4PVx5Or5Wt8O8tnsmvvszD76TScs9hAD4vZhHb77e0PG/Rgx+PvWkK75DicA+SE8HP7bMCz3oVw4+56RoPMCVhj7+/au+nMNoPdSkGz7dOt6+PzqMvfvjBrwYlvW+Z3EPv+eK+r6C/4q+0Ov6Pdueob/Nu4O+P0wbPzH/pz67REK+g8xQvqJKVD7SG1A+RpEEv2B8sr4nPBs+9mKZvTVPeD4q7KA8JXxKPk2vFb8NRfQ98U+XvB/h5T2J8rU+HmAVvbyJhL5eP+0+/sPUvS4w07649AG+OyzVvp+Zsr7zMzI+ulTAPGArqT4XEaI9CXjOvqtagD26Md88GJafvQ0Wn77ixre+5Q60ve0olD0fh7M/jNPlO2tYH78SKaM+yLmoPdB6Gb5gBAU/oQrYvo0+B74bxlC+OTIVPnTYBj9v1zi+8vkJPjmWEL7TGMS9oF1Uvvfyi72iQ7q+vNJaPsXQBL5aroW9",
                "a9lXPiI+yzz+jJI8MpmDvmnVhL68ulk6keekPoR6kT1Lgxu9ICPAPkTsHT7gJ4Y+LxieOgVHN75BsQi+2jDLvuUFnj3LFpG8SXENPli+876BUIK+ejbXve5trr4ZPfk82SYBvjXkAj74YJI878smPtPLAL1jFA89vcYSv+XCGj4xzsm+/fz7vQhrhj1Jvs8+XpfcPQuLor4/NDO+0tBYPr2thz6WsPy88/IbvXjoN734VzA+HdUTvxKAjD5a4vA+tQ0tPqKoj77SukW9BH7PvpH1oT7kIB++iiErPtHhTT4p1oy9BS6gvYk1PD8uw70+JUg4PLy43jxql1Y7vA80PvXPJz6QAfs99xIYPueQh76Kd6c9WuSEvrIAjj4CSJ6+rBMxvWpn+L1bZ0c+bi7hvIeGWL7Ld+o90TZ7O1GKiD5IPoc+mZ/ZvQrpsz3/Uk49tMc+vf9CvL7CdJw+M1kNv56TCD8vtKE+GGNYPHCW8j3CbYA+AMipvtLCKL6S1L88yqe4PMH/kL7z5XC+t3Hzvq18Yr15ZI0+dT96PeW0Hb6Am02+E4wivg0BcT5Tury9aM/5vHeKX7/gaCQ+xjeePds5oD0YVrk8839bvtxWyj7w7sE+amZaPfJBpz5yDeY9VBnRvaQJrLxX/ZC8UpWXvn4jgz0bKDA+F4ghvtuP9r3BxwM+Oz2DvsC0zL3imhO+6jwuvtQcuD1/nn2+9z2bvmP4p73vGBK+YafSvdxUmr5cs0C+CXZ0vmJAOb+4DwQ+M+odvRsXNz53ZbY9Zz5Xvo3PSL8Qxl49I8HNvhKE+D1eB5C/UJE/vM8kQT7ntcw9fZB/vdkf3L1jfYQ9SiRTPFrJJT7Xm6q9oVkPPnynfz5uyzy+6jnVvQGitL27P7++XlXIPi/E+L2YO7O9JHxKvIzHBT9K68U9I5ssvvmhhr2MpTs+bL4FPSqjqL3EdKO+hnRMPvqjjj3WBCa+wRxsvHIju76mIQs9j4XWvQqB3DwCGbu9qGhHPsq16j3T87S9",
                "r0sdv49hzT4PhEy+ie5mPce5Bj6PqVM+l/HMPIu9gj2LyTO+NDqMvv5dtb0/wZM8yzr+vHHbGD1os5E9giyGvIlmeL6SsPW9ShEZPh/PRb61PaC9JismvfVigb3x7TU+prMcv8FzFr5OuJ++QEeYvs3whL574he900BWvttU5bz9C7M9mf2BPR87Er3/1jm+lG3vvIDLSryESxS+TuOdvEMrh77d3Pa9ZLewvWqNEj4qCqm8+QXFPRhJfL64c9S9wFAivqQ3xD2DdhO+TY6PPhO/7b1cnV6+ThusPWCbS77vDKg+erDIvh+2sj2G1qY9x4ycPd4o37u1ns48YQFBPQmxVb+wUQo+7svAPs8rc715qoe9NM3lvCaamzw2o509rkHZO41FDD7ETYM9mKsBvqHimb5WdLw9w2b1vbIuIb6yUq6+xKqzvima3r1ck10+nXGrPMwWoD3M6jM9TkN0vm2rur4Inoc9pLdhPBKhXT/PK+29zKqNvU1NsD75Na6+bxLyPWt9y7yA3x6+YvSavkMXGz6JE8e96mcavghiwj0A8zK+ye2Jvujsozz1JPu+NQLGO0RqmT57HkM+aVirPWbcXb4rTWi+dPPfvYP9gr3gLbq9CgDXPS7Pgb4Kys+8NAJSPlEmPb5jBnq+cgh4vt8Qs753/j0+hMQLv3cOC77Cz2s9jiAdPrYDwT7iJJe9KfMfP3P5/L7NLWK8j8WUvmHZgD6drHS+aHkevrKpIj5/Jk++4ExtvQgzWD1X2oe9kj5hvUzz+T2Z5J0+3M26PSDq7z5Lnb8+n0UVviKMhL3sjoK8Bt2FPfMex77s07Y+FWPdvmyJ8b2s14+9w2XmPsNusD2TaVq+FD4Wv2WHhT4LAKY87OrGPuqEvT2afAk+QeDwPseHa72gfNw9eM09PebitT3lyZo+d180v/qo7L0g2Ys8f04APoRJgD25PeG9yQgIOz+yUT1Nig2+wBxqPutUFz4c5ro+d3z1PX9wmD7CKYC+k45Vvb5Wjb6sYZe9",
                "s2SVvWB/OL4nfVq+jI1uvgQLA73Ayyy9Y+/bvWDf9b4FdoS+BEJxvvrFXb2vPse9P9gPPRPUZz6LN36+fyUHvno8vjxsTH49mdRNvxtax71dGJu9w2sDPknPur5FVsE9m0zivWhdyrxnQJe+BqFSPrdrz7ztb6c96HOGPv+kOT3p7rC+j/ztvKKtKb0kVhW9HzcRPs5l372ZQui+nmWHvKnCCr/uELY9gkQaPeVxvj3G83g+Zl79vWgPfD18eH08326bvhAzZr5K4aS+pMtCPjIQ0z1tO4W9RoRMPk7npT0xL929VgrlPZhp5j6w0u89Q97dPeRFTL4SDru+yWrBPaUmir1FeFE+SvjqPXuQpb1hvcA+jlwNvs+20r7+yvk9GRWiPuF5or1I3DU+bgwUvfLzzj3J8ae8/L7DvhcGoj5ZFUQ+3vUFv/RPOD2tTnA+srqOPkCUZr0b2EA++rJMvqFRlb4JnoG+bGQAvcJ2Dz6sBys+u2NYPkYdSz5foA2+dwWoPb7T4D3TNaa9NvPCPfT1KL7fEo29T4uUPpiWpb5KIRI9C1+4PX9Zbbt/dQI+rswrPbgs1T2UyJ68eXlkPLTyjz768D49ZQYSPj1HAj5eghM9vN/oPdy/qDwCVDe+aQqdvukBAb/UqWi+230LPvPwgz52mAc+yLnEvbczDz6mfy2+DpBHvCO7mj5r/D66xg85vb68jr2sej++JgggviznsL4ztGM9NBncvdHKx77T0xa+tX1vPUm/CL7VwZ49pUmEPkbQIb3c/BO+v1vdPczstD674p2+xlzsvbuo3z1bFxw+3HH7PWqKhL7h59C9HbXevP5Yj76rfi2+/nagPQI6zDx2W4I/SLBdvYt2bD2pAde9BnHpvGwwzz440829cAfgvfag7b1W0Eo9fmtwvZ6mPz7KElG+G0ufPYhek77geZK+7MJVvprnPzy/4lw+cc1GPeZrhD74tM69LPlrPTVlIb5gOJu93pdsvS3qIL6B1lS9OizIPD+8Db5wVJk9",
                "gcuzPV/5AT98XYQ+fdoHPdST0r24V4w9oct/vctlPj4KMu09kPxtvocihT0AFho+qGXtvUT5a71WYok+x1OovdBTG75EngS+HaIjvJLNk70F814+SIOoPue6wz2hpBM+otCwPrwSwD3n4p6+sT67PRVuNj6yV8S90ZvgvpglDz6LFYc8jviLPkJfUz4CLO89IZb1vmAlYj7PTJs+41g9vuovjT7qdDu74G2Ivn3EBry/Y1S8cCthPW/fHz4IPP29diw1P/YQBj4pUGc+7mXTPdqJkbpL/5G9p12VPUxmqz4eM4k9HZyvPuv11buNFE2+ETnVPTAoGT0DJhG+hzIdPvgYjj5rq4E+93SBvS/3ED3MgMy9A3OQPbUtNb6G+ka+5N/wu76Wyr2FdyA+Nv+TPJyYlb4NQBO+86giPthNj76v6Mu85ZBTPTrMgD461Z89OUFqvKFoOD600MM+9W/SvVOxDr2y7l09C6+Wvo8zub5OR649CBtUvYYSsTyzhjM+WhcMPs5tGL7rbdK9dFmXvdwwqL637co8gSFtPd0JSL2ZEtG+/bLLvRzrT77i4dm9UxxSvisrPz4dSI09099NvUL7zD2uJ3W8Z32Kvg7CGLqFQFI8+oMyO+InJz0P7HO93xp8vvIguT34ixy9Q3ADPaNIsr042QA+hKmEvpSHFb0Y0M+878QgP4fas72CxXG9wsKavkY7uzwuMQe9eCxGvPsO6D0iDgC+/CT8vQ8A9b6skMO8KwivPdhDxT1+lpq+nvqdvh64O77Crsa9bXqfvZV7Yj5JsS89Yv8OPoGCfDw3aNO+RQ7Sve3DMz57oGe+ijHKPRYbGrxlOCa+wmaNPRIKg76x4kY+HUmkvdMqwD6UehC8Gjetvt/eBj/HPR6+Y/OKPXvzGT5G9JA+jUnkvcMvJL16z7W+Edupu9ODyL4dm1U+xB9pPQIeFj5g01A+ldkGvzH/kj0GX7i+WS6bv9Nnzr4yHGE9eKmKPt3tUj2F+5a+op+2Pf8Gkj3oCZg9",
                "nlhePgKWYj6Ivfc9Kz0pPVhvyz6dBHw+Sc/qvaO+wb6v8ss8E8JgPW2RgD3AQA8+qy1Wvmdiyr3i0M29KYUWPr8svb52Aqw+6KrUvAhBjb3tVvA9iBEOvh9FDr8S64c9YmmqPnnFjb5kXDI92emqvpnChb5/ZD4+vy4EPiKkQ747fpC8DWF5PUtarDxLCAm7cR3hvXc9jT5YTQY+uBdDPgzRTj4xj3m+jCnjvLf3Rr7v+JK+WJyNPVTXjT0aBp2+W2UXvkPTNT7k5RC/b0VOvanbDr5GgoY+RQ6iPrYKGb4FbRe/ilnFvQRAUzx8v9g8r4+LPTi38D1nGI2+fzQIPv+Gr75Qplm++rIAvxMwWL8IWpI92wMJv1S7R7yQJPM90YiBPmXkFjsjsgi+ix51Prqj7bxdEky+l7/dPTHv/T1GRsm+v0knv5ObgT5c6xC+Kt04Pbeclj6hq9W8tuayvYp3jL53o0O/Kn2UPpm2ID7B25K+4Qq7vgT5ND4O6nC7ZQ9fvsPPi76KKJO+LV/APsxuPj4cKA8+QrPHPaCfoz7SBao+rdnNPROb5j6ShFs9/yYVvp4Oqz6FpSq+cxpRPZc8br6WZ+08+QZCPl4Mj74aeJq9NsBePboSNr4OCom9fU1UvNainD7/ECk+6ZD5veXBGD5CDuy90caWvTQsr75yzv87ZnpavFEK5b5RooA+zIj3vWkC2T5CQls+sXmrPm5iyr3ahJY+NGDZPb7Oxj5cgKK+Ygv6vue3MrxY1KS+SDKHPZaBuT3FPAi/rP/Vvnodkz2za72+7EUPviqurb4zRVa+OiCivZX/hr3Juqs9XRlDvuLDsb7KBIG5m6MBvtOPpr1ZYxg+4GJCv/jJpD3M+CI+UgevPeMlYD70qIa+qCcCPt61lr16EpC+tEWDvUua8rylHQ6+YCGzvnE9Sb078+K7TBqGPvdA5r6BPTG9f3OqPmufFj2GAec90UsnvPWM97yl0Yu+EqIvvRZc2D3St8O+7Afuu2SJRL/fw9o+",
                "gL2rPko5x77P5ky9xpo0vyTxAL+hmKo98UoIvmJ8iD0aKlW804vaPIP0lz1QwxO+9juHPum6FL1f2v8+cPVOPr65Q74sqYS9/R4ZP0eHEj1CccK8duZ8vDGaH76dfB2+IQjFvdVktbxhpA6+DZwAvgGxMT+6uJa96KMuvsPW6L7Nsxa+I/O8vi57oz1ahZy+DrwCvJSiTL6yJTy+hBOZPcwwoL0gzK0+7YjUvufUKr+AQ8y+vKaXvl5ZUD0sfeY9RVlpvilzDT+tsmK8NYQvvtIugD5U9VY+f7PFPn+/uDwOWBE/PlhnPuMcZz2vGF490YSYPv9/+z6uMRY+JDV2vYHjbz4AsGG+mZ65PWgNC74z53i9So82PgfCfz795yq9IsdWPgVPrr4i6jA+w9SRPiBYiL1Fkb49aXnZPsOb3DxOnTY+G8bQvlf+yL4oZfI9x+4pPi7VqL79LAW9Z4kAPgkFuD42U1Q+DfYfvgSdkb138TQ+RZ0uvi9fnr7GxJQ+d/+gvaIlHb+It4C+qGM7vuiNAz6/IeS9IaMBPnM01z5+yBi+Rxjdvp2HUr2wkpO+kFIbvigmrjrHLhY+OdgfvzWHyz5fGsW+iSSdPbNSjrwR+wK+6PKXviBQkD61X+M93/8RvyYDBL+9cQS/gtIuvWABSb3/ED0+a+q8u8VqDD6ZfI8+8QK6PvmRTD4BsaW95lUhvV2nj78Pjue+5f+RPiyZlrwRGoq/aF61vhv9vj1zHQq/bRWkPoGNyj1ArbI+zHKSveiEvDul5by+g6OIvlqSYj2DRce9Bu3dPot/L767ufO9jUmHPocDHz+1bt48tmVPvT1Xez5M8h07aLisPfBgAL3Q5Go+uq+mvVJmej6cY5k9zTowvVpM2765UKI+HbYfPtmltL4u+G29mIfuPWTxt74vsSa+MPM4PlMQLj5Fxvk98M/kvT87Dz4KgRK+A7lSvkoxNr4Eawu+/Mm7vjfk2T19S2I+kahPvUvTxr7uh5q+42VEPkM/cj64B+O8",
                "lymAPpSL0D28Opa9sm4yvXzzMD3nuVA/NkSZPhkUIT4BRgy8S4SLvTGSCb1nUke+xP7JPiEeSz5HbrA9YXidPazEn741WBy+tyWkPVy+wr51VC68ZpClPj2L+L0L3yC936NpvOUbwz1qa9K+BdKgPTXyHryvRL65Rg+gvdUnY76PJwK+WECOPqZo0z7lhgc9cCjwPT7hBz9T8Ya9qPI5vc9AWT6Sa24+WVaWvCeOaL4HhOG9cw3iOqX83b4NYbQ98jtrv5TES72423e+I0XrvXeYLD1cKby9WFGJvBTler0HyZ09Xp2FPTDq5L3p/5Q8uh5AvhdzAL28pY28utg/vvgNWL09cam8IU1sPR3Shb117Wq88VL7vTS9mL0zQHK9G2q0PJ0fGr4ZFge8D4OYvdjs+D0gDmC+eCJfvAL5Br52cCg9udq0PfWsBL4a6jI9oBD3vFlDCr4xPBi+iA6fvVqbcb1G90y9Ikq3vDJ+Hr5mY8S9xbQuve1eD76TbsQ96mKYvZar8jzN06Y86zShPVRzF74I43K97gl5PSlIOTuuyDg9OyXEu8GN5r2CCdy9dphivixerr1UoW89KrmaPUT5d73hdne9Q2HVvaKD9T3npHg9CsQRPUD1Mj0Xqaw9VB2/PFunWDyYFEC9vGUAvjLyGb1bfQK+Cn6ZPdZA1jw1Gq48dE6LvAD8mD3QXY88ovQ3vSCs772wHzC+2h2fvdX4M76GngW+3oTPvXHvO76SKzY9CtQAvYHH6b3/8Rm+HIk+PY1brj3J/Uk9x0WePJ9wjr3Luf+9HwoKvCMsKj2ytha+1tEnvn1fIb0EQe29QLFPPe+2eTxteyW+V731vdSjS73X0xa+0mmsu5rLMz0Uha29wvi6vc/lF71sZhC+3neMvIrt4rxWWMM9Gam6PeP/Br4lEeK9CS08vj10KbxU4hG+9nMtvsdbFr4iEqG9N0AxvYC+9r0+8x0+0+iIvpeKC74CMFI9D1CEvZCA6r4n/BC/2x6OPe5V7b1/sk25",
                "z/iSPrrkkr6JaIM9wFqMvn0vYD2uzK++ey/HPWBPur4SyS6+Sbo6PlMMRbocmy8+reudvxEyyr4/kPK8IwJXPmid1L3+yp+6d1W0vVvoeL0HBPC+KEJ8PkwzMb3otyY9ssyKviC/CD79VMM8TJqUvSU6dr18tXu+vuOhPbMusL1TFh2+EF8HvZ2gr7zqmvy+zLCwvs2w0j0aeZu8xxZ2PqNXsj5ntoc9/reSPg2a072OZae+4c/zvgrH7b25+wC+utTMPSLCjL5n4j2+NZwlPh2eeb7FzNI+5bpZvtBf3j2CQBK+iW9AvtFsL77HGaO+IBbkvok5Db6hlnA++TQkvdkTAD7Gtlo+IUTxPEKmHj06Wby9NzazvSm95D6G6sU87QtZvlck0b0jFGw+2nOdPgz2Gj15fxG+pUDBvnAHYj5LSlm96REDv9qb8b7bAUi8VOyTvlrUmLuOWJc9xkGcPaKFHz4+F4++y2UjPg+31DxfdTS/w3GePR/1gj1rzo++l/dpPRDPQL7GWdM9O6qJPX/CYb0kugo91VwTvcn8vD5UGRI+ivclvlnoVr7jvvk9h3WnPgKwDj0Ch1K+269tPQL4JT2h3aA+jOjfPZqPoL1QTi8+5ryGvqTkgz90dYq9VOWtvcBGdD7CvkU+IO5UvjwGIj4IRz0+hA5EvewImz6f3o8+dxb3Pczhlj3wZG++x3o1PJE15b3dr3Q+6j6WPi7LrT6l2hM9q5aqPrud/j3ojkE9Q1/SvT5SjL62kwg+Y6qsPNABo7wEM6E9yBuhPVn7f70YdxO+YClTPnBsAb5jsEA++khLPvQi9D2++TG+qJyhOvH3fj3u6gq+x1urPpyiCz5KlwE+VEk6vhTXOb6R9kc9F5vpvWSwHz3lYZM9K8+DvTNFHz7Dxvq9H9VYPZ1GyT1/Uay9bE32PUiuMj6L9ZG9p7ndPHZhobynm0y+STETPQC4FL7qCa4+SB1yPnZuIL4oy3q+CuboPfgwHz74XZy+0u8uPddnKD1olCo+",
                "wjaovYBuqb1IHVO+uDD/PQc3CT5RUKC9eaqfPqM+E74bd209v/+oO18LP75wdi4+Jw/Mvs3xlz1iZ1O+gkDUPMHciD6ShJI+BNmSPvnIYz6ATwe+EIXkPu6NVzyqAUA+q3INPew+57sRw5c93dgQvvv2AT4ET7K9rXekvo9tF72MFqW+GaPTvZVwjD55oiu9tKW2vUGIDb6eJ5M+ogC6vednrD7KHnO9NpO3vdS+nj66fHW+3+PNPiTQlT6DKe29YVzVvcDFL753lzc9qEMuPjsACT7G8rW9lNgLOmiR9b1HooO+e9Fdvtjh1rxHgIu9LfIYPiGrwj3Uwgi+ZBbAvrCA1b0KlIE+BI2Nvr1FRD0Laqe+tFO4PVrLCT6IuIQ90fRbPjD+PT7nZiQ+cutWPe05m745Si2/8jgWvp9Gur5HYTs+w4zyvfiPLb3bjpk9x+ZiPNkTOT6p+FC+4BCKPtapST4vqpg+1yQnvK1VrL1/IQa+UH+GPXHnGT1rk4S+b+bEvdOGc71dPzk+1FcrPr2vSb4naOW8x6OgPi7wkD4bwUW+Z8lfviptVD5HDz++k0izO0GRN70N9CA+jhxKvnC7GT1qq/C9KLezvZBfp70iFXM+8WE8Pak1oj0RIlA9I/pWPO60mz4NMMO8mWEBPhIAiz2mrGw9+0QSPDoRnj65h4g+XgHKvbeBgr6Rcxu8appWPnHOUD3o1Ac+cD2TvlNC1T0kDzI9MwGlvXX4oj2pHam9Bbwpvi09L77n6789qFqFvrylJ77+Lzu+HIIkvGAIMb4Nyg095XXfPeAAyj3nERY+mt+CvgTf3z4vGm89+vejPXmnHj4jom65lsOEPhV1ED6ec+a93CitPjaHIz0G2+y9pOfvPsKldL1y2zM++hHcPPpODr+b5IO+pjBJPt4LCLwktLS+QNQ8PgQmiD0GePy9LQQaP9vtDr3L/b87YpwXvhrdVL1lSYG+gjpkPn+dP78wwHQ99n3IPJE6kL5PZ6i/SrxCvTziFz0FNOK+",
                "yf3vPlSIyz7elCy+vt22PZbjvL6M+nS9iBcHP0a+Oj3BdKq9q6/dPm2WGL/nlom+LiYaPnJQhb1neK+/3u+gvVe+Sz1guhK9UbN+vXpmET6obzu9IyTtvd7mbD59i3u7agzHvgTdDj3Hq3w9ike8vRS8Fj7SsBi+KD4eviRBp71otxM92M4PPqpHOb9Guwu+mqZTvxRuwTxG4p8+99jpvPbt473lvzo+0DqVPfHdAT0VP7u+GJrtPsb3/731Xgu7D9pIPjyrOD5FSFs+xXUbPuyta70VlQw+zHo/vgYfT7/AgQG+LdSFvntPWD7fGQu+GbcDPeStRr4mm8E+pKiTvhsL9b5jWo47DiigPq29ND4DbzK+k64uvr2gqL4J05s+kU6DPDHgrD2woye+2MKNPrQHnT4hioQ+1JV7PoYuCT1ECQy+UBB0PvRoVjxvx5++7/YiPim2HL0eGAS/RmW0vP0mWD7oaZi+hqrvvjvOCr7GapK9ZQq2vBiCfL2At4Q+O/YHvv5Ohj0Ctmw9S7S3vY7KtL6Z2oc+eh++vTYhhb5iofi+SDFXvra5pr6c12C+YcEtvZGC5b2YKs69HLvzPbcE+j1BBku+oztJPSdOQz4E7qE+4Cwqvv9xbb4fb0Y+Dc9OPSNZbb1/yde9HwMZPdpBqj1vJm89EBiavn8lmr7Zwoc9jUKOvlbwMD0vFPc9gVBFPuQlCT7xA1e+0JqhvqqI0L3Fp7+9DMpRvrAuL7+y2Y49DJVOvtLgHT6ucZo+6JKHvvIVJD9BCws9Fiz8PUWUCL4TbKa87KVxvY3wST5p5hE+EM6CPAGCqbyBmQq/1uSfvevaMr4M0oU9BDlgPgELcL5r1xa+WhNKPkqeeT7VNao9b3Q2PnR7zL5kn5S+lE2VvBSZDD5NYOA8yBqtPEVl0D37x88974cAvoD3UL88tsa9dEo4wBk+fj5Be+2+d6DTPZXhSr4GHow+3hOpvc/0tj1JN04+KOChPONYCz47C7W96J6tPeKWoz51YEs9",
                "294IPjJBq72fAbC9gZjoOhMdbz4jGGs+wjq3PNObnT7ru2y+OTnFPJVpXr5N2MQ9XQfLvtIDMr5vTCQ+iRzGPUrdGb6HGKu+fy08voxvPr52RFY8RIBDvbASWT75igw+rIAgvjJmiz1aQMe9ZV+lPa6deb4ln5K9V6BlPoCn+T2mzbU9Le+AvUCqyT3fzXm8kw6DvblFgDwrUC692TCWPIsng72ZQyy9GBTFvvFiHr2E8Uy9zTmfPkjG/TwcgjC+m6QLPiVbpb406j+6xHhfvbllwb3cpAS+UsWNPtoqTj60+Ba9wSaevSIPFj7NQKm+cXumvZsCD763TVs+RNnEvXzenz1qzwQ9sMNbv5HDJT3xwhc+BPYPPrnGvL0TbhG+sT0kvgYzYb5grmo+2CP7vvUskz4y64O+0XiWvpQYjT1L2pM9NkNBPto3Qz4sEbg9pNzgvpTksb5/AM6+t25lvglLtT79aEe+fOXYvf10Bb6jcfw9vN0nvObUoj7KgTm+16aCvUeY474ITnS8ysyvu+CaD75puZM+k/KrvaYnVz4GvsO95m9ZvtT3UTzELyi+ckcUPsswt76gA5G9CXNdulTEjL4Hxwq+xO2eviWeBj9/yZe9qRw6uxhC3r1h6MC9U/YYPk8Oyr2I9du8trAHv9MtlL6cRZW+CKJYvbJrwD0wYV++zlTpvCSIlz15E649gsSJvZ9i4T1SSh498uKoPTc9sby34pE8g6rpvgk+9r7d+K+8Ps+MPnIISj783eY9ijXpPaEsHjv/da89OiKWvTZlzL3NLQ2/v+jVvir2Fr4LGDg+rP3Yvsh9mr2qfAg8NwIivntccL7Syee8Uo38PkJJAL8tpnc//VUCvm39LD/5mUC+W/evvgr7grzV2Uk+kqM7PvN0wbw99wK9c5i7vUpLzjxy2K69yaENv5RaCL1wQIA9YB1WvNWwWz1v8uo9aW75vR0CrL10ndO+11vSvQv7YL02sSU91Zokv8JWTT1ncbo9drrmPfrJCb7uXYO8",
                "PrVDvuR/Aj34YXo82ZiMPTme2bz+yHK/qQiZPXjkGL7+pE2+Zo4KPvHo3ry66FU+WhiIPrnWFr/81JW+ajuKviF4nTznkos+S11JPgnKU74ecoY9/pETv4zq3r649Yw+AjI+vWl0jz6xub89jUxCPvVIHD7vtkW+dMFLPqWqG79clrc9I8sCPnP0Jj7eyg++a1xmvoUWLD77bYA9gQwHvs9CLT0Muw2+ReXmvCQtzz4HxnA9kOH6vDHfib40Enw+Y+lyvhoSV7s1g4q9sh5Tvad6Vj60C66+wkiFPYwYKr5j3yE9PLt4vvUq5j2c+vw9fuZsuh5ASr21kSI+8AobPkDXdz4ej6g8mu+2vkzkg75YNdY9K4iGviZy4r1E0Co9dnLFPq3RqD44aRA+jbFaPLxgtj4YQw6+SmIyvqkZqz779YA+ftXNPL7yW73Gzrw9GzYWvmEp3L67URu+l9QEvu5Gfz44fIm9/iVzPjqGDrs2eE6+kPMcPL4YFz4ZQFW+eoEMvTgE0rx9aUA91s4ZP4mqDjzIjvG+JI65PREzgb11sIO+oGpAvYiHWz6IQLm8Y3ZsvQaIkb59i3U+IHhNvDJCVr3ANVK+WnQHvj8Dxr5cDty+eQvUvrhCWL46koA9EaCLvZLaFT4tGbU9cz+gvdOJFD79nx8+0PDPPTKwp74YFNK8xwsCvrRGhT0KcOA9cGOgPvKR5rx2B4S9o+T0vVFNgr/po0Q+RSEUPaZ8Jj31lIi+1n0rvnoPMz50JUG9FNg/Pqd5u74V5SM9KS0IvnYvOD5dSAw/Lr2dvQR1qL3IK2e7BK0ZvvKubr4K1RM9ERnEvdry8LwC92o9ftNHO88zpb0j2je9+xo2vXCuMbzaf16+o9Ifvkwra73MQSi/SoKQvJYjW73fMpq9tPvjPdLSYT4IqOm+f175PSi+DT5PnYQ+pozhPrxaLb03QZU+z36hPWranjwOlYO9NFbpPmUgPr0W1Ga9YZlYPqNfar3XPre9TtatvveCV7sDKyE+",
                "c/KCvZHsZ75hAa+9LzWZPr5wIT0iCyg8yZZBPrtunj5KQWw7FSf6vD9t77yu+PM+3Zgavffa/r1ZgDm+O0vYvZ9tz7x+6mY9DKJHv5G6wb37MhC+DoGDPawGBz44xoS96nGDvnBfU75Nxyy8aA+9POoC1zyMwB8+u1qlvjfNv7xU8IA+rt4SPoSmCbx05jM94sEFvc0hybyzusm+vs2QPt2tb71zv+Q+ZVEHvjB3HT7O1Ru9Wj5fPL7c2jwMjIO9msiEPXGZxL7VaG++SZ+rPW1Zer2yj8m9Cir5PRdKA764AbC7/QXUPElig7r77pi8ky5tPrAF1D2zL8a+cPcJPVxRQr7RMn291dt0Pe/wBj8oD189wzZyPWgiLb7B4wS/hYikPLQbvD1yUB0+/Uacv7IOPT6EeYG9s7GTvJLOCD6ZGWw+K0x2vs31Djoqcyk+pB57vuDFT75E6ze+GAOPPHj12T3quCY9TGAYPqI3+z1sC9g9UnIaPelFUbsHdWq+O6BOPLWRAb7EhQy7OwLsPs8iVD2zMDg+o86nPNG13LzHdCW9KBUbv1O9hT6kd8a9U50/vME6v7tlbWK9Gr6jPeI5Gz6Wbdy671/uO+BZR7yyO509N+7JPecN/j1H/i+8kklHvjAUgT15uJI784g7vfkhUD5/aRg+89b3vUHs3j4Sz7g9NveRPag0XL7JzwW99QhyvUYR/j2qKQM+WLjRveGfy71KgRm+ht4NvhmijbwV4Ru9B4mUvYF4HT0BZZc9HtG0vbzbMz7DLV++lWRIvXvkeTvg/No8yXq6Ph3hkz1PgKK90PW/O2vWhr6ShnA+WQVQPnY4Db4355S9ky6jPNhfgr7y1Qe9ZsDvPQZdFr5xeG88AOdPvqPmz706fgg+tGaHPb9QML4AFzc+hCSGOxqg3D1b1DS7+q5NPsQ30jtUgTS9zCKPPrPBIjt4PKm95CuHvXHch7766JQ9/7aRPZNyzz3xnQw+0eeMPbgIW71nXeI9CM2ovCMCVD4xPTm+",
                "8XQVP6cgkT3lvey+IGCgvq7eDL39Mba9sXsiPrx+R73gclS93mYLPajFib2HX/W5XI1UPDXfOb0SVCq//BTjPXVuVr5h2f2+sL8uv42hwz45Ozm+u2KDvI4nOr4jc5G+EV1bPkVk7b7gROa896UDPqUlCT4YLQe93fwoPuZohb5BHS0+zfdXPWnKTz7JcPS+eOi8vV2EszxY1M++OrCSOvXIjz0E+ue8effzu9fiLT6QlBG+YUTxvat4qL0zgrE8eE4bvRhHZT4nAry+o7GPPfSKL75ZgYS+ZRxYPiaDDb+bvdQ93tKoO9MLmj1ztAm8CsgGP/pGvb5w1929HFrGPeUXSL64T0O9/T0QvAgKZb1cjoa+0PpDPsU0kz4mM729HWhOPctEsb6MoWA++UYrvj4yUzyGEbE7hCaYPN5z1Dwot8w+qxJfvtU75D1z9CY+o87yPoft8D4YMYC+G1GOPtp1jD4Q0Qo+Oy5/PtUyxr5BZ7++itHOviEnIb3o9FS7TA/+Pj9Z0z33+Cy9dxcnPRjKpL57XS2+hIvIPsrikb4Mxd++6oUBvEz0FD6XuYG+RPwavhBxn76i1nI+/XVZvdFXjD6P1Ui+jKQFvZaCwL5LPh4+KbovvGo7m71k41Q+Vr84Pjq2hb3eY2c+M58+vUX+SD2fs8k8Q0JWvVELCbyQ37++fd7fPYqsq7wgfzC/3yMlPh1rJL57W169WyKWO1QAn73naIq+aKCxPYpikT0m18o9iVhXvHEwSj2qYa4+jKMUuzFXD7+8PCK+Gbs3voY+PzwvtK+9VfaTPvppmry4bra8cAqovZs+HD6j3qK9iyOCO7OJbj68RpM8zCwIP+qvs703rgO/ZRryvCOHYr4uHIs9noGSPStV3bt413W+XUG5PUFrJbxRxsK9SWyDPucBVDxn6LO+P99avG/1h73cSs0935c7vWu4QLyfw529q5T5PZmxl73eVHk+Ku2LPvS9Kj50V4s+ypiqv6Cbk75TD6Q+u33KvvXyCD6uK3u+",
                "8GUVPWkDML0Rj2g+3EjAPPrpxz7/9lU8I9/WPUNEvD3F9Tc+YBryPOs3Hz2li3C+pQKvPkSTKD1ZNwQ/huUgvbVQEL3tvj+9TtIxPhIvbz1a4oa9OAGnvrpAo71JpGm+jy8wvs0ccD2etUK+Ntc/vi6Mfj7fVmY+FI8ivUpaiT2Zb229rkMbPhWq3DxzFgc+BPAivQ/8Ur0rvye+2JUFvsvORr5RPig+IoGAvVVlZzz4zZS+A98fPhNMVj7V4xw/Z20CPwNEAr+FTeK+25wCvtgZhT2ARk69lLaMPtxf1b5jILo9rzckv9v01zwQZxC9bbcvvehkD73GmZY9PchqvoKnL75XTYa8du4APjESSjtz1Uk+hNR5Pis2hbxkKkq+53jCPdCEBj5mlDm+OGgCP3Vzsj4vFly9osYNvTmxWjxWTy+9w9gJvnISMD3BTqa9vxR4vxlCmz3EHPA9GGhfvg82UD75fRm+eAdUvYs7Ar1r1q88CrxIPgf01L40VLQ9q1oqvhC/Oj0K+RM9y2/SvqhBAL8WinM+9maXPvIfNr64PKe8uy3pPShljz4VW1K+rv1bPnpvWD7/xJm9ZP+vvcF9CT4mg/K+dgPSPudisD4wiqG+wtQ/vrBMTrxuhHu+Yy+2vEihqLqPrCy+kIUivY5bQD24XII+7hPPvix5FL+T1269ABrbPepgfz2e5ea9QFyOPnBrQz7JzQM/dQSXvquH3j7T8jm98BMlvigjST6VGgW+HPqsvR1k3jyBv6m+8/CpPEX+yb6B+GW9jtIMvhxG+j2I/Ha9kJi2Puxl7j4lABm/Tlp7umqMlj5N+2A+dPkaPtCbuj5GZzM+icMcPmRV57w8Fn++sqV3vn18ND5kIK4+isQnPX4OhL4q+PG8SnOfvmzcJD4NYcw9l4ZDPsWHMLx8NH09N2fzPSZ4DD7QQtc9h3MSvhEAjj4VSV686CCXPY1Ppb87pNS9CP5BvmNIOT78Ku290JmGPmPcaD2IGE8+s/PpPQCJMT6iYae9",
                "hbAaPgIZK768Mcu84BlTPSih/b0v7wW+2dwwvmH92r18j5C+TnJevuDpCb+AysO+MkIjv8XrEz0bBre+F64Gv9nJnTyXv8G8gZjZPclNvT3cEOk7Xeb3PIpXHz0HieG+nmzJvJYeYD4Aync99Nvgvku2IL2M2qM9W+8IP2Rwar47z+g8n9QQvsvoir1ANji7CybTvp4PPr40TfS91L6Kvvug077n5IQ+ef6Ku3JNyz19Knq8sfdMviRqw76FuhE+nTesO7SUhL7wD62+maubPgHwwT44Br89ArKAvueUPb3y7Os8xxhiPVa2yz7cggM+KWQaO4gWkb4VmXe76iI4PuVLxDuKTKo9zuaPPshFVr6kUIW+9DBmvrCVAT3tjTk+uKLqvrskAT1loky+wXX9PnPbpr7RVf47STJRvkHRXD79/SA8XvO3vu7ulr5nyG6+D5MdPka5Xr5uHKk+OyDSOwliSr15U5m+YGAdPvKynz1S4yc+DkDYPnw7lr6gkdC93EX4PD8hnrzMGBy+Yda4PMHzkL09OMI+jcUIvgkzRL5k5I49cozBvUEfnD41yUq+HLcnPq3PfL7AnxW+8XMgvg7dSD37GHm+/aFfvT7zzL4R8RC+BDriPvmmhz00XL29A86XPlKz6T0ll0695eQ8PjYbEL2+44Y+uoOAvpQAn76kY8i9L79qPnLWYT6T8Ny+qs3RvPxYFD3yO4M+TylCPs9aFT7+cqW8fGB/vSr0Rj6Hul0+SC8BPgxCtb5uAUC+0lzPvLhVsz5EHFa+ZJKGPI76kD6W8XQ7pr2wPk47Br0EUeg9FqYaPmW2HjytYVw+k72KPQbLQz1KONa+AHmCvQ4bwz3alPq9i7Edu6qbgD0V7sq9vL+MvsDg0j1oF/k7f8Oava5hOz7LOZG+T46ZPexdOz429+u8H8eQvJnsBj0uszm+gIWEPW/ZaL4eXFY9hYUzPBvV9z2f1lA+FiWTPv5EC75IChc9inOTvMZZ4L3UcWu9HnrtvekyCL7PoY4+",
                "oLW+PN7ukTyKDMO+mO3evuOafrx7eEi+1fk1PoGz1r3ZWby81WeFPW8OBD7xSEW72X2nPaijHL7szX083Uw5PsnhTL4UrRs+bPyoPWC5uz4J0gO+boWgPlz/kz5l3WO+RCogvmLbr75b5tC9KC8FPtHiSz3IF+s+qU9kPk1Usb7db1E93oT6PHTdbb1qaak+Iau0vV9IAT0b+Ra9n6sDvo6eEj6zOge/LGUPPzOOMbynKbG84IxkvbyIGD6oMhe+6q+vvYTwqz2zGhC9aEC5vaTmFD5wrsk+a9uOvlR9Tz5EimO+feEpvonLxT3q8fI9MV5lPRd+P76jb/i9xpz2vcJlUT2qfPu8d+90PpwoQb4AfBw+LwEiPE+sFT5v2Bi+YmwWPSWIZL3atWS92EKGvSSR1r1nJhK9dSpaPhqTlb2p7F29BW5nvzgucj4q6lK+bdhPvtaX171Tz2K79f3GPCJvmDzDgLG+sjXXPTZdIj4L94i9EWNWvxWGpj7QW0U+gbFcvHcpcj21HkK+we+3PdA7JL5v77y9S+bAvnk5bz7Zj7q+gk/yvR1GBr3idhw+pRmPvpoAGj404im/Xk31vXd4RD5o+g4/9mSfvVbYvz7kHB++PvK/vEwp/7s4S/w+nJ93PKLPDT6zxba9RgYDvuUPLL6ei8i9Vb3GO4EZFj4+aiy+8X8APSRwXLzXzJY9t6K/vAFw8rtP9sA90UwNPQ/aA78w7Po8O+QZvUbfbj1/xli9umbdPtnK+T4g1Jc94qX3O4EmOz6mjgM9d2W0vWsMS70N7xa+p+C1PjzCp73+FU69/mPrPF7Cl75C26g3ZfcEvp3RDz6onKW9L+Jovrxoxbxi9p2+u1X8PYg1gb5otKu+u943vemG2L0CWo894+FWPcnGxr2/ONy8FUzXvZ1GRb75QYu9wuDPPdyHcb7gNB0+5vx+Oy0e7D0h2pq7d+trPbDbgD7Dc5C+TipPvTGQRL7dC44+SmQCvmAxVr2tdw4/gXLEPABkoL4sUS4+",
                "eD06vHseZb3XuVC9GHHovfZzuLocKhs+T9+mPh/aRL64ZqE9XzGkPYEmrzwmCgA/zkNGPiyEPT2XvRa9Ox5Uva+Pq73NWk8+Wz8IPvVuqb1I1ea+4TyBPuKmJj0Wwpi+m1OuPgu3Lr1pico9Q543PrjhxT02axa+6zlPvdraBz5rNKq+WHcpvjWnmr3ehG+9TYHyPcl7H754QAM9knyQPcwRFD3r3nY9IweBPiDpAj60F9w9j6bNvdcMGD4h0hY+FD9vvi05Zb67zaC+sWvsvR483b53SsC9XR5TvNI4ijdYUoQ+Cnlxvpt6fL2bRQk+jBjPPr0xar3VFoU+BT6lPt1hWL4Nyzm7Xlj5O8PnIL7Pu829O9QcvvxipT6VrA88eLyEvSfbFj8B5vI9zN2ovOpGgz3oDim+ugnGPXK/CT62T6g8JmiEvfUytT5wdAE//gycPWJqxrwxee+9GlU8PlyRET6l3+8+VdJzvl1rBL8rvnW9kjbgPjPXuL1+4ak+bz62vfD5RL0DhyC+QFqDPTfYmb7wh4o9ooKLPV+fQL7+Z5y9I0+4vuvW0b3OxXa+7sSxvUOytD3HD8C8wN8qvj/LFz/RZCw+KKmuPbZqIz7R1qQ++gIvu6UElT4y3OI73dAXPr5k4Dwuj92+Gw4LPWl6ez0z/fy9A4ccvsS/Ir6nOB08P6w3PZr4tjzps0o9TWl3PdvAnj29pZI+40WePWVfGj2Q9Pa99zQzvX6kmzwfasU9AK+JPWA5Qr4Pyd+91SVdvAAvIL7xnRY+RczRPJT03z1qtTI+7kmxvRdlpbxmDL8+f/gYPr+qjj67RaW9Oke4vb8m1D1lThS+vDSqPVpJAT6GaMa8Iu4MPlIQq79P1gY+ZNHVvj5mqb5fo5y94bVuPc8e5T21LQW9bfqePFimA75XfaE8TqAavmKoiD16YfC9hO0dPmRAbj36iR+/lepUvDp/Cr3hPS29DFBwvsb+Db0K+u89F4QWPTSLPb1yz8y8SboTPkDBtbu8AJG9",
                "OACnvWXCyL37U5W8LgD7PfcPnjy5WU69Wm4IvWqqLj5ubpQ+EfxwPthrlj3cebc9aiiGPupiN71rszy+wdIKvmwkKT7SPEI7EdL3PSxvBb73iX8+iVNTv6iivD47Zxe9O3+RvnNuBz7Taae8Fl2bvbCUA75UNnq8L3FpPtHzsr1cMkG+ExTwPG3alz2K46E9k2EUPYBqDb71hvm99vx8vs0BKLzHyhY+/K8ZPu1Tgz7twTU+sVMav9CFXj49j0W9vLjevT0gUL5koIY+WLdev8NJ2D2Ct4Q+o7hMPaiIXT0mKJm+TwuqPq/sW77JqaK64bEevazdJb54jfu9el+aPs59X77MNwi/AOeiPs/fM77tZWi+3dVpPaPStr7ttQI3IoA1PEBCLb3FYGQ90bSJvCGOyj21ErK9BUS6PVYcJD67eq49qbz8vuMYZL2NlfA8gBYSvlGBDT1g2co944asvZWFSr47yQI+CoGsuwGHhT7eLLM9865Nvh+4xz1X6wg7HYa9PSHxar1bjOK+8UniPNRE6D0LH6W8TWVIP/brir1u8NM8OR9Ivp+SfDvkr6S+zXwBPbAshr5BEYe+jWHLPqWIjLooU6S9rz2mvS8fib1NRSC/hhfqv/0NIL4Ho4q/w9Q8PaljHj6Oz8U+MQfkvUgb5b1UFEc98jP9Ptt3tD0VVyq+y2pWvfhxUzxZZ+q80IBQvmJnxz0hafe9S0XsvELvc71ywUU+0Y/uPHDIKLxzD+E+nWeMPfU8I71qx42+TEL+vAQiL7/aNuQ+po4sPnnuTL5lm+Q8chTEvdmHJr9gUEe/MN4OPdkZyb4gYli/uIEivryHM7/J9ua+W/JxvtcRYr7WeXe/AFPwPMWz9j3peQI+bLGJvi6UzD51Q4+9FXNHPv9JJL+WH2E9um2WPCvhXr/b9sk5J/bpPVwGCr2LAfw9j1AsvlubAz66lHQ+8ZdUvaqTbD3iY84+UVyHPGcvD75MgT6+PsTYPqpjSD5HGw4+4Z2SvmlMLz4Si5U9",
                "BqNgPe3+BT4JIVO9fkimvvIikD4UNMS+AmslPfDpz77p2809S6+GvAbdlr2rJao9F1ciPqDgk7261Js9n92kPHae+70Ohg88sHFDPe1G/z3OB1k8h/wfvOZUw713wIE+Q9ZBvikb2r1zVcw+9ZTmPfsKMr68Rzg+13ZgvijeQL7e9Rw+6NqLPm0fLL0mGwi9oeMtvqlnRT582ZK9gFs2Pi1Ih719nkW/re+oPO+dL71yj/G9QgtdvqlE2L1ipXs9lIsYvUJsrj7WYG09693LPHSWKz6CJ1M8XaRlvmU2jT2wkZc95zaLPjszAr7vO7w+qLS0PfBptD3Vt7u6K9tXPhEEVL2XgCG9VVODPfnJbL4Hr/E8P2sVvpa08rsdpA0+uLdJPm/gjD1Pz/Q8lPgPvr7pjzxTz0E+VbefvtkEN777pIA9EtmzPLwJ9j5kPkg+4xUfvtMYEzsQTng+iLKVvRp4ij2OwRi+KkT4vDjqlj783/u97dfUvXeAXL0uude7EHcwPvJ+1b2iTyS/gDGevhv/2D2p/bu7F6AYPSQGaT2yg58+HO5Lvu0oMr2xW1c+0BAbvrzLRz4RxBi7kzXuPvin5D5dELk9inUmvyQ1rT3vUTg+qT/lPUaoOT0xQea9Rg8+PYxNPb+7HvW9r/cyPhwu57xL2kU9WqVePh0UJz5rVAy+Dti8vYJqQT0L3Y6+btsgvvAwIL0wJ+69Df0hPlo7BT4bdGS+Lf83P+De7705HqM+oD4wPf2UHj0Y6xA+ZfqKPZyvX76h7ey9L9odPf38bD7mt5K9rHqbvrKhhD0KiOm9Ym7MvU8dEr5bPfM8oEvhvPanlz3PImw91mcmvhmTwDweR4u/aVVaPKfqwrxyaJq7pUClvPoIsT3V42A9Du2pvnwe+TxmpF89YxGEvrcZk79rfn09K2pSPtaGjj2pqk4+99/svAjw7rzz3iA9bICgPjFB4T15tPe9J9egPQ8aSDy3UgW+BhTmvaInFL/ejQ+/m+ZQvY4fij6THLa9",
                "fkeCOssCcj2/fME+Wuctvv249j13Hbw8IStiPtJQXT0SLsc+b1ysPp2tQb3UrFi+RK2Ju6pCDD53/IS9mEJfvmdpgL2y8FS91ciGPj5aAT6vrLe+Pt6MPnGL6TvkXKa+lf7lPYhr7L50XuO9ljh8Pj/svT6NU/s7EYNePSE8/L1YbIc9EcZHPTevcDzNK/q90sFYviRI5T2WfYu6Ya5oPrVZDbyH/1Q/g8+Tvm8Zz731q8U+xXTSvvvyI7zOq1C/0cF1vtmjdr7vJ10+JpW9Pb2lLb6j07498z2DO6Qxqb4KR6q81DE3PrgDq71jh5s9UD6ePV2/DTuhpO+9Bo5WPvNGlD6EsSg+P/FLPT3T7D5E7hw+Yvu5PNTUgz2Id4A+3ZtOvoJsAzsYQjU++R+XPsNWGb4b30y/a5Cru+BWf7zTe4I9V9uJPRYxdT3oZBQ/aOuyvi1jnz20i1C+Ks2mPco0ID4H5oW+umLmPUp/PT1CuNG9vlO9vDEOxL3Dyn892nzHvtcuVb7g4iW9P79rvg1gBL0pxGK+d5+5PqPmXb2/SUe9WsKxvYFO5z0Gll8+yE0XPQ8YiT3hStQ6G1AAv6nYnD7lEjU/xzKvPVjbZT7xBnC91FiWPLC3s7yLTCu/K1RCvm50jT4bApU9/asmv+LQyT4QkCO/NRrYPUTfCj40w8q8+DIoP7nWQDv5Crs+aToAPlCGCzyywMa8CInjPvxLTb6Tk+W8QAohPizo976wAAo/yhbEvLp9uL5VF/u9gxctv6PmJz7syRg9AYPZO1I5gj50YtI7GCTBvnZqWD4pdim/WXqGvp5vvz31l0A+hGJTvk/i7rzISxu+nkObvptB3T0kdIy9lqouPhVlKb4W7EY+bW5DPar7lT4259s8Yk4PPnTS0LxCGp4+fO+CPtCZ1r06+QM+9A1ivkfIhD5NLsy+cBkQwJLllD5z8R2+jSLuPEsONz4LDq+7WFqoPfGsX71H4Lk9ZkvIvc1chr3L27Y+cTFoPYKZRD5VVSO/",
                "U73MvhI0Gb3JkJi+ubwZvib/nL0YGdY92yQ5PqO/lT62w9K+gBC/PizkJD1Zy9Y+WMsvvwlDsL44dXk+n08fvies5L5H6eW71gERv7Vguj24h6g+B9H+PRrPir5Mwlg+Q5oIvZFdw762b8K+thcavlD1mz7N0by920USv91VBL6T2YK+U229PUf+DD6Exvg8Zw56vDLrqb4hjaO9E9UzPsL4K74mqF493RhWvoW9Fr7G1V2+c7WAu6m6mDzF7sq9SDMYv0fxZD7Seb0+yaXGvdRIAz5/UhG+r4BGvn4dlj7nVQo9KiXGPbmRTz4jR989ww7ivfECG74gfrE7j5WKPn1IuzyC8HK8Zv4HPh9JqTwkIWg+r2UXPDpYMz6V6Sm9AVoUvlQOT70vqIG+91I6PWRpOz7n7Jc8Z2lzPggUVD3gxfi9EHUIvqj2wz0N18u9pkQ0PpZXxrybAD++MLr5PPSkIr7Y1Um+dylGvH5tvT4mXIG9l5tgPlj8I7xMwpy+oliuPPEFzD757C0+jhQzvYiGND5A2MY8DV6MvmYXg77tuDM+LpeYPa/VET2s2Xc9HJNVPnvvpL0ONMQ+ztMbvoHbBz5B/P281c+xPejK+71pXpg+/0+MPYH3Pb4xZrQ8zO/GPixsaD6qpgw+LcrzvNnbzL4BkX++RoavPgo1HL2zZWW8GeUGPktpg74LUQo9f+NoPWdBTb15zna+1EOfPWpChT6Z0Jw9q68+PkaV0j2yxq89n+3vPfRgF77wSVc9mCISP4YjGz4sKrg+SrtEPh6XQz78vwK+GpU+PGACoj0HbUS+SJINvnNQHz6LkSu+pM/IvNXCQL5AhHw+xUmQPgQVcT5pP1o9Wi4sPWcAiz0jbUG+OLBsPURaAD5RyDs+EFqZvPHsvT6zRxm/vLWtvWJ8wb08Lgw+gpPDPGtu0j3MshW+WrITvQoN5z1bYHm+yLLmO23acL8Q7qi+/dR/vZZneb3RyTq9/rmevYXgXr3PWG++e2avPqGglT0kUJE7",
                "nEj2PFzsEr5z2uE9TQGWvR2w+D7VagK+1yKhu+vq1r0+yMu9CHaWPpAPwr0NN3O9VxOwPZQzbLqUvwW7si1WvjLTubzyRjq9bbNPPq2qRL5aDx0+K0eSOQKmvjz+VmW99ADzPR4RlD0HFqO95bcWvoEKGj4fSJg+OuB9vl1HrDwFWhQ+ybwlvmuQqj2ieIk8gekWvkC6hr5GO6E6tl6KPkrjsT7/JbS9NPz4vcetaT6YXJ28nggqvtuJwL0+7VC+lBcSvcp8Gz6ZhIa9r/LpPWtpD71lzUi+l+NcvgH9ib6oOd09e41XvrK3uz6joKy6HWVPvotuAb5nUbQ+eaWwvrGJRDvSaWu9P04PPQ9kpz17APM9Y6EJPffaHj7X6y69Yu1/vcl20L1jLrA9At/gPX1Tv73uNxY9JCY7vV50jT35RFw+PsMHPQ3Wvr3SvoY+LGZ8PPt5S74L1C+9ND/AvaOqzjwg+tI4e12bPY1Drj3NCJ+9/4kkvsfpf77rOmc+b/nOvAn8PD4/Iwe+451zPQiVCL1SyxA+vlkRvuUyiDzKkZ49ko+ePXFfDr7x/uq958kSPsBfYr0Jq4o97yuQvS1pOD0zREG9argePNyAjL5fedE9eY8yPktNNT5J/hy93Tu9vjxIwr58QXe+9LcdvSk7ZL9fF0y+HxTOvRAQl7ynWDg+ItSSvkcX5bxAnZu+zk8EPoNVdL5w/EK6+KupPrIVWb7qOaQ5jbfkPuRm0L00XU2/38RIPYNt/LybPEs+6VXbvfdZOb1nRtU+wHyoPdketr70f4M+vtfcPcOzTz7BPlW/2EFLvV+5Zzwvpm69JDgJPY6W474f9DM+KbnPO2EdBzxyq3c+l2wlvgwyHL6GENq8D9WPPUTloT1+Viw96/Whvnyr9j6OE/69iheFvQu1Oz5uYE8+AuLoPTE8WL12k3g+QvKKPgLg/r2J7s8+2eGTPovtfD0fq0u8YfIlPhFwrT29xIG+/nlpPcghhj0q4iQ+PR1EvpeQ+D19+mS9",
                "U+PyvSJllD2LIqs9ZhQevAYdRb0f9Ka9bf0Svs2HGr7qDHw+EIjCvOQ7Bb4f3QS9jby1PUhm5D1jB9K+2qzCvr9/vT3XJ/29PDqBPcGWFb55cKS+jBt5vuI9A77EmjY+Dv4lvlMnjT4s3AI+ydAEvVIu3bweQY09iaTjvT/xQLwQemk94GJGvV919b31qMU8CAecvJFm6T2F50o+gx7LPFeQlL5hbxQ9+Wwuvo8tdL1xql8+hKxmPIBiL7whMQq+/veHvuOgM75QoCE9lew1veiNrr22BKm9CLuRvkyimr7oGTW7/sfKvfTqoj1o3IC/Y40yvvNFSL/e4K0+jJGfvXfZ97xe01G+fgXWvuIsXT3fCFU+S3GEvUISTj6v9UO+jHgAvuQ+iD6I4bK9H6uGPvWQjj1X2aG+N2iivq7wiT4y8EU8D2g6PsM7NL/3VZE+Flj5vWhQTj3rz+8+CBvJPvhv6j6Eh2i94F/sPSKRer23CIk8fKhLPqClaj50oNM9Sh0qPbph5r18bOk9vx/tPg+7zb2RtvE+gGsvvx/9nb1DX60+veLOvjvBOT75vB+/CYAfvTByDD/EL9O9D7NAu1zdbb4UonY7twqtPepaprxGi6o9W6m2vM3Pqz3LTLg9CXbxPX1eCj7c/ry8+93ovTGQLLwbWBY+yYdMvb/Swb4r8Hw+p/qpPfUzzb7gbJq9H88sPkWBljwWUJK+HBSIPVWmhD4/mzq95bOCPV9zkb62Kmc9DrZ8Pt2Gu72KDF0+pFNoPa7cTD3Uc+u9s5AGv/UJh76DQE09Vk2ovgGbq72fdXm9cZZ9PkXsBD6xz0u/0jmVvulplD2EX6M9ODkfvySNsj2ry68+5ABrvs8Dlj5dIys+a22NvtnvMbxWUKO+3o0Av47kVr5JXT2+d3tmvlrMY72JB7A+7qbBPcDl7L6FQ5m9qwa7Pkl2zD1voHe+oSYnvgLZWz48yFS+NCG+v21XCj8ays2+jvSqPdeICj0vbJ09XCYtvMwpGb+Ibq68",
                "hptpvnjpB76znLi7VV7BvXPkkb2csUu+85YovmQpHz7U6qO9m3/0Oqb8vb4UDos+qDNQvo+8+r2xkxo9Ra3aukWzlr3yziE9xkNFvg4Lhzwk+Qw+2TkjPmVqk7zJZiC9D5arvaj/Or2l03e/1+BgvRjeLL5S7Zy+94weOXVdxD15eUS+91jjPW9vxLvCph49iaQhviVagz5gB4Y+zgzYva16u75z9zs9sl1ZPNq/C73K5yS9pu3CPLZILb2gOUk8gOF4PpkIOz5aZoi+8xw4vRZAtz1XIFG+KnkUvrbVp7zrL3W+LrCTvhwpxr0bTKI+d/gtvoS6S7zVNUe+ZdfHvUjO8r1MSFu9E/sCvjbTPz5+bYC+A20pPZDJ5L2taFe9NYmLvSb8FT7Eq4Y9KwkkPpt55Dwjf0W+PYiMPSFz2L2RRiY+p/IGu7xPfj7MfFa86HNYvYV6lb2/Q7U+ewqcvuRod77bmQ4+ZKa1vu80Jj6Jzzq+IYH6OoEQeb4LDCk+NBHOOmgCHD4cyWu9/qHHPTQLtL3JtCI8kNlQviMfgL14eT0+vQJHPvHfi71mvjc91w0dPpOqA77tcae+mcRavezJjT2qtuo9TUo7PmLUzz1ISqm+bm0OPhhHz717dkM8FleQPvivr72Lxie+drkvPR8C2b0YDR8+B3n5vQIkbTxDS2K9HRpLPwXXRL45XD6+DZXqvQH+VL67fZw93kv3PtiDbj5wbzK+z3TVPY2Ni74xuza+RQIQv9uak75HeDw+om4QPgU2wz1k8kC+5z5evsVkqr4fVsO9/hCHvtTunz4OB1C+H7b7vnBn3r0YOF8+89UHPlDu3z6xRCi9LVLWPjK/x7uigck+waQHPj69vD1BaZS+yedDvbm48D47Ar0+3eOzPoy3t77DKtI+J3dgvtJGP7/aj6I+XJBGvpgYkjrKqrW9IwSyvR3fGr5GLA2/XmltvcgO9z5UYsO8KZcQP2zGET7GShy+wPOhPD+Chz3NvCm6GYgjPTU4Qb27/j4+",
                "oQqpPmHCOz3RxPS8eEMyvdDCcz5szw++KUEJvn1rFjv/UCs+JDNevklrdD0mBx2//T/RvuloQb+0wZq+E4QFvx2zxD7eDpM+7wppPsP9bz5KWmO94zF+PeuzL76whO0+kyQ5vtNbNT4ENhi+eFZ1vqRp3L6Dqh6+VKcsvgLpFj+srzM+6mHovuAbkryaAmY+ycYRPcPjgD5KflS+CZnDvjENXb1dtX49mQysPNMDnb4RhdS8wb+CvuPZ7Twmy4W+wH2dPGdLZL/Y2gS+jNHQPt9akzzRGOc+KsN5voZefT3v2ZI+8cDFO3REnbzK1ko8eDsPvtjZj76bRjC+dn8nvaG8Nz45+Qk8qEKBvjY6AT8/MPm+2dwgve/uYj5HjnE9xBVePU5MWL7FxHE66lACvkrL9zvjchs+PoM7vvpuKz7AnZ++wKDGPMjdVT5KlZo+ZQK4vkOeObzP44y9wCNLPoF7r70MoqA9lWHaPi7VIb4hAlu9IgMyvn4OXD5ZKAw+rYzFPc6K6D2YyJO+iR8HPioLNr75eJc9/IWjPCCTlL3TeVM9DfMEPS8j8ryYK4O9T46XvsVHED+IYKM9gepiPXqRlD2Bjp4+zm+bvli0Dr4mW1a+ZShxvoUDWzw92Ki+lJWSPjQLGT6+6l69nU0aPlbVjj3+FY0+ej8MvekDMj4C7dU+oop8vnLyF75xPOy9vnGwPiJiFL4HWag9xlAlvxTRiL3Or4S+SGgGuyIrsjzHZJC+d46uPmAfVb70O0S+p4UrPW4MZD4B4wO9eConvhhnED85Ey++rSElPtipt73oF1e+8K+ePfmxwD2Cwu49WCsxPoMDLT2tQdW9r1snPqdtRj0Gv0W+OfYFvo7kmT08GEi+xeQ1PPhAMT1DNe88cQ8GPZ3DFz0mI9A83x/KvZ65PL4V5p2+ADE0vumSNz6HV9K+fffcvWsRgT7Otuc9e2WNvWun1z2kVIk+dMfLPYOJZD3V95w+7KJ/vJFjSj/gOFc+q5ICPBuMPr7iYgu/",
                "AR5ZPUPpO75pLsq9uqfgvPp4Rr4vu54+EJwsPkKng78/mrG9Rjb8u+/fOj43Owq8qRmLvZJ/5jy9+tQ9bxqnvX92jzzuie49+GA8Pn3Ayj30pqU9nWSvPnd+bL2xhKY+rf8nvrxxmj1VpOA9eUsDPQwkz72aGYE9hcHkvKpdjL3H/Bs+OIW1vlqDEj423lM9ZOD/vj8W77ys0BK+tUOaPb0w1z0xsVs89DhBvsD3Jb5zdFw+mm4hPoF/Cr7nxvi9E2QEvyzphj5BQRy/poxhPcyYzj0fqH49oJthPV2W3z2Z4uq+k/bVPej7EL+9Swa+iAEuPp2j7TxJD4u9QHYovSrhYT5e5HW98GuHPqRohT6oAJ494mNovaQknjzpUIo+UO1dPijnXb3tSSs9X6ccPlGWZ75Nv587XF4xPbzDH74jlM4+dAIUvv4yLj3wfYC+IPcQPnewLDrIIii+PdafvpSLnD1s25c9h78Avfd2rz1Hq9I+rAWCvnIhrD2aFz+8TYTSPd7gKT5soMk+USB0PfdOkL7E5SU9i+K8PuF9gD5SJAu/gQPbPXaG+LwBVvo8H4/WvLdZdz33k/89IS+Uvk0Bs7ySziK+VSWMvla2nL6P9V49+AeGvp4Yqr1vTAm+YQwlPsSIdz3oohu+cuaxPYhmBb6IMk88ShUDvwqe3DxYy7q9ufZUPfhBQT5HgUg9+MFTPW+pID5TdRY+us9fPRMowz0FIrU8fQYovcdqAr7FgK0+rRCrPe9EEb7p3yM+eRa2Pd+K276Bfjm+xsQ1PpsAgb6GsX68V21rPnlVEr4Nbik+O979vAedFT3q0X8+teJvvhLEnb6Ampm9DeU9vW6Qcj6YyJm8Sy3fvfPDnz5phhG9XqBhvu97PD5jmOQ9fpn5vUP39D2v0rm9go0RvoRp6r4R/gA+9+HIve/aOr0sJfo8s9v6vr26gD73MJk+JPq7vquZIruNRiK93cDFPgJNMb5thN08ZamTPq/0t76GDhm+tEewvYTlzL1/XZW+",
                "mjcePArryr5ujSg+yNIYvqc1r714LX+++LfrPIl9BD9jbk8+uOTsvNlKlz1v+Kc8qT2JvN1CtL09qYC+1qJfPqhGpj0BOy6/G01lPktXET4txCO98ZKaPRDVsT0k/7O+2R6QvdlUir3KBxw+o3NAvfUqEj79rqe9lmYCv7ukjDw9YOy9USGkvslLtL5f7zQ+QwULvfGdET5xwya+HvaxvsP5HD5cA/K9uTgdvy2k+L5n2gS/KUvQu3I9Jz7AKQk+1oaGvt3ryT7IP7s9/3XEvVNeHj5WnOQ9BvJ2vseKXb5HuHW+w7zaPftVHr74bYG+O1umPTmCVb6XQ3s+SLJwvQakOD4ynfa98pUvv8fhd740yJc+52zEvsiEIb14e8m9Ohg2vty2Ez6FphO/CfjKPpdX9r5fShg9mkmNPlhOID9AjAO9oAcUPn7HEr7YUnm+9nSfvrnVsT0mFsk9HnEqvrnR271jvdu9lfdIPcfSpj4UZE49WqDtvlmvjT0OwuO+7VesPFIORT6ayPC940j/Pfvfvr5HSNy9iUaOPm49H7123mG9OzPRvICorj5yLNy9P4dbvrQUHL8D8oW85aeoPHttaz4LwvA908ucPnPXOz6eZT++SJ2oPHKiMj63c+k+BlGfvnsvej4QGgs/8vmYPrFgyTuqXc68vvAOv3fglr41QL69yAw2PtYiFD7k+ag8hJ7PPPamn700R0M+SbmrPfKqLr4X3JQ+ElALPbm+kT6sPR++aWbIPkW7ub0HqEG+EVsAv9/Opr7RswM861fevrM9q7w19n69v0UGPrUdRL6dwcq+0pARPcS9IbwuvMM9HG57PtJ79b4Y0oE+M9JLPgDVnj2OM9y9Zu0KviEdyj2KKc69yrB5Pu5Hjr1vf4k9xc0FPtODtL1bjw++Axevvaf1vr03RWO+AV4APoth6b2Jb+s9ymSJvgDtOb6x/ri+9PmFPigx/77EWY49silPvlrpOL6zHsy+vpv7vrR25712bC89fBUavoWsIz78pEe+",
                "tKSyvDUBeb7UqY49y3KqPhF9kj6B1XK+70B3vDVVLL104Tu8ZMATPhUT0T2IK2K+7+1avc3lYD6sHvk9l8fUvspAgz7KsV891VuWPkqCpT6CYsW+jjRcvkk1QD5xUc29Enk6PqxcHr5uPkG9xM8DvSz4NL5s9RA+zRQTviFG57qtPbq9J0BTvg8HiL56zpi9LEk2vi7SrruYgM49SGIRPmt06j2oGnG9Cdt+Pp0ber0kUnY+0GG8PvShX73jE1I+OQogvoYhoT0QUS4+A1KLPj8Tzb3CCwA+3f36PZPaubxfmPS+sS1Bv8tX5LwXoq49oqQpPqzznj7ItGo+pYEcPe9f7r1GSQS+xgnivgLt+rn+ZWm+naG4vh5dab1kEV48sGABvuU+kj2jXaw+WBswv08TZT4Xqe0+FStvvlfKtrywdYk9XlQ4vn0C5bxvs8E8+BRFvqPmj7zzZM2+8yd7vgQvlTys3W0++96rvQMF4L1Xsja+EZyJvrFKsj3QDby8msKxu6OxW71aQCc+pjyJPnLY2b3Ym5G+EUVFvVn/s7tVC5g9/B4lvf6o6zztsic95E12vIJ0Kb60V4g+NLw7Pgc3mbwkQle+dd0+vnE+cr1eDta7z0S5vdTExDyk4pU9dnghPaCEWD7BCpu9P56svW4GoD7CbDQ9OVCBvnqpQj24jxq+C4O/vZzzlD3Ue4a+FykdPg/uyj6albM+jmsfvxvHHT4LozO+S1DQPjXW1b7r08k8AhOVPUnnAz6xSYY+8ziYvqOZyT3Fs/u94K0evz6uDr4sYb+96gQmvRfUdL2Z+g8/88SpvayorjxtXYi9juG2vi0Jjz5mvhe+APWqO3/oQj3JCgy9AxA7PuozYj4qvi6+mqFrPaiiQr6XNsu+HUsiPpSMej7Aeau95UJKPc0bUT5PB4i+OiEovtdNebtUoZS+RbfJvrk6HL6KBqG+KcKjPe3TJL2Ooqe9Qj1FPnAUIT1T0Lk+7ZJ7PkTMHT6+xrW+b/wDu/ss2r2rTXo9",
                "dtgQv0Ms0Dvv2tQ88lJIvuxHED+IsPY8z9WiPpDEWb7lT4I8ZhabPdUWJT7jLEe+YZqJv9R+cD4SmBy/QSWBvkgt2762ME4+J+O9vjWvDD4R1A0+1gT/O405jjss8+g9XIyjvYnCbb4ApLM9hvkXPEmdrrtBDqK/1/FdPkoTw756Ggk+KLmtvPw6C73/huE+ZduxPeyx4TxIS0e+kpsgPjWcEDudd7S9wFMTv1UqTz5B28q9jYyyvXwKdr5+hSA+ia8VvmZc+77my6a9EmAVvhH2WL2VIKm9iIEaPvLuQb5GucC7Q8WjPt+v9r3n5os+mzgEvuJMab39tle9/FjnPqxoOz5SI56+uX42PZDIEjs7kRE+mUYAvrT4673vqqW+NFXPvkKoqDuVDzs90qArvo+hdr6TQqa+YtJMPqwoRD04LRI+bV/Mvl32w757jke9yPKoPb2xI76wid0+pVSTvYbQe798Irq+wLC4PGrKLD6w/nU+/R2GvoQhcz122Ys+U87EPVmiKL/sHZo9aSStvlqCNz5bQ8Q97SfTPWCMtr7KZty7fOqTPj+1/TxVjZy9QjODvXgurTvJpb68OJiKPbbuNL00FRq+xoxZvfQD6T6fr8W8lymqvnq8Kb7HWI49XEtZv5XFv76QGmA+qt0CPvoq8r0XdmI+/U15vA4oMr6CpWi+C53KvmtJaL4OvSw+pxgyPjbqYD122pg8AUGQPpCjpr4hTUa9Ym7tvVH7M77hG/q+u+KaPhiulDwEt1a7Rm0iPY/llz7DOJS9DIu7PnuOlz3iikW+HDZ3vhMLkL4wABs+ocHqPXaGzT14o9Q+1rV3PtabzjyTe+48FlAAvS8Zyb36xLm9Du6LPUZKp7425BI/f/1rPqKq+b6kF5O85niPPqdli74L0Dk+IvMrvUfxoL0vUgQ+rqwMPVmHN74DD709HKFQvbFUzj3clbq7Wl9XPSAayrw/bsE+KrgYvfp0m71rNQw9YNH8PoVuhL42Vpk9PiAgPsVVnb2GA1++",
                "YNZiPjNVur3pPA+/loVzvdCJEL91lQ4+bJZTv377jr1iMYi9ccYbviNZXbxy+fi9REFkvQ8GHj4Asa69EtB8vUCIaz6etLG+ZXsLPxrjhb5WIgY90CzcvcJHy76fNqY9viSnvsvpuDmDWTk9MGppPdvm4L7a1BK+gWuvvk1gf73teWm+fIf7PpWom74kBFM+a89Hvj3uyD7XksS+sCQCvUhFLL61OCg+xXPevV7wUT58xRK/neD5PtQ2Gz4HC1C9JISMvRkjAL844hw+qt41PkSygr5PycE9TkrXvD1pNz5w4hu+Nar1PaGWE70OCwg+TpQavQUuOb7fgaW+0OFcvkw6qr2nAH4+Bhb/vWOv1L53qO+9kb+rvo/PIb9A7xA8Cl82vpgMBj6Qrp2+uDiCPld657wvEYQ+ye+bvu5qbb0LOxo/KM/TviGo8T3eLbu96fa9PlFeyj1UmYc++OLXPXPmwr553Fi8ghnLPKII8z4ONcO+WcKGPOcam72qZIQ+1gCNvsg5Tr3JSpe+wTzCvlrS/L6Cv4K+LbTKPXJvnL25ZWs+k6FZPQ2OSj3ZUOw9ZDyNPk/ZBj9e86q9NlqRPophyT6GdsK+EkcNv5dIqT1EPEK++JeEPeLHv7sS8Wu/cu+Wvv1rJj6d0aq8YCUCPuO0e72t9N89CvAFPmM+jD4eAJY+JN4aPlFDbz76FwY8h/qYPv5Pkr0EoNk98UQqPjvn+7xKMs09N46MO9LGwL636ta7zHAevv5gsz7WTW4+lSvJPkhLdr5jTVW9GizEPXP3kb4lQ+o956FPPV+wuj77zPS9Z3RZPneiTLj5go++c3lWv3R7Xz63n+U9wmYtPgI0Wr4d0ME8vEA1vuuqlT475iQ9vTPdPt7ogTwH7ey9/ekPvmSyLj6RTTG9PjSlvvovRT5fbAg8U2zhPQVUB77D4gq9pKtoPliIkTyNb3i9zvaivXU8Nz2ijrM9xrWVvdgWir7VMOM8jT6OPsJDkb0QtBE+a8V1PpFS6j7qwTa+",
                "cNwmPhCtmjt430S+cqqXvdHamb7EsTe+y0kMvgDhH7x9I7q9bwS+PFTHBrzmeAE3jZdsPpojGb53T4E8G4s+vVChtD6m1eY9ZgUzvsQHT711vDG+MDZvvfztwz5GI+W+NulePv8QLD5rjmw8qHL+Pr5AHT68S4A+7P6BvpjreT35esA9NzOvvpViWL62yto6lATYPgYWmb2/D9K+6NKEPVKTjr7FZDo9ftwVPKOoEb4hLr2+s5pPPYjdmb1W2446uqLbvbayljxOa5M+20gwveQfijytKKK9wtpuPklxNL2BuPQ8fuD1PYUAXL5fDLc8sx2avrw1Lb4P4AA+PxCWvW29Sz0ln3C+zqIoPtrqvT2+MWS+H+lZPvWuRb7H54Y9SEkkPu8z4z66zA++RkK3Pa6pur6KL0W+qYNvvn4Sdz1NLr8+44OZPv+ghr4IBMq+UYMevD7oIr4d1k4+OmKuvUI0Hj6EgoW+nupMPRgl/r3wHHw+R3Npvd9Io77Em72+GnjGPumQB77YTbC9F+O1vu1MDD62FgS9ocHMvrtUxr0lu0/AA8afPij8tD7ts7W+TeG2vJYtVb61VaA98S4wvNszxL3AryG/mIJXvroS473fjxM+JNdWPhgYlT6PRWu++N7cPGDGTr3wW5m+up/xv4jkJD5N3xG+7rP+PRXGoD3QQGe+qdLcvkP8Dz06vni+DeqMPkmqw7wVMag+g3H4vtZrxr6y3K4+iEQivp9cab7at2q+Xa+CPmsvE70TJWI/aGh/vv4EED9UVZu+0Cj1vY23cT4nbDy+1+pJvvzCkD7N9cS+iLWlvT8whbzU8pO925I1vQ1HFzznmq88IjOevGhY3D46P8Y90ZgtPp1s8j3alZY+0VUBvu1IkL47iAe+HL0vvlZqLj4erMo9uOYHv6p0SD2Xrau9ZgGKvkOuHr6KXgU+SxCAPRS7/T2wLHW9w4McPn8iD71Yphk+xpx8vh9NWj3uPqc9MdX7PYKF9z1qQl6+Lj4tP+1EKr6BB60+",
                "RaBcPgPTrj06Hvy+hO1ePsajA70N70I+doNQvlgQHr7L0QM+J4oFPnzovr0O/yY9O3u6vu3zM707sQA942tnvcamYL5FwwQ+fsDMvuqE+TwPf1y+4g86vltA8r3VGqi9I1lAPrDNQD2oAEu8mxMJPt+b+b7XIJK9gtCjvny2Eb7SyGI9aDJfPnCRwL2hGKi9aNGfvud2iTsYP+w9dq5zPrESrrwnD089vguMvll1W761bri9AstlvYvGpD5WZFO++seBvR/ySz7e8vs99ER7PnUqoT7MlQe+wi3ePVDE672ah+I8dlRUvS3opDuxrjs9gy6nvL0n5b3WGI0+07zAvc0vXD7dXGC+5jsAPvW4aD7qI5m88TZWPHRP/z3tcpE8g14GPvZy37zhNrK92ib4vftQDj9Dz7a9SmZyvX+NlLscDEa9ip0TPQV0Dj6UL4k+8OwGPV5Wrz5aUbS+11ANvaZqA77A62w9GHLLPX6yEr6G48S9TcHKPja35z0KMIa+OoiFvZ0V6D2aDR+9o9osOBazrL69xxe9fDW/PptQHjwpqVC+8Jo0vMQGMTwzpoW+MRMgPp2P/L192Xi9e2qGPe3oRT3Xvui8F99XvMhchr329go+mskqPTvNiL4WBCs+Jj4GPg0m1L2N3A+9lrOTPXm68T0EYkO9HGgjPhX/ML5DM4C/Y9NSvtDa970+Y4Q+vwikPUwj6L0h8OS9TAtXOw0ppL3aqNa977FDvdWzub1tYgQ91Nj9uyi46r24IwW+61spPorYHT6QiuM98tcMvt6dzLvh0jY8igfrvQIxXT5bBSe8aDsBP5O0Tj74YbQ94ZZivgIQwTxH7uc8lVMmvjUBST4s2YI+Dx0mPX7z5T2pSr09Dq2yvzC4lb1myGi+OmqGvmUlHT45ET28vaNNPlVYLDzIq2O+IDOpvlLbCT306Cy9RFErvgBfgb4siTa9H5ygPSadLDyHWCK8OHRjvkNji75WgJC+PlZHvce80z5+/P88R781Pp+uGT2sy46+",
                "9piCPKAODLv+iXi+LPayvmIVRT3YT8K9fKQCvsESJDsS+/E9DhVtvaQ+tD47Fje+MNmdvniqeD4sfhK99dBUvlPQr74014m8fPM+PhlqZLy+5T8+7Zq+vHcJIz6S0pK+8SqcPtQX9T2wF4W984r2vaq23byYoo+9Q/aHvwCADD7zPNY+F6cfPqI7770qmg6+DH1EPog8Ej9DK8E+RDyVviI7rrz30So+XzuCvKNd2r6iK/w+Bb2RPnAmKz46EdW+4BdLPd9/nL2OjTA8ieoRvlGo3z6AsAm/qf9cPkmbtb74DBY9Hlf5Pp4iPL1Mf2G+ofnWPk2xsrvbVRk+drDJvHtcNr+jZaU8UckGvZKYv77CZhu/6B8AvvcjaL6291e96VgXP01qvD3ej4S8gitcvY4Cr71J4KI+wO+gPkbRvL3a7rS9tSMNPl5l+L51daK+vmNVPQDcEz7QKVs+dG0sPdgX9D04ObY9yD60vm3Wjj3KX7e9W1wbv1S6yr5QOYi9UKz6PrY0Sb00gcq9VHh7PvhIGb9BBwK+9fk/Phe1zL0yBew9YwToPXQS9T5ZLpc+IvAhvmKOLT6mcUq+rv7QPgUJCz4I+sA6wIMvv4qlMr6GnCw+to2RPoSiijxAxBG+dck5vmWMM74fBT++Nzvyvjqp3rygKFS+QnOePru3gD6tA8I8KGRFvvOFdTx0wQs/5TMTP53wlb5nITy9yj97u+lKj74XKLq9aFGhvpr/7D0pZ5S8qSeaPqbj9L19Pna+wK2Jv/loETyHPTQ9xPD/vvIWhT5RWr09InQsvX66v7+2W+m+cAcgP++7uT7ajvE9a0ACPyYEkb4UHdW9GF8Bv3kvUz76bK69Ft1GO3uffj46MWC+playPiJbcr0rVFg/ohy3Phbcm75i1+48xX8UPsYlXD7XXVA+O9xavmqZQjv+DYI+b7u7PXPblr1xzt67GM3EPUuhkr6tdDu+irs/v5G3D78sUb+99GtOPP4hhry6UKI+Lv78vXV/rL5Fy1O+",
                "UhaXv99L+r71Ib+9kEObuzVMNL4L8hi+TpAFvBQ8H74/UKq+SOnLvqsZz75a8gw/ezYFv2KLfz6qpeC+Be/Dvtzbdj429V28jSe5vqmXTjz6yQ2/ZQSpvtFeD78Xole+z17vvoyff74+9ks+uOCNPkBjPD4Z2uS9iYBJPtGaZD4D4q29q18WvgWD0b9OSI69u9S1vmEm3L9gn5e+JtkOPklmJz5dQsG9EcYfP9+Tlr3XsLY9kn9HPnECFj3zQou8rRjPu0sZp71zXP+9OHyxvUGGeT6naLK9sUhavnNzQz63Zgy+ojTLPfL/Cr4X/bY9FRfFPbdsiztrQtE9gUYAvdrhBr2/LWw+xOMevtYt+DwpZk491/MTPncwNz3utSS9PO7Zu1NWmTxEFbw9qpYEPovGH76Ekya+0HdVPO6EJj76E2+9As3JPEnwar6niie9bWBFve9EAr4A/2y9WqUBPg7t6T0AOfg9+8XfvXqr6r2X0gi/cLdCvhgrmb0esoe9N3UWPmlgiDywHDG+hu4Ivtie/TxozL69JQRSv+tCqT7xBw4+M91TPBViTb7Fonk+ujcmvrvaeD5ZEQY+N6kqvsAErzzlBMw8pDq5vI9r6z06E829zT6PPliZgj4eON08bkPdvPg3FT6oXb0+f4EUPlaFCD6FT9K9kFowu1ezAD6L6gQ++v3HvV8loD1QYDA8/uY/vEpTkz7KKy2+m/EhuhWRmDxHeCm+7SyHPXEuDz6E1I49iokBPtu1BD6ZPFa9VwQrvpus6btKAlU9DHLDPYNoSL2amqC+e5YRvmt7Oj0if6o+HI8PvsFZST1BHBW+jPmPvFl8Gr5V5H68rQMcvhgMjD40wjA+KCKXvldzRD4v3pU9z1vBPYNDhT2eNyS80BBEPBM0Zz6dQAy+gKJmPoRsnD7GnZi88mNOv5/hwL0JVra8QaXiPY5BnL0ygd48e/adPRT3Fz1GgpE9OPjROrJ6aby4U7U8qKBavcbKOj0xVBu++UREPgpNKL755e49",
                "x0NZvnfKC74Kxie+cbjHvbDw3j3hjLi8/rfquzdDID05nFi+gYqqvI6cZ72I6Ny8yVCLvU14BzkdPcs+4KKfPeQlbz29HTY78/8fvKPITz1kXfS9pg/gvbdlgT3p9SE/DA+cvceuVT7uMpO5wGoHPS24ID2d9XO+OzrZvHUYPz2E2HO+SALUvQaXgj3LeKA+SB6/vBpGDj21BBW9fW/Mvuv3Ez3jPDw/mdwgvn5OPD3Y5p29ma3Xvd/sjL1jUg4+2hPtvTsUSz6yIJK9+V7mO/TQf76GrEE7nPdCPfPXiz6vviC+HTWEvFhRDb4oxQY9LaMmvvQ7Gr48pXy+pWV/PQrWDj0KvzG8Ro9BPesDlLx7au09XjK1Pdtbr72dFls9SBGOvUmYgr3VrhK+p76yPJ2VyT6OVQu/r3GGvQRSsT7vDwW8rUiTvRzlP7w95no8zeNXPigfjTxbIGo8ncPMPawynT3iXWq9prCnPXVci719z7g+0s2UvD7mdT00Rie9X0kKvjqViT0jhx+9ZSTOPNyuer4GBUi+IPkHvhVLAb5bcfE82bPlPZkeVD3EuJi78bn4PeCVlD32yzk98xDKPWZWObxz17y/TocDvOgpMT2MHLG9KD44PppuXr5Ea2E9EuGaPn7UMz7GEMG+AEYZvqqIfLwjQTS+tstsPkRGq77R6bq+4sIlP+xpc76PT6g+bf6APQwZsbtPtgk90FpSvWd0mj3d1I0+ggHQvcsDiz0f80W8tC57PnV+OD90OUu78OpYvjcQvL5j/n09YzWhvj9gIz3N8D29ilHLPf57BL2zU5K91f+6PRVlB748NFG9R5Onvgm0CT4L5JC+tKStvMz3RT67j4K+AbY7P47PRD5R88S9r3u7PoL63b4ptni+Ltsuvhl/Pj3L6Pu8dHeZPmyZID0Hz6k9gICEvsrTNj2Yc4s+mEzkvFXdEb9mswM/vfh1v2iUEb6Zx0G+E1lyPvmBnr6VCG2+0RQNvu+YIb6PYI49CKINvnM5VT7w3+G9",
                "PfWoPih9cj6s6JI9N/iAvgv1d71WId0+X3OSvSW/Db6Ttck+dxJSvZ89I73/woO+JtIgvP1ujrzD2yg/7ycTv8jX3DwxHIW9wJOWv73etT3yofY9+48DvWsbgj0Urpu9YGBvPT+xxr5+Fu8+i+t9vnU/Br7xJhQ/Pvd4vjZIi7zM5je+Gqh3PJ6I6L1u9HI6XRjcu1zEnL0nYAu+3eORPg1KhL5E644+SoKVvYwbo76PRw0+OYxRvV1ZUL7mR8+8tRbBPH4giDzLMz09W8juPPiw1T0hoSs+448dv9n0Eb7c4t++psRevVijTz4VoP09kxrsva8Z1L6xLu2+6XpVvr/NFb8taUc+hv4sPkQTFT5gZmq+pPgMPpXExL7d9vg99lhUPlt4gb5S3gi+vXNHPsFU6D17RlS+rl1vPuUWjz3Hv3C/gGHmvhLRDz9AQa69VawfPvcsf70h1mA+dVkDPhLMjz2ILRu/KqKsvWMz1z1I4ha/tHUQvrQtQL6PpyO+64AYP/2BGD1Lk0K8IMKRvVz1/b4xxiy+FZcWPjrls75UCFc9N40lPaxJrT1zj5G+LdQbPPgNF74uY/w8GI+nvlp4rLzggXy9ctKXuPc39z6Hw9A+GhyEPtfDWD41SEy9EiO3vozDkjv/hKk+GYQNPf6PX7+BANG9zqL1PdE+uzvT/e49I3KpvTnwNr5h4Ly+KCwNvmyk8b2dDti9LfhRvoHJfDwh2Dq+Lh5evj+q+zwIPK0+tijSvgTmZb4zi2m+Q9ggPrjWvb269j89lkVSPmjJoD0Ktre8CZCXPd6xqz3vSyw9G2f2vahXRT4SA/G+QigCPzpRhD5kcIG9AMjAu478zb41DIg+Svb4PbX5cD2rcY094HDMvR2X8jv3RMU+/4WJviOIu7w2+V097l7vPpPf+bxUCrq+IuCjvU/qi75HWC29P5g6vVzvHj7JeXI93Os3vnDF5L2jwa6+bM28Pl1Aer03ksM9Uq2QPpgYGL5TR2492x1+PYbw5j2s7nc9",
                "kkdmPe0+GD4MJxC+3VyePclmhr7WEgq+jHmAvoZjU72JIJY+zRXMPfdUer2+UKg9cAICPP+tWL14Mfu9SETRPbcXJr0qs648Foa1vugGlT76fuK9GsRRPmc6Tr0Z+r+++/blPR1cJj164cq9yiQhvDMQtD44xEI9MPGSvsQDfL6Pa/o9WyK+vsQWi74TCgY+3vhxvjZmur20x7E9bXypPcbDGz7lK8S9r7YePhp/yL3EyWQ96eeDPrvSa72Qn+69nPuhPfXWrD4iZ5w9yN4quwdT/jxaXxk+oWs7vYy/17119R078HhHPZNBmD59e3C+LVxsvoOM2DxM/pe+lqhyve2FCD1GUyg9vXKbvbWfub4I3to9d5l2voEiJz/QFtW+kDozP9Iy2DtM6Da+/mHFvB8C27whbFA+GR6ePrHJ/bupLBU+W7HePp111z7seSK+IKeGvphx+r56rHi+aCwWPiFkAT7ro0c+UGC0Pf3WmzqnNVe+DsgavmwJmb04TSK+HSOUvZzSFL0W5wQ88lC5vv8sCr4EQXY+Net5PrQsB71eys48RoMDPtrkpL68oS2+UJ/bOz2MDj6VPvi+KmOSvaFYID46MDC8eVVavkabYT5j5Di8+ZDtvfVPCz71rZi9cfxvPVvAUj6DMy2+wP09vvJJrT3aw5g9OovUvl6kQr4f/rS+er2QvSHiYbxpGDM9p7TUPXxCRbuD1CO/EFxXvubcz754Uwi+UcOdvbqOtT2epim+nYrsvQHgNT4fi1q+TmzNvbR4KL4xuRw99SOZvqwRkr6iVyK+c5r0PiLUaL5Sx1i92ZqAvkSKkT62zJc9Y7nBPZ+Vpj0yGRQ9FdsdvtJujb22CNY9n87jvlFLyj58fZO+V/mevj7wGrzrTTU+7mMYvimgtj3CBWi+Shw6vVZNZr6COJw+Uvz4O8A5Dr794hY+iIMbvoW3u7290CG+XjugO0avVj7MxKo+oUwKv5FWb759B+O7RiiDPnAPKL9vxse95ZyYvV57BL4PrOu8",
                "EHmSPjco5T4j74I+1knTPYa1MT3kcoo+QChvPuyTpj1dcKq9pa2ZPvGuq70QOyo9PRlUPlApmjsbMCe+ZAvCPfDqjL30l608py8PvtDN5r5jcRA+DTaOPs4BGL3BzKm9qretPdDcs74zXaY9L3c4vTKFxb38kBe/jkUCvmxeJT7mwvG+9MVPPW4mPr59hpq8fpEyPobNpz5VgcE9tTDovnwzpT6KwQK9/v5CPu6OSL8pGjk9tJ5/PnFS871Sm6k+FVppvrr1bDzV9lA+h7spPci1F78y7tQ+njCIPeqyJT6PEdi9XosjPkBhCz/efVy9fmQcPhVzl756O7S+c+YSPtncsbzk8Ku8NLUfPg7L/T0UmYi98Z8uPtLO6L4VcbE9b9m8vh0NuLsRpSG+cr2PvZNtDL09jlm+j/H5PYdEtD4c/6O+PXwsPt32Rz0dHkQ+nSifvt15qz0bI8G9SawaPxF0mr7wXlw/Z4isvRHbBb5Rpx293pw0vghqsb3nAgY+BV1uPB0B8T1DgFy9lVHpvIJeh77bopO8fyVMvaYTKb23LZ29TtyivnLTbb62aMI+s+gFO8TgkL5zzQw+D82APlVfxT4epHI9qavQvjUvITz/sxK+LIyFPuytd75GbbS+NAx6Phv4YbuIZLU+CLXQvKwCRT7ZS42++KCmvvDeiDziB6g+fXn7vk/cb73JH5S9Q2IiPcofPD6uVug8I/nZvZAKuL5Pobq9rDDPvq76lr4QynQ9RyZYvl1Htb2I83s+05u3Pr4H4L2Lmc65tyXxvhJYqr21mfe+/Sw4PYCfyDxS5cg9i85WPbZoXTwEAxm+sKWuPsDhA7/sdBA+4PNpvujwjTz3BM88o/CSPIrwfL31Xzi7EGZZvs26k76PjKM969vSPuIKjj7mmGq+rYq2vd0eG75J7kO+nIhWvikE2jtLsQy+Ek/IPYYGEL6iDiQ9B5QEvoYBHj2qXCC+CdisPrf5G73hlaC+X9Yjvfvc7D0lZbI+0PQ/PFSzbj4d1qu8",
                "xjsLvjycur26ATm+Hk58PSiqJb6QPIk+rmSKPtecyL2GmmU+IPppvAH4AD9n75M+4TBjviMLmr5wxLa+njRXPOPQgz7bYlg+CaFgPtdiNr+qqRa9ugiEvjcCyL3Ser+9/Di6uYPTOb6iDRM+wZGqvgLQhz6vYFI99oedvtMioL12uDS92r+VPaJ/jLu+N68+HcROPQGQWT7G9UY+VEtdvL/DAT5PkJ8+cexqvoYR2rxVpIA95FmWvTe02b1v7JK9hyaCvlwhJj57pl89M+5FPoD+v71vMNG+zzdvPjkHqL5ygEQ9pv7LPW6Ikb1T68A8evwMvm9ijT3IYQw+ngG+PnjwAz4z9a2+EbgnvZVnmj0L6AA+1dWzPheQZT67DIa+qJ09varNVz1zGJY9RaA1PtorYT7CbDu+VHBuvPq9/ryLutM9nFnSPU2r1j3iTx8+0vhEPguKJD3NKGE+eNAivCPEGT88pYO+kcslvi0rOLog7YS+bkG0vjm/ET2yWy6+rZrFvMRkDT6ZSYW+nskxvmFvCb17FwI+IgfPvivzCL78EyO+HM6QPohgKr1z3tE9zvRyvupbLL2QQai9aevgPSVxx73ke0s8nxc7PrtGujwkUhA+iB2SvReAT75XrFY+P/Jpvr2Umr6pqS0+EL7KPZXBLTyW6AA++wyfPgHjmD5Qsgy/wxVUvfuaBD3lht++lwUNPgfKYD61d+w9gA5HvT4rNz5yS6i9sCtlvl/9jL7o61I8OJyjvel1Gz6XjeM9Tu8ePOBaAj2DpOe9WL9JvQl1CL9YTpk9TXpLvmu8nL5HMK89xLS5PKVZs71PXIe99DycvcDhlz6Q1FM92BsJvoYGw7yDwzS9qbqavZwOS75Gtga+RpRAvjTZpD00xSY9AZz6u43NNL5mFxI9YvQ4PVBP4zs1DT49/fQjv9iwkT4bcUy+BM9KvXjF2TxsPBU+BcQEvmJt6zwJHeU80tlavcdgx75btRW9Zgn8vmgGJT5BAkk+LwuGPgW4sL50Skg9",
                "2jUZvD7ROT5vzqI+pXwFvPGX4T6FNgg+2wkmv49/GjyrLtI9eZKaPjmXQT3lcUA+6m2tPtE9tb6a3ig+S9CHva2tCb5pwcE9ukKgPjPVTr6H2pk+wk4VPkF5BTsCBxI+mfmFPoE5FD6Lb0w+hAksPJ94rb3TGNW+INIHPqZ9Dz7uGyA+7dpKvrDfR74Qq8Q+USrYvsC1qDxHKOg9M80iPUb+Qr1NOKW+AiPfvIELiD7O6Ae8ho8+vosJAj0z1IS98qfKvfY8er6QdMQ7bLTWvTE0QLy73Ek+/WSWPWiSD76RpaM9iDqkPtPUyT4NVqg8IkqEPvczdD0Ss2W+Gk4XPY8pOz1QBrM93oI/PoSqgzxJSi8+aUEuvveyQ7/z1mm9X54KPxmtAj6YElq7HWTrvdqCs71SNli+qpE1v1gXiD0oibE+zaIavoqlUj6EGB29XXnivhuRBb6OzwY9iJ2Nv+bBbT0w4gw+zwetPSTLH7zxHga98ASmvLvk5L7MOhu8N/PIPoEutj3mCQq+U22pvlxxmT1+j9691C3xPYyGDz5UbQw+CYdbPKOTpT3sGwg9nKqJvs0OiLzQPw48BSUfvUi9iz6Hiku+ANMbPk3kCT5k6ee9/WEdvN+an77VDMk9cDOJv0yo/byPzSE/Bg89PCkBWr5PPQY+GhrBvg3Rej4Wcoy+8XStv0X+Tb5H4Yq+xPu1PcCun74zGp09s4WxvQmiWr7kMvC+OOdhvppV472t8Yw79YpBvujcBD4saKy+ucidvdie3D3pPBk+2YX4PT3/ZT2J1MI9irYBPbpFLL7PNbw92bCivMfDZr8yhfU9rz8dPoII1rxSezO+QbCZvi7Vtr3QR84+GgipPSuKbL5lOtg+vKlePtnfMb6mjeM+qvaMPYrQr70mHBQ9ZrkGvh7H8D60PNA95/pWvsrxRD7Osx08UkGCPqokEb8UP7K9NlXcveMMz74gB0G/WtLrPJuIEr44Iye+otqQvSlsEL5QRGu+Hj96PtUOhz1qtGQ9",
                "UYl3voumKD6YbX6+oaWaPPTDCT6K6oA+p/m0PJrIS71vQvc9C61Bv0XjPz4WQGk90Mc4v4Aglj2Lz7C94n4jvjITybpav9i90fWSvpNaJL4MToO+0zdPu9ozPT1EZbU+beY7PtVUHL6aX50+oMTLvjxxjT0GJCE+3/63vUZ1PT21+Gg+5hFGO5/iJT5qfZy+nNoWPSnWML9f4CY+ha2RPSmYUb4Foso8pXerPd5+KDymTV4+JoISPjXjgj4EkSi+rDPCvYBAW76iR3A+qyOhPkZA0j0SAjC+UbvvOwjYl7ydWO+9smdfv/Fg0T5QdZ89WDSJPmE4yD2OEQ4/T5TXvKCCwL3aPwA+gm4VPjdK7jzpq36/NCfsPYUxMb9QkJo9f28KviIhlz5m/sc8tDuwvjRGvj0etAo+L+uDO9o1Lb6hB9q9+RZavFJ3kL6XkG09GS7yPmnqBT7ispA+gcjrPTczKj2jG/K9smdPPklWDT43qU096de+vrRnHT4iBj893bMYPoorcr0ZS5e+d0tSvRCCHLwIQQE+FWREvyIbk72ZWjU+oRwHPqcFtT3IiYy91gvBviKoSDuTQPy8PzWYu1OLgr4YxeO8jboZPi/ocr6hyOc8UD0nv1+z9L3UDYe+atAOPrvN1L0/FiS+txLSPd1KpT1Dzuo9MHy/vISMKD7saJU+8ZrXvqA7Aj5QL+i+oBBTPrba2Dxb3Se+7W5Gvlj+Ir1H/8s90o6BPkJqwb7noqm849bGPcjMsL7kOS68OQTDPhUGJD93lyM+lyU2PiCpBL2BtnM+maxrPheSsz2yCzM+vaiVPLaNtT2wIQY93uzMPold0L3mggq+qdzqPS/U2L1o8bS8mhOQPuXsGDvlVJq9Ooi6vaHB+D4Vf6M9fIkxPs0LP71O4jY+6auRPN8YtL6gXBc8jv4oPVnSLb7rOnY8y8L8Pf7XRz60VMO9YmpKPncAeTwL2ou81uISPZRBWz4C1ui98X7hPVRGuj2tqCW+/jzYPfjxCj6s1ou+",
                "JQ+9PtiKXb1klNU9X/mRPaHUMD2YRIm9UZfzPHnO8D4gV3K++chaPkumIL4Jlii+dofOPkoKPL4hI9E9X1DKu10i+z1BnXK68MJqvdMjsbwhQd29oJtPvokwyb1XBxg+UvX1vSGCMT2h+eo92WG+PVC+sj5XT4u+JERZvFzXFz5HgD++WbKbvU2wAT5lTfq7y+vPvSozqzw4L5q9V92tvmkMEL71ww0+NvWqPqWjej13WFY+k3SnvfdKnj10VYy+YlGbvQUGxjxMAxC9w0zcPF8Wyz7DABY+liKLPK4L8z2G3iI+iy9fvr3CsD2XdJ294+Xqux4NoL0jjPu76NmDvSfikL6UCMK+kudXvna1wj7IUkc+S34bPabe/z11KDW+Tuj9u7CFYjsRcTG97+0mPHmc4Lpu82c9DOWPPv/Sh7/sbTY+CUXpPuXboj6B05K8VwksvSD4Bj6SQKO+VBiOvrHDib66t6o+ZLtRvnBS77yJpt++C0GgvfJgrj7aktK8+SQpPhw4lD4AG7y+INykPbhPAb5bq6S+l2GNvpnswj3sIL+9T3mNvr3qdz5C+8u+b6QUPpe24z37QuK+9QEXPmKtw76tfBI/h28tPqtboDwk60I+qHF7PqA1ir71VTG+HClRvoILhb4nQzM+r7mnvvWx8D22xQU/LSB6vtvoEr8p7lG+icxUvj+iFD6250q/4O5GPqXbC70vlYw9EJqNvqUTvj6TOHQ+Krjpuv/uOLpzKKc9f8Gqvu47qr3DMJg+jZ4hPjqpDL/+N8C9U6hevhRjP7w3F7s8gW9nvvxQnr6Fiao8nw9qPmdFhj6mNa+9d0VJPfpoqj6l30Q+MkCcvjEJoL2gWqO+WOtxPDhNrj7tK5u8EoxPPiD46bjIG9A9JawWPYCsHz5GCiE9c+WUPT+i/b0GkNU+i9m6PThHh77yNAK+RwR7vrQEzb0v1r69nvAhPQZ/n7yPFN68qdU7PiLqML7CBGq+cudSvrDN/z3+cpE+RB5pPU3dmb6jEES9",
                "ruP7PYunwr79vJc+3nqCPiXheL6393A+7/IVPXZRw72gEJk9wkdvPS2r5D0g1fq+GorHPeNpJj36F6y+LbSUPUjQ1D0h4em9zcZVvsrdbDvGkU2+PCblPb7GzL3IjXy8chEhvptjkL0Y6du+kT1CvRsKAD7xW8y9VUiRPRDOnj0740Y/cSrxPZ57aL6MfAg9bhDhPkHesr3teoQ9bczjvfzhNLzRIAE+uAz3vNwEmT0Syoc9cMSDPTdF0D21xCI+aXXAPd5Jrz7/a9+8I5UgPpw+Fr59gEM+60UYvfEKib3i0Ta+O4kRPrJpNT63Ora+YEkyvi7mO75CBtK9P6SbPXHwr73o8Du9NCUmPrg5bb7m+IU+fJHpPDmzSL5x8C465M9FPqRQFj1DJYo+L75cPpRk676IKFI+MGLLvQaFLj4UFtc7aIJwvLET+T7SVLs9blyWu8hwPb70/jS+tzakPj35BD/l7wc+4ZYZvu1LZr6QwZi9qW/UPNuFeL3XGLK9Y234vFBlAT/AOUe+A8NzvnftvT2fuIa9ljaEvpsA+T2anqc9t2ONvhlweL1/xRa9XHsGvlZZfD5VVLw960BZPIZ7Wb6Sy5G9fK1YPuA5qT0oeC4+nDM1vhTArzs7E/w8T0xOvkcWQL1I5sy9C+g8PgtvlLtQVoG+nE1BPlpynr7X5yC9brmsu/+qE7vKeyU5IQzdvUAMdr4gdSs+TTkvvofnFz605gY+56Z0PU4q0rxinxI+sELgPTRGnj2BbWM973fdPbCIDD1Kr/c8ecNAPm5ZOL7rJ4m/grhrvAMgez4Fs/A92l46vjTmPL70mZu97KcNvbGm2LxK6wy9ke0rPi51F71XYlS9j3yMPvsYgb7VZey9oq6EPYPILrzDEAC/HsoNvG5c/Lxp6SU9BkpBPe9YST0gGMY9sP86PVjy4rwiWEo8k/x4PAzqzj32CXq+zyaMvWwl5j0ckTw+eCfQPU/w1T3hNAM+CsQNvvGwxr0gZPi9LMeAvhH/d74mTRQ9",
                "/Z+fvrpewzz15Dc+MhUEvtvser07sAy9dLe8vvgOi74WGxy+wEa8vbYuAr4DJJE9DMRQPUSqh70JQmW+HsWVuwB+hr5Ckhw8bf2nvkjbV74o1d49d9cFv7U/YbwHQ3q+74PDvr2t1L7Qm2C9QgoGvshsKr9EKTy927nCPqHXa776JOC8aCOTPEKuQL5bh8g9xvGPPjqJ4L7ubmo+eY1CPSc6BL5uhgO9krghPmKPtb15MaO9IX5ZPQr+5roYkFq+KK59PufxwjyfCAu+/Ee1vv/YIL44F7K8pGuJvZcnIr3BwF6+A1DdPIQstz29c4++DefrvW4S6j6C/FS+/TptPoD7x70ajsm+insCPgNPK72Yru09SamBPULo+LqChgk8yaVzPakuB77RSyY+1xMiPqQUc77Bos89o6rEPWWfYr7eUPg8xQsePabYkr0LW/O8NDooPvfqhTwf2Mw9QgWZvuNGjj9S4cS9ulurPhSDir06NuA+6xebvc6C470Z2j49gWl+PgEr2L2pmSG+XG2jPrCZn706T6c8lnBcP5rPZj5+G/m+ORqKvTjSsr6KBaq9USAPPkHLiD2j40g+k31xPADSzT3W2ZE9Apy4vkG6oLzFdmW/0nWAvmnzwb6kwJA9T2Sjvf8mi7031Mm9kuXau3CYUD3K+I0+1VXZvmgVor1I7UG/joONPYAlKT/Cy2e93aIXPelp5T4EZN891rd3Pbv58r7u3ZQ+zzAtPqJNn74BaiU+LRQavWODq77vWum9W641Pn88IL7At269lzPlvlC+oL2A3Fg+7Sm+Pnx5qD5WC+I+zK1+vjb0T77dBzq9q3z8vmo0+L0RoXm+kjGAvgSCBr51VMC+RQJsvnfcmr6eby073mRKv6OXnD5/Wxq+DtHtPsi9OD4Bojm+DQhAvUGCEb7bY/Q9jGefPUy6pL6R9oE+VG4JvsMhpL7ZvNS9D26KvSgTe769S8E+XtY7vnw+gT6RiZe974TPvdDUAD5A5988/94/PRGC7j3ekna9",
                "bwvDO4qCfj4C3gS/nDskPHxjBLsMVlW8hpq8vbnWXbswB8O8ZuZ0PqwwkT3C1A29bVQgvnB8qrwkQvs8y6uKvQC+bL0A0vi+fC31PZHCEb5/QpE8ayfjPZadez6xtNk+kPgZvj+zJ76KZdK9pGJkvmkF8b2mzUO+CyEPvu0n+z6a/C8+eh4yvvm5pzkPH24+ydO8vU3Njj1/Zbe9zpO7PV0QjDsNVC6/ghZIPS0KCL1SSp88CyILPezhqD0XRwK9SkNrveuNxT0AoLe8jepevnbWOLxlYaI9ffbzu+17m7zb45G+BvXwPY7Ddb532hw+qrz6PQdaqb024Vq+RA1nveFE7b0bQPo9mKsKvOwejL1Fwna+Sg6cPmhKgb8BPqa9xLeSPVis/ryNH2m80FQovRIUBL5OMqi+/xj7vMGEZr7ElRY9fjMHPrGNeb4sFjW+5Ecvvy0smT7OnSI/3fg2vZ279z3f8Z49abU5PpdvvT30eGk9z54QPdZxgD6KfUY9YxUQvuU7Fr78oN09KkG9PXg8FL7I/Ai90P4UPsjp7735qyM+nNs9vaHgRD1XD88+qxZhPr0egL5G7ga+ryPqPXye2j2OVUM9I7OMPemrHr3AxSe97ZICPigUt75U5sA9M79tPvhalD0EN2G+sifKPd9lpL5kWmw9WmwBvmEY6ru9FYi+eAldPTDO0z1dSZ09BynEPklyCr6YaXC+aSd6PtjR/r03VbY+q5ejvcwhJTzOtmI+8tcgPufsGz4N680+WtauPKCHWz4tz8c7Ii/WvIjPej4DeA89bD71vOi8EL0nG+Y9Em/TvYPJlj2Y2NC8CVoyvGWgwD0iVYi/vBGSPnMUYz1ZUMK9JVQbPgrQzL5EMqy9E89Zvv8yLL5QW2q+zcyoPu7s7T1ZKjo9yMq9vQ8pAj4Uovu9HI2MPhcKwj4vhYS+JZN1PQ3/rL5SVTa9ILzcvhrzGz1debk8FAC9vSG3+j2MILw9VybBvfKAHj4uZtq9NkSEveuxHT6zuzo9",
                "TPw3vue2Cr3KytA9M1vSvSscQT7o8AE+FLinvnQzfrv59bA91yS0vvMtVT4rlRC+027fPJHsCj6g7ay9/RYfvpMxJsBPKEs+EwMIvlNw2L3ep5++PuAYPpDkJD7XCdS8JymEvvTagT4xrWW+oWKHvh2WIL1w/6U9SNKrPt+aEr6vRIM+USfDvYpiZb5f4Jw+FQrEvvFBY75aA5U+j1W0voqUYb7TDsS90mtjPuEF3z0jayo+QgxYPdsgkz7pxTq+o4eDPv3NW70dKTW9zX2NPehXs70YFcO9SVCFPDWllzuULry+gvYdvgUHc70oxEw9/GS+vi0XQj6JEiY/cgMFPX7RAb7yA5W8ggIGvjCavj3BAhY+p/3GvB2Lej06pqC+fEB2vo78sD32eTC940i7vCSyfr0WdQu++agGvu/kFr4YYkE+ewMCvqbPKL14yeE9laY6PqaxXb2iSTO+IrRHPLkwcr4Bt6w+s/eiPUVRND3LItm7dpqLPgpm1z0SluC9iY7APSP4wz6eaXm868yvvW8gHjysyJA+yzpevV6WKD3/Gag9QYqavuzmgD0MYQo9g76PPeF/FT6eoL094EhTvJCoqjzpEya9yCwMPaxGkT5BSKo7PFc+Pe4VfD312y09FnQIu83OHDwhurO8LMb5vJufm7x/K6W9KRY1PQ9Smj17ZpQ91PROPd3ANT14e625oyu9vS8bkjw336o8hUeRvXDKP7xkMXq99HIIPlK1gbtI+Dy9GDAJPdU5rT06otS6f2sFvWL0zz15N6a+0rljvY7dOLxIP/49QE3avLTJrDy3j4C9qpYWPdc2MD79KRi9tKiFvV9LcDzT+Ke9NFSavOCLrLxrGTu+Qai9vd1gkr0QZWM9l0+FvXcbaL0Mo409/XovPd3vmL2Q2F+9AZk6P+ZOcj0No3i8OeoWPQqTrryYzgq9hqdvPhIkH74pvN29bIpWvGgiGb2N4AI8+LoNvVIDDzsz90W9fsQHvTWQDD7Dre89uZj9vJFW5L2nWe0+",
                "Y2eCPsUcVjwWRIy9nqeNPJ6vpb22N1W9w1lzPGy9+zuSEE28XTczPfkyWj4cxBA+0xifu1OqTr03B0I9u3cgvOQECrt8Qrw1OVk+vWxebz03s5k7zxbYvHQlBT7Bnh2+WQKWPdbr/z1hg6e7rIC8vVX2Pr6KgTG8YQUJvq91DTzXCBc+2fpYPAdrMTxB1HU8dwnPv8c3DL+V9cc9q82OPS3buT2HU6W+wE3fPqY00r0C3k8+m131veTZ0j2jFJk+RYzuPYpOBz1Uysm+7GAmvkavAz17lDC+s9/cvVMZWD1Qx+C+IWpHvTc/PL+7xjk9c7oDvWn1M71XbWU+bTbdvTnoSb0uE5q8Tnpuvyo/Y71bCrC+hOgaPvETOjyRlPg9eLIsvtDexr0mVYq9NH4cPyqBvb1Fvc6+mioCvlWxrD4dkKG+WQd7vXMtCj56Dzc9BTolPo069T2bBtk+X+CgvF/yoD57qgG+1q6uvfqq9j1yNYu9whQ3vsQcjzwVIdC9Edg5vWdTUDzNQ5q+9PMjPR5nZD2NPrc9SdzRvfvUET+GKPS98iAZPeObGj4TSXS8uIEPPvJb1D34//48n6ABvzpFTL6uCSO9hL6MPRHwb73NGeC+k6O5vv8gWT3zbga9749+Pjy7476iuLs+ZySEvvxqu732g+W86vSpvD/tr71urXC/hls+PZudKb3RA3u+G8lkvUsPHj7zpWs66gunvOScUz0Etj0+NdpRvsA/pL2dmIy+o/U+PqqcEL6fWH++h6UvvjjQdj0Xb4U+VlXMvGiDtjsFYKy9l5SSOydGHL6GtHI+5sggP2yE1z6mzoi/sE2JvKHs9j0V15I9JYwIv+iV+rz9jOo9Lp2jvEMrIT44Fmm+pld4vHOZir0Exkc9KPSxvXUgDb2XeMc9xgWjPnPiU71UKyE9M6QQPsdUhj0s4TG9rrFAvYn4Db5jiQA+hnuKPOhiID18qYi9Qv3wPJM5f7wSRzY+cGaZvf53ob3KC1q8Q8goPHjpVTxntHO8",
                "7luMOisQ5r1zu2w9MnbrvQ7N7D3GYaq9WWnBPD5Wh77L+G48OAzSvCfonrv0wqg9yh42Pp22i77KGTA9A3e2vOXeCL4j90M9aWwzPsnYQ74WXAK9SOqTvHuolj2MmJa9vkSdPmLfXz4b9ys+yrtevprhIz7Vack9LmacPIiaiT1f9qg9tE0CvgP8wLwsgOk8sCoyPUUWPb68uPc9N0Qru3E/MT1m6Sq+tV1WPonDkbx1Eom8HgwTvjw0u71/b3w9rd85PZY+mT56K6C9fmmqvadGlT3rBJy8mUDoPTxXjT7H20M+g5kSPeJ6wTxh1e+95mSPvPmLsj1uq4A+bAfwvCOd1zspjYY7AFUlPrmulb3hGdU9JzY6Pj3YnbtTqae9M8PPvodmP72HBoQ95XyyPYSBgz13TZa9OfIcvJq7sb1LDTs+UCYLPo8627sBkjk+kgQRPT9ZWD6YvgG9zwqrPNcfkjxxfGa8i37wPC5/s74DJwy+xhMhPvsV3j3dbKe9u16ku2TnQ7yG0Qy9rLLevBW6DrxUNg69YwYCP6FrobxLcd69to4Dvjuxl79TAoc863eSPa96oj0HawK+ojuPveLzSL2flMA9mFQBPCUEyTyzfBw+DS3qvTnb373FfKU+kTFDvlYvlr4zehK+U2pRPkhFmL6TFnK7EGqMPiWQhL1mSr08Q418vYa4kr0qXeA8g6g8u769eb2b1QQ9pb6xPVlhybztHbM+AWNoO6DzoTwE0YQ8qZhbvvgsmT3eIgE+gEkVPtH90TxZXhy+A6zcPaLxcL55UAc+GmimvQVbkD7VlBS9aNagvbItjL76Yr6+vbklvtoizD2C3lq+fd8zvkK2N740hwk9VGo7vFnu0z4TND0+5/5Xvvefx7ta/Cy+6ilYvgkBHz4Imzu+bwNsPlXc7LzsEgS/A+Rku2YSaz5CLy6+gG1NvxAwhz24nIE97R2rPhtTOL2Y66e9zdefPW69HL3PJw89FpWhPjmDrj2Rliw+RIRbvTJj8D1c1848",
