{
    "input_shape": [
        17
    ],
    "hidden_layers": [
        {
            "shape": [
                130,
                18
            ],
            "weights": [
                "ZKRbvWq5gL6M2hO9aLcQPaEfIz1FsyE9GZEtPka9Mb2I3Zc96VqLPXKz0bw8/ZW9F+oYvkKxibzV6cc6UK8+PY8Ml71hjTi/8KAJPcDcfTxWsbq+QFcHvS1rJz2kMoG9ALfkvv5jzb1/eEU9dUAhPaE+cjyllBq+yDysvZRmhz1xGfS5eGkjPIscK7z4Lw49N7zsvhP2Ab3wzKi9oUMVPgIjD71F1O67RBbFvOtOX7zKdQo8xApQPV6Ucj7j5786fGw5Pd6QIzvj/0q9vaqZOxtoTzyDgVG/6nRivUe83z3PJ68+Wr/TPIRyC7+KGK09SwzbPqItdLsrUJA9S6aFu6ajOz0lZIa+AjjUvaOVszwBWxI8tcfLu4DLGrwyKKK+WshSvTw4sTuABRo9NqcFPqPBE74ODkK9ZiJqvjbQojwvjPK9E3a2vZ0dPb3oENG8fkzZPY2PPzwzogy8qowGuxEeij30nxq/8DTlPSv0Uj3H22q+DE/jO7mrfT49RU48gJZqPjIFWT0sGYa8GFKAPZ4cUz0XwtQ9H20+vpevujuO9EW98LcbOzsMGTp4/qq+iIJnvQcFKL16XA685SmEvYE2zr6MoQw8SmioPJ0oHb3uDIM9ITwyPFLxGL3lp2m+0LOCPYo9Bb2HnQc9JH6nPFog1DyWtES9DKYGvsgEjj3MmoW+91ppPfsWgr2kyTm9yARSvonljbxCnTC+AV8yPkYRVD0JYL47grdAvqShJj2iDXO9Dz9VPTZ0Ar1T1eS+l5sSPcXS573yHt6+v4wQvqJkLz7fFgE9xG0BPtfKrzzP6L886ugHPsZ65LxD1f+9WjsfPSb4FT3M6oe8Rw4ZPUlCqjyIgnI+/dhdPsS3hr0bOQW+9i4DvoQTJ740xp46VoaIPGWxxrc2pp69QVVSvMyROr2D/PA9AOALPgK8vr3hdxY8FP5bvdv3qrygd/M93bihvdu91j0deyY++riLvYK2AT5nVzs7anvaPI84t7vYP6U9O8yBPesAljwVKHg+",
                "YtxpvQQ/aD1OMR88VXsSvbgCCbun1qW8sYYrPukY273Qif87FODqPZTgjr4xeZw8v8kIPk5vqTyqjq+9LeZrvU/yHb0Hawq+sua1vSuWnjyjg2E9qdfsPMq4tLzNWea+LzTZvbQ4n746H8u9JiOQvEjxL713RQ89GTNTPtmVqzzL4U2+gB1WvObvhbwuXwo+G58WPYdLHb2Gmlw8OAt6Pac2Iz1zlnm+5/orPty2rbs6ArO+gLPGPTZeBz8T7o69IH7FvgszkLpG27w9j76lvXKpRLxwGeq9J56BPLNevTxQSwm9f0EfvPCWNLwmH2q+xc2nPGkW1jwhWbw+7qWhvcPem72urBO9YPGKvqDzZb2p/7+9GKLOvLPkWL0kTKI91hpMPgivpz2aCbg8SNDAuY2S07xCWKW8REnrPZRcq72EO8g9DeoVPWjqsLwTEXA9QkuaPtWI+zyJraK9qWmLvGpX473zUvC8951WPasLLD53RWU7G+a0vAN3yDweIcW+5etLvUJoq71Hvmm+g3+BvSIyKj7riHu9xc6QvnKmMz4KY/M6UYoHPtjZ4LzJnVk8Yp3WvPZACr6NKsC79ldCu9z9pTwuWb09klmJvTcnC71rvrk+NAc/vZHB5T7h0qw9h3PiPq+NmTxEN7M8q96mPPBubT0/yKS9Sn0QvpPZAD7qgoK8Zyy8u2lwjbwnCXI8f9uXvAAwRrxZqTK/HMORO+945rzCTvQ9f5MXPwsAczy33FY57IFivfnMBbwc1Dw7LJuIPOtH5LuDU2i8fekRO0M7/rr1cvw6YwNPvWKmpzvbHbE9aYLtvT7vET79p3a9j/1nvgGjyT2f8xg82kbDvAniKzxWuKK76Fk9PtucvbsASs+7xpqyOx9LD72MZ0m+xoS0PT+k7jwtHkq+ZyqEPbgDqL5qzKW9nvbEvpJ7XbyMSZW8uCrEvY15Oj1gWak9sJe4vdtliDxDbp28zNbzO1gkLLytmSa+UVkFvij7u7w9boC+3ygYPR0vsz6NbZS8",
                "TmgmvumvvjxtWE27Wxw+vLxOkDtaOxO+tyUTO3G2sD1JPjC86S9IuGoCurzaJwa+VgFUPhQ4E7ta0dM9IOsJvUFvL719LAa8DKi+PSRDFr1uanm9h8MRPqIUnjx9v0W9ydsVPRq+WDywy9M80R5ZPXOrH74SN3u+sZeZPci0RDyZIAu95ob3O/qXjr2N+aI90qx4Pt301jwovX89eW/UPeLPi724Kwg+xW5EPn7OQT10n5c83t6ePPBtKr2xs4K+FEg9Pop7Lb6hQkU9aAXdPZt0ib2ZN1M9bDr2PZ4uhjzdvMg76JkcvF9Jv7zgV549tc+yvYg+RzyvRai8/Gd0vQezTz5AOUK//OgZPfxjKTy9xgs+eoyIvRQwoD4L9vC8tDpTvYeHXb2GBbk9LOqgvBXJKjxG7V++Qvx8vcJupDkI8xW9ukBTO8iadD3LiIk7Jdu3PLynMb003oO+na1NPZvqiz55B4e9gnjUvo1t37wb4CY9m1JCvVbCwLxTxP49R9YJPtkGYj13JZW8Sc+zu/ys2TwX55U8NYVIPtbOorzohu09XHIVPcYTCT6TcL48/RTxPfoUAr2sdPo9D7Z3PJ+Wt73MpYg8VCEtvk/ToTzylLQ8XySbvTWc6r03W8O+qYJbPYyFTjwKqK4+ud6yPcH1Q70rTlg8B+aWPGhuhzzUXVi9DoBLPbgkhD2DCTc7lw1XPfYCHT6WSam8rnoJPJZqE71ejh6/SB3IvfyFzT0n58I+AgwKvZcZ2r6a3dU9U54OP7f1Uj2Z5b49VmESvBX0Ob09k3Q8ZQ8vPtAX1jwmSIc80FyrO4uB6TzvMqy9ITu3Ozh4IbyhkPE6Z6QtvMCBCr3vppo+YOauvTbNED18Tam75OkjvD2khztYggc7K4m6uzfSvbyu3Jy6X+DZu/l7mruiAwq+yOSyPV53mz3twE89Fg8OvVyFrD5dxxo92yU1PqIlMbwv8Vm+tnOJvDa4azzi0ym+vAz3vV+UDr18aI89vUlpupzhpD0Pdlm+",
                "DKgtPIyuhr1zn5c9yelLPf6PhT7lTBE4L0IePg52GD0MKSS9P6I3vSkvi7wtU08++zPvPUyM2rxxVDA9TyeROVty2z2Jk6i+JCGnviYA3j4O4gi+87W7PSTuAj1LaJM80EvpPYms+zywft+9+QJdPDtKfr2vSYy98K/bPYvNg7x88849QheuvS5xA7z3+fa+CrQwvNT5o7vqpA++2hiWPbyIrT4K7zM9X0RsPtuxAz3Tt5I9eovjPcIU6buxhzi+T8oKu/dWDDjPtYQ9sW3JOxBTNj09lAC/H0HqOloyjDxzOqm98dViPaI3ET+C16O8vxutvf/DLbsfq2095N+LPcZxJzx3MsK9RcXivRs7LL0VYIK5xxCtPA/NC7zbQ96+rrv7PAzgcb77LJQ9KBirPeR5tD1YMSW8gPAHPSlWDj3Vapq8KDnCvRfNg709+H68xCv9vXcadD2iVIK9YmFovENEaL3aKfm+DGxjvahOCb3L0KI+zZgfvb9Imj1wrQe9fENovnPmATtHc6g9OgL7vc+YWrxJdSe+dc8EPj+rtj3ecfi7uNv/PFWWvDxWhGy8iTeIvHgl2TucaBA+KuSVvWAqLTxPRhg94GNfPiyOlrjtXLq969EROlLuiL0k6sE96we1PYd/Iz4unRm98ujcPLH2qzy8uLI+qM0sPWeeprofzbI+lGgqvopqGTzf9BU9mBsfPqvmUr0N3aU87yE9vq9bgj1TS+O8O8zqvSCmHL1IlQW8dO5mvH1dmDyM+rA9ysEVPFoDdr1IG14+Ih4tPTZDAj+OQEM9GZeCPgilMbuBl4e9O2WBvc61Mb1Ekr89IuMGPh7to7zj4FM8J55PvAm4WbzQ38O8tIrZvGHqkT14wOk+b+HgvIWCdr+n4tM8AUwWPjURLDx4eMy85LGavYshxDpyBJY9YlqKO+CCZb1hkwK7lzCDvIw+1jsy0XY+ID2cvUsVY7zLV7k+v8hlPVn81b3aqke9i/YuvleOBzzkPjg9n3UXvRBMOr1iCw69",
                "J70qPgASj7zEY5U9F4grvKlEkTxSjD2+8MMfPYI/A70DbZO+SHUQviXteb4tcwy9Y0tnvp7c3L2pUge9owndPUI2Rj3YCQ89mVQ7vkbh6j1Fa9c7CoTpu+MN8DsIiiM+C0Cyvc3CHT6rffA9pT3VvQBVsjyv/ok9uoaZPloWrr0ZCxI+SwBsu6x4tLwP85e9AOqNPRU+mb3bpZ88P+Y8PZWJCDyshi2+cQFJvZ0vOTwoSwE/L/8qvXTg5Dtfbss9K5IDP9YhLb1EJsC96oiLu7WkAbo3YGo+xyxXvP7a7Dwq/NK7ty4QvN661bt82YS+jNtpvHKRpzsTfwu/9BowPZK1wz7hdai83VYgvnGCHL0xqha8TnD8PQXOjjvCuQA+X56ivIraFT3mpUO84G5lvKggyTxS7ei9sbqZPrMGmj2QDwQ+grk5vDfrRL2+BRw9AO6luwGZZD1uQRK+Ew9RvEibxb38cwY9L+P7vasa6ryE2Pk7C+CaPTV2IL3kx5y+k7qpusu+MbxeePO+LDsju/b6wb6sw5+9KkjMvujgljuCc3w8//uMvSYzQ7wWyck8PlsePThXAD7+0OY6H/DcO62DDryB+l4+APkuPRIyJj3G/Ju+XqaqOoQ+Ob/Nc+o8rcc9PtDmTbw34gK8U3QDPaVqj7vb44I9oF9jvGNeGr0iVf27a3QvvNus8LvcKE8+LipNPXx4ID45o9g95MewPbM9Vr5jq3G500MjPJ/pYzyGkVK+tW0UvU/0jD3pw4a9j7dOvuUdDr1RNXm64UvAPetwPj5/gji/6nGQvWJDqL3Womk+ShY3vfwF1j7lNFU9S0WBPq95e7sMjYs9/6U7umi5GL19wOY9YKvfPSOs4rzoHha9SnuHO68ca70spGe+k0M8vJrhcD3iEje+ReqNvOwBGz+yWuA82qKoPd5dwrwyzg+92KeEPVSOWb0DJYA8iXkHPuEom73jN8O7ujRnuxfKhb3Iu4G+2yvyPNsaPz3bxT++OIYMPUvb3b4uwd27",
                "H5GpPYPJ1Tw69qI9EBoPPVuH4DwW+oK+t9CZvYflFL3fjqa8td4MPLJYAD2M8Yy+axBxPaaO5bwu186+Q+bpPTiw9DtfRnU8+BnuPWImdz2epTO8ti/ou7BUqrwIvTy9z0+fu1Fi1jyw1288zGg7vQJgkz18cDa/dAhrvJ+hC75NryE+aIHAvRnYbD/mHKy8EVr1vW/FGLxiog+9VcbMvfVyVTuI9uw9QMHMPJCbrL3pKO48PMClPJUkiztnk8A+X6UzvbnQgr15VC0+WJuqvn76Vj4v6HQ9NR6oPpe8aT4239W8CkjwO9jyLjzAFA47KZDKuxVPOr6APDQ8HETHO1UsyDrD9as+oHDyOt0qb7y+KQs+3Tm8vvK+KL3NmkM8sVdZO07W2D2blS081Er4PBGx1LsfkSC7GVCnPCwEFT9+OBI7pPwaO7kU1TuigCo+WGlOPrH3ZT4AV6S9lbUFvnAzVb5siTm98vNevr6ktj3/lTo9SZ0LPvBa5TxVMDu9bpnSuS0sBz7+Uve654zjvLj79bsb2wQ/0w+PvlXMIT73qse9/tESPZBKpD2/sG478MmAOpqBEj0ZEvU91EcWPe515TvLIcK8QeGdvUhkjD5Rsie9rZynPOWf37o6Wte+vydXvDj5l72D4xI++ks0PYhLsL5uZ4a8MxEWvoaoZL1/thE9SYmhuS25Br3uC2m9s6dkPfy/2716zgG9Eh0APUGp0rxfvpW+OIbfvOT1Wb32J+c+y7OmPDqOvj6SVMk9nXEGP3yjDT0+UA898LY4vG33Mr2+3B++TLj7PfrBrb1VEz88nXUiOsWwdzyPa2G+LcIHPhGInD4xpNs9W6cNPRz/j7uDv7O741WCvJB9xzucS9G9h9sBPvyGFr2Yezy+PhIFPauBhr3wuMA9t4cYvOM+Ur0gfry+k4KFPKZOJjyONE++tJd8PE+Hpj5vrqS9bGtyvpg1YzyKcZ88bIBuPFbWgb1V9iG914ctPiI+bTy/jeA7Gh4YuW9SXDziQ+O9",
                "F9eGvfOQBL3lFJ8+AbGxvRwfkL0eTPa8+Wohvkwc1Tzp8VQ8LeCavcipvTwUnpW+iwldvaUtqb38ypk7eo9cPLFkszumECE9jXQTvXtv772GS1M+NygdvG5MTL4RI+U8hWB+PqAnlzwNH7o9sRKgvSBFHz1fa4a8QbxAvRA7pb1piV69YugoPQgGr73yhe+9EBeHvu8oDz5iP109v1DOPTRsQr6hlvW8U3QCvhfJnT3GuQk9NRAcPOdW+bx0iSq96UaMvKQ5e7x+lDO8+r5LPDfHW73eTAq/7UJNvVmhdD2TZpQ9nafSvD0lHb80zp29O6XYvtvEk73KLre8/78dPNIPAT2YNOw7jDJMvfMKlLxi4cA8667cOyQUQDrAzlE9m8iJOwZECby/Lq+7vmHpvYwyqrzlveC+5uAZPDfqDj1Ls9W7tvamu73/Prsyedm6o5zoO7Kxlb1owNG7NXnguRQZKLoZlUi+P3lmvZyDvr3D/GE9hUf7vdMS8j7BaIM9bLV4PoFyo721TYi91KFcPRDFdjzW4j8+w88MvAsFlr37RTQ8qHLGOy7zt7s6Squ9eYl6vblaJ7wo6uY+byquPfa4FD6LoJC91ynNvqvvq7yTx8m7AZu7vDhd2bmGMI282EbPPORc9bx8Npw7jPW2uyphCDwnEku8O68VPJaLgLzjqaK95xW4PLwAXL51xGA99NHDPhenQDx3xKO9Ih8APugCdTt+td09QkngvWwRAbzjI8+7JGtqvBmYC73f/mq+3xw/vR7oCT4hvaI+IOU1Ozn5UD4KZEk9BkKDPn0sxzxNKTU7jPvnPH8v9rlNjlk9/ndOvXOq+L31ho88VJwBvKU7Yr1poAa/JqNcvfcTjr4CQy+7XwpJPRH7Ljajqlm9wY4avTu2wzstyRg+eBmgPRx0ujw+3P279tJfvRfloj2JVAU89E04PW403jto3XG+CC29vUlS+71JwWQ+M0fbPToIIr7x+SK7UagmPStCI7nY0qw+FMFJvVkEHj3v6nc9",
                "OUtovkDXtry3li08flCwvLrOwz0jOWe/LJADvPp3bj25FwA9LRwNvUjaEb6ZHui8GX1wvuv297wBHmg+sbkvvHyyoT2okdO9mfoiOwdpeL0LIs+63BGuvTOuB76DltW9Cc2lvI48yTy5RCo+OgERvuvJBr/UlgY91sDsPUbO/L3821y9txWAPXFwErsoEgo9OP/KupZyzL2jKiC9bhkevOJoiTqOiZC92kTXPCgbkD2LS1C9ZsUMPqPS1T12U8m8NosNvjdFzjzhdgE+w0VFvQ270b0xLuo9azVIPb3A07ySbNQ8Xd7EvKuoU76ThFu/AeGJvm4nlr6Lc1G+bFurPXu5073kxQO88iA9vSVa4Lxo9w2+LJ/8PJWfSry0Ex6+3XbqPVIIYTzToUC9RV8KvBAK27xe0za/KKejvTUSsj06kM0+pImdPHGABD7m+Rk9jDhRPvJRGzykvFM9tz8kvrfyND0ajKu81OtMvfeP0TyPBsW8nCdHPJ2Y3zw4z1O+3pm9vXZi3Lw7USy8ZIVEPXiCfrz51g49RY0GPuudgj3ispy9F3p1vtqB0b3MFOy6HOn6Paz2hD08UEC+SFzRPLuZRb1wJWm/Qm6ePLSPzL55Arw8vtitPV5YJr6Sigg9/C1aPpJkgju0tes9C8NXvVqhrb2RkMO8k8obPudk2bw5XQc+EtBOPYuAoD2yNhW/HJw9PjlXRDwnc5g+lP1fPB2bgj5QoZY8B5sdPiXqLrvHWD+92UokPjfTaz3bj8Q9242BvXmHk705Dia8d6mFOy/5OjxKZGy+RCRdvjvM1D0RoLa+NXewvcLkNLxv+Fa9Qm3BvpxbAL61os48M0xSPgvvqL2Eiku9IqA2PmpMBb0ugiC8GeKyvGkAlTwY+t+9w0zFvhWwDz5YKG0+8lYePbudND0BOcc8oGBJPWvQoLz8yf08G7U/vv3mhD1MctW842kAPApomrzBLzK+2OIvPZSw5zir1wS/yI7kvoZ+Ar9Lg8g9582CPTDHMD69yLi7",
                "PLCqu/5Se7stxxm9dGiZvQmACL1trwU+Tkkau2OvK7xRaw49nTmOOzHw0zkt3/6+DnmqPPdp5Tz2KGy8dr6RviPmTj7P4pC81jnJvZoZAT74MgC6joxqvKee+rzkxYO7vkm0PUJqhr6M7KQ8dl8WPBi81TpbQeQ9FYLhPanLPTxtPLu+D/GHPcHYH726eKq8D9l0vZD6Sz3FoZg94ggnvtxrQz0buIs9fxy+vWS/gz1V3Ye95u2yPba/Vb15zBS/ln4ivvm/obwS37c+XuV+PdUPhz1xqwU9X7xGPea9Az3I6Xc80nYMPfeJg70VQBE9kScoPQvp1jzFzQQ9FXSGPD8BrDz85gS/jBHdPO2Pkz0dRMS+gjOCPaQcq75tlTu95PqDvvORhbuzrVy9e8QoPXCaX72qTi4+xrO3PbxHBDx/T6g87QiYO2LRIDlSL5K+9qlnPhZTCD7jEXQ+0OCxPcQtLr7yg1A9z+ukPhyenbrfNAU+MNzbPSZdWbymT5w9TpRtOn6nDD4z5hw92IItPbSPzDz7rB2/85yFPj1Ahj4Q/Mm8pqLsPfn3BD6ykYE7ZqYDPcvVZTwtIs69gwQHvhyxl70bF2U9wa1bvdkpQDzs8j89k19FPX4LTDzlmSq/k0P9PJOx1T1YIHe+V+W8vld69T3Q6ZQ6zYlNvZ/qkj3TkFY9qrVxvSO09zy0asY9eFNDvVEDIz4/hAU99wcAvNYRirvTJuM+jl4OvdyWPj43ciy8nnqRvXxDNT4dAg+9hQRKvhUPQT3PjBy+4nBQvPBucz2q3uI8465LvYOVXr1nc5C9mqqXveF2kzvc856++jxFPQcGSz5gzEu+igTBvUHXUD1GWpA8xt3BPd9FsTs+sg0+1bAIPjGIlDxmdLa9TRnMu/SHur3E1fY82Dj1Oz4wAT1+rwo+opSbPcHubD3KoZo+SZxAPYduUL5m45A8QjhBPiLjqruXI4O99JCdvFl9+jt6eIC9FTvFPX/MpjrD8YQ8PtF+O4QmKb7ckwa/",
                "IYTRPXAb/bwvDPS9hQq4vcj/xL53pYK98LSGvlgfpj1KgEa8QCfWPb0KDry0Gwm7QHXUuqsUJ777QJE82qEZvMuPr7xd6R+92iZavUWLir2u64m+5aFoPSvAEr3EqKC7eivQvY3VtzuDjcM8MQ+5PFaQDb3QokG8+lEsPqwH0bw+sEC+WrIGvPNLMT1l/fK+q+I9veSAQD4Czeq8c9QUPgZlgz7h4hM9FxM5PitccrwhVYs9qdmGPUFnhL35pRS92GPqu6vMB70pvTU86I7hvF9XC7zQ9Ly+8DeXPVy79DxjGKE+bpIIPVR8Jj4GQGI93ZEfPnS9yb1kab+9W5CLvbBgyr2/9Wi7A9PFvCyRiTxETiA9xsvbvI05gby0CwG/dYryvHm6Aj47ZDw+/096vUT3vL2Bxdg8NjaxPh2sMj0Qe9W9ttmiPH7cgLzsFFG8n/tCO5XTiT0UqSo9MLN3u3p7DLscvBe+5VgvPaLhbjs1nf++RJJQvfHGeLwfjs69PG4Sv9w+7LvN6827G+5zPcd4SL3HsTC+vZkSPmrdEjwuqRc9QB0DPLHskjvzQHc+fhw8PS2RKz62LJC8xm4YPg7my76Q4yq99VQrvs0ooDx5mz08MUeYvQT58jvkooC9ImG/vTBZtD2oUg6803+yOxxSBL1HWc++lFB1PHtAGLvGWHq8ef7bvdVQJbukYKg+73f8vWJi9TwCkju7J47FuzXtmLsAUSi7HYUnPOOK7b3w9jK8QQWAO3U9hzubCki+vyxDvLPyur1Ab5M+AtsbvUbB1b52AGo9FXyyPpNs57v9rw89jH2JPRkR6Tw2b7a9EAkuvia/KTxhu5a7AVMePeqBnDxi+Gq+crzXPVrUyr2xd7a+GODsPcUaDD/YfZW9S2m1vjYTlbv6F3+9aO6GvBj9GT3Zcme8bMYZvsSDu7wmZMQ7LgmhOnthg7u4l1e9QMqDvSs2KjoiMgQ+46XDvY/0JD7NcJy9oS3LvpHfjL3zJ8C8W4z7vG+/TT1CrBU+",
                "nEq+vZ5GhDsVVqe8Ma5IvNpwCzyvHBI+NZCrvn7VYz7mYXI+wChVOquc2D1qGB+8q70evRuuTbwjQLK8jq5uvWJ96LuiEzO98WDYPNI+FT6qznY9VxqVvDrkmjwrlsi+bKhuvaxF+L3gnea+scUbOrPrcb4EorC8iXlRvvJXT72rYb+9UjgMPrU6brzMZH4+KpgIvH6sbTog+Ni6QvJdPPtqeL12iCu+abAJvcp1A75N5Y8+DwMlPltR1D46lUc9aFOXPlmDpz3pIt+8xNBsvZbSHT2khgY+sPszvTE46jwvEGY8UkGQu8tnILxYNPO+0OepPbDv4D32FhW9lu8FPSJywL4bzHS8R+CivRNfaLyDRoY9uWK/vfRsBL2RhJ29hQn8PXGXOz1CVUM8lb0+uwEJvzxC/a2+C0TRvPz5TT1sDjO8MKWhvf3Ldj4imOo8+V8qPn+/NT7B+Z883EwGPXC/Hb07xJ47YcDNPCDl6j3aMaS8shktPDTiK7tskGO9GDOfvcgmPz2aoKe9nhRFvuX4y76m+LS8atvxvYNzMD6iO1Q8PPJ8PDJoz7v8oKy8zaI/PKbCcL3t7he84RjhO9WFkDyMf10+AFMDvv9ZST5UQnw+EadqPPPtebwQBT68/uw2ve4v+zxOgzM9EOIOvjtiKD1VN529uxOUvOCwXb0mj8Y98dcFPP8nlLtUZIe+SL58vQRoALzJeNc95AuHPWraLr4zLB+9aApkvpS0cr0dQpM9m8UvvrAXu734+jU+NC4gPr9SB71n2PO9SjIOvck4MD0dqAK/sE+6ve4qEDvuy9M+3KeYvc6aIL1+12G9FJNlvpek+DhsZuk5ZaKZvRdLuz2E6eu7/duCvkz6Mj4xgD68HCXxO8jOrDrzzMa9V5rKvjMCfDxt1su9IfBDvJTs0bzaWMq6pfAAPZdU1DoW7i2+3GxIvhIn27wvWzI997UTvlLIUzvdLYa9L5AVvrOlaL3NGEG+iteivbX26b18Ma2+C77DPR/zKb8fHfe8",
                "1wMHvn0/0TwEos68OacaPp0yl7wh2P89vrimvdxcML2+V4U8mLcovE1RpDyUzq6+vLdyvT+5bz3nnCE+oLGEvUcc4767Dg09GAohPsvoCzzHcM29W1dbve08cr1jg7i9mG41PtRRZLxB2wO9UkUXvA2Q17yrLYM95SAMPs/G/L3KdP69wmqNPcA8L787Pgc8BpgmvGHzmjqFlHY8mQQfPt+wgbxF/xa9qcqavQZrEr1Lgre8xAKyPICbTrsPY+C+3YMmvsS+vr2EFQs9hv07PfiT0L6yezk9U0hIPpihjjzUS9u7BpgCPgHalL1lKNU9THIRu/y90bznsq09RcshPJT81ryAyqO+rd75PMUQk77HtPO9BlqOPTOynL5KFye9R8levkUWFL3PIGa+r4hwvUSepr344T09/TaFPZC0t7zFGGe8G9lBPaYT+bylXBa/iSVsve6cYDzvHb4+sHKQvFQG/r3zLhC9Pq9GvlGCobsjdrK9dKzEvSQOBzzlKZQ+WEVKPF+oyLpyZg48yoxZvE8kBr1JdPe91cazPcpPsb1g4hm+/EYoPVzCJD7ZHck8K0IrPjqB9zx6QYY9xOqvPZ+9ZL15dku+Q2uVPQVwuz2YI848P1VJOxrYCb3oIye+kBQMPpGCP74bbWS8fcwovd2/eT6mRjC9qBtgvryjkT3p9I29J1TMPRJaETsHwQQ7jOFUOywA0z1+GS492Bfuux3OOrvLYgo+x+fhvYkUk70+SxS+p9OPPDTyc76ZLra8dEcCvhOEHz1d3bW9OSzGOtZp5jzttAk+i1GBvYgpHj79VRi8qitrvQvIlDziLe+9JZa9PTIluT7gadU8HJpFPR5npj4z4Cm82qoVvPqX37x5NEo+NFXTvQD0Yb0JA6+9pt6MPde5Db2DOee8Z2jhvNyBZ73wsAW/A0VBvdnvsz2AvD699IMKvemxdz+YiTg92CQ6Pkl7nrzg/bE9wX3yPafyzjyeAQe+YK8avkJULbypqr+8gJNUvCv7rTxCsCa+",
                "Y3LePG/i8Lwr864+Np2ivQEITj2MgMg9laUFP13+Fr0akK68vesivd4R6zypvIC99PKqPS8YCz7c/wE9PxRBvBu+ULxCvJa+Q36gvax0AzwC9+++7rmIPdlpVb3/j0u97rSUvq/84zwDyXO8C1iRPuQJir2RZre7vyEpPpbt4z3wrjE8kbq/O62XDLxr6f29"
            ]
        },
        {
            "shape": [
                130,
                131
            ],
            "weights": [
                "L/UUvEfkvbzvEa48DiNWPKaNeju3mRG4qzBpPZ/kGz0CO489ep2tvX4qmrtilu+8eaZCvP0Fgj0BCH69OIHjvH1BmT1fIcW919yhvB6yib2OxMs8jws1veaxabyQaio91ooOvj3AS73rZcE9ZoBNPbK9u71sviE7kHx7vSrOZT0tGtc8nsFgPZ2T5L1HGRo9puRCPC8Mgb3FLwW9SB5+vRAaxj3Y0sG86RcvPfxhcLxgZme9BRt9vX60Dj7Z/DU9KxJvPGmeAb2h3aA85k7+PYoZ1jzmISK9EDaFvO/l3z2Y8BA9QMOUvfkA7TwViKS9XwS4PcSTUD2jGAW8FCEAO4TBurzG+jC9UzFOvPbQtb13/X69o75DPGhCdjwnG/Y8BpRnPf/mm70otnS7ITC/PHumIL3czIq80HkLPRIDkLvQPdq8RFcLPFK2drz282S9sqcQPSsPo73NDYK82KCHvJoIXT0UAiQ8D/2fPQZ4ADxCv1S8SFmVPMq89zu4zCQ9cKiKvawi7TymmFY9lBINvM+y6LyhcSw+gMnsvc3PabwS0ZS8p34gPc0TWj2juvS8LwaevSiWibx+Cxw9sMUeOyzfObybyok9gmn6O7+GITyOVik9KkgLvpc4rTyayeg5EVB3vQ2FdLz4Z3w9Q/fovPIo6zxk2he9kZkOPZds27wOd6u9H/wSPZl5jr5wA/W8sV2xvOGHoLwrmxq9kSEjvRV02rvyUR898p/Uu8ykOry+iBc94FtGPMiDCDztAWM9NdyhvVtupT102jI9KEy3Pb8Ph72pajk9UHDGPOvumL2YfHs9MAP2PDnLCD1/Bpw84z1fu4QctTxsNjI9X/UivUTrNjlVvUI8np3pu3knNjyLYW485+4TPcUVCj4v12+8cllOPUk3WbwxSqc9CByfPHRPaTysVqa9FErDvTE2wjw/1Gk9s+BBvRM1UL3O0oM9FNxQvMsgcb3V7fs8k8SZvfC3F713qwk+jhPaPXCXPbxRt0W86sn3PUzfBb3QhBU9",
                "ivQDvT7Qfb0tvMw73ch9PLKWljuAAAY9V1TiPX7AIj3a5tI6L9/cvJzajT3vol+9VK4PvR7n8jxFd0w96zv6OmkVuzwv0lq9ncjyvEFCMryRVRm9Nz8tvRNVgL2LL2y8UlrDvGPEmjtXQ8G8LHnMPO+hOD0EtTm8ScfjO+LF1jwpXNS7x46fvSiHBL1ON8G9EK7ovBpGej2yiie82B6dOloaCz6FI6m6A7rAPIy7gz0LHr49PPCGPM5iKj0HMoS83/2IPYC55bzLJ707NS9UvCnMlL0qd8c8UvHoPRGiQDv9yyq9B5TsPIDTELxMqBc9g+ruu/jvMz3oL4u9NHmMPU32tj2t1Hi99GsBPnkXBz3E3o89VJbrvvoT6DzAy9e9pFVSvYDfFT1NloG81dvevVeVtbyeUs48BHgIvTbQwD0Txie9axsGPVGLJD21rS285vARu/j8Hr0S/ru8RR7UPVNvgb10Dk69P6WFPb401TyFGw697aioPfFnxj2NXT098D2ZPLhmpb3+ihQ+MR21PIPguj0boRa84dA0PUpUPr1meme9IR2ePbI3XT0ERcE9VuPEOi3dbD0yMrs9cm+Guxxzjbwv7gm9fFucvKSlg72ukVO9tCnfPCiGRLz/IYG9bZxuPS8UIj0oQr67dQXgO/bzo7wm6hk8RNG1PBfjH7yTS+U8l9lovVvDc72Wa9G72CVrPASTxT0EvXU9YpgAPDZ+Db2mpoa9HTJRvKZmD7wylEM+DxavPK4CMzynexI9PVs6PXUGxb377Ys86s5pPagXjDtnVIW90f2pvTaVkDw1hbA7JWSCPRi7wryPoVK9OK5fPVnQO70W84e90jZDOwPSxz3xgsK8ZZowvb2Cir0X8409vLCOPVMQDzwifEO9UvVxvXWNTb1jPpy77JdiumHyzT2Z/bI8cJ4tPRJ1rj0dUhm90PVKPOEib73xKyG9GFXePLGqlD0Bhig8qKTSveYQSD2+V5C9MFxsvSaDbT350ds9kp2DvDJNTD0cn1a8",
                "x/tGvY6fzLxfW7M8/I+HPFVutDxfpXy8Kss3vbTFcbw48bO+NMBvPR5Qt7yNkyg8cBGuPWPtlj1G3c+7lVWpvJiLyb0B1Ti8kRZRvYSOLD1N0428namHPXUiAjzKzae8VTtDvWS3Vr0vG7U9hEa7vhCePr3QN5k99dnJPYx4gL2PzJQ81322PWtLHT2rbCk9GXPNvEB70T31hrq7aYlmPBgJFzw+yXk9N5DqvGusm718F2g86lemvX4jNj0F3K896P0tvMitcLzSTdq8OQiQPUYNBT6wWru832kjvczBq72tVPm9jR3Ku/hBJz2MxAc7MkQlPCAGqLrj4RY9C0UePRHe6TuXSTi9V9lBvXAG9ruvdSW7KGwsu7O0Pb2L/pa9/ho4PdZPr70j1dA7WG6sPZxHcT1nZKG9oFX9vMSNp7zRfIK9tGsxPUoDRT1c61W93Gnhva+i07yZYIK9aBWTvXsn0TmbbFE9v2DHO5waIL6xynG9iXDAvKvQUzytpYe9JbgCPRmjoD2q5vu96fOxveU+Tj3Qiw6+CqSvPWzrVTxY3QA+HKJDvVs3Cj1KZpe8TO5LPoTOYD1CLg2+ZOENPq8sA76IBgi9drRNO0Pgcr3Nik89WTVfvYCUoz3MlG09y1lCvZXyIryS8/y8GqtdPdaCSDwsZcu99HM+PbsqRz0Tmq09EfUhuuCp5LyeWF49DoPNuy5khz0VP009/8C5PU7y3T3VPLm8xr4Evf0xJb4AAu+89uKDvbh5lTyawPg7yvaOPXZO5rydrtU8mUBvu/lZ1z0NQF48Qw5YO/to8LywThu8O5S6vA1127xu0Ma8OtxFvvQe/LsDl1M7tZiHvKY6irwkXQQ7NfarPP3AyLmBgYU6F5/6PJgnw7tJ0uY5BLRVPchKGbykRTe+R4gFPBupED24rG287zc4u7XtLb3XY4g8dN5xPAK5/LztSBq9KOMJPVPxa70oNhs93OPxPQRUdTwwDRM8/0QfPS7hEbvQoF09vCqGvQDPorwaVdm5",
                "/t8/PcBJTL0am6a8+NQsvEcTMb66qXS+PJkKvRUdpDuDLT89dknNvVSBLbw9Rxa9yW6KvJO3oLy9AG28MZK9PTsoib5SjLA8YhsCPFStTr1p9l+9bxmbvMgrPrymM7i7QrNhu4lCMj3dU7i8biaOPKbVCz3yMro7S3yhvG/z8jztVR88qHbZOqW12r0K+vK7BQhVvHgbRj0GGcW8/dGmPMB3Dr28GV28/zlwPP9MVbur1cy9CdEUPUMdDr2ATiA8g92yPFWbn7188ds81qk5vp2o57uMndi8hyXivFMO5bsk/jO99XcavYmJCD1kW/69+mpBvtQZPzyvExM7kdJ7vO/xC7yzCjm9CBjxO+MhAD2CgOA7nePeuxT2CryhrJi8aXeTPFTLrDwHt9Y8nCoEvERo0bpnJ3+7PoLVPs6Dyb2fBNE92jY9vLBDJT0LbBQ97mk0vcP3Aj0x6ES7wZD7PBMfFry9MA68RuPKPKROq7xzwSW8XWbDvAZ/c7yWmyO+sHvrPCZfGD2a4G69HEsiPdenzL2gbO88FnaEvVJN0Ty+4ug8ZO65PKoeYDwhVK090FvNvJTfLL5OBYM8AQCCPD181btPsli9yWrzvGkT/bydFNK8L4CGPI0HOrzG1DY8EMe0PRlIrz23jrc88rvzuxrQJD2Ybko7Aj8Cvf5U673/YUs9gjFTvPL+ljs6ErE9YnbHvLSmtr3rvuA9s1+CvjEMYb6cIKS9vTIjPQ7qUTwngAG9RZYDvDHd4TwvgrS9gV2gPPLnrLzntrY9zAeDvmo7ED6hBwQ8i0eQvHt8lr39bzk9uoDVvOPbvbxj7zo8lppTu5VMmDwZgrQ7nwbJu7TbHL3p86I8/vIOPeV1W7y/oYq8L0/AvM0ogrwYxMs8EpWZuzKI5z3RR0E8nOGtvbJ9HL3Eu1Q8RIDDPF2Fsr2wLNO99dIoPBEA5Dx681K95DyLPYA/ljwQ7Eq+yQgWvMh0hz0LfRa9CVdOvNfrjrxUEbe9E5duO+naX74aqC48",
                "9/xAvSy+/DvZ1zk7VOWAvMzQl71K9Ua8ZKuKvA2/m7zgUCg9Kkm9vS1pZzzttMe9urkPvXxD7Lt/A8s9lBsaPs413ry2ny88gX6LPeng8buhA407XiiWPZEhGz1svcg9E1iQvQDaUjuwvZm9xqrEvfYLUb0ItUc9Euw9vHv38L2kHs68d3JyPYXkvb0dUEk93Ik4PaGKK71E/AG+ls4RvTCxbb3Lh6M8RqYZPZEjTDyVD/S9NJ8Hvs7bp72Madk9cQsgvb+zEjyraQA93HZaPWzbNj2pkQ29i/1fO4XQB70a3AE9id/qu7YftD02hMm7tMQ6PewLFjwyLo+9GYqdPf2qSL1ubhs93uOgvG9VbL0ZUXY9Fr5cveU3Zbv5GVe8+wgVvTMWlL297PC9V4nQvdHOvDwzBCe9HGNTPYuezz2ocJI7+7vpPMzOqLxnLou84b6rvCNEWz2m99C8jZ43vcoEuL1NXVE9AVRMvQKdSz0xRPC9cDqEPHAjDbsQyZc5KaXjPHLXfT0JxJg61+3OPZ92ijzEIBy8GuCCvXuA2z0WeJm9GcxnPMoPrryILLG99z7HvW9mzLw32lC8WbX4PI7xAj1v8cY9XQSAOjuGJb2OPLq8rgmNvH41+bey1OO7WMixvbo1FjxEzZu9Y34zPQWn9bxA55e9FAgAvnMogT6sKeu9/hk4uhXIoD0XKHa8Fob9vZAZvj2gA5+9r8kxvDS96boxZAE9dYLTPYvkMb1xUaO9T1A8PRRmHr69/vq8PWxnvUW3ATzt/Jm8Sbs4OyArer7ysYw9cC/MPG+dUbzfXRE9e0iEvRFBVDwNaNO8RWMCvt4Ql728Lt08oOuivX8ol7wvvb48m2BjvZ/Urb2GGwg96MgYPX1XPz0b5ye+5NHpvWGAdb1K4Na8fcW4vTuwOr3zzEI9expzvfOSdT0hagq+aYBEPU+foLzVtI+9WDlkvUgCg716zmG9kQCqPN8VCz46pOM8QeSIPbo/Frk0DrU9ADI8PQ+aNTwYcWM9",
                "6Etkul1Yez1MZ3U9ypoPPbzgED0UYzw9+yPFvOukzLw9wzK9O+R6OIq+pjzkUz69n1WWOknaCbznGt+9YxlKvNSykT1H5429jjE+vNkfzzvn4cg8xs0XvQcdqb2TBas8+SAsPXIrtbwmRKG8Mk5lPX/EXb3Zi9c9vQMSvRSflz1zrVS9vo9ZvQp0Z7zt5iC96ddQvf498r3bbU49thVyPT/92ryaDyq+PilqPdjBhb6az+Q7m69iPdIZXDzJ7o89STmFvfDrY71Fxaa77FgjvJZ2mD0Manu9hYoLvvHtgz3NXWI9NMiuu4siHr1Qaus960EbvcPzgT3vERE9dbLkPIeL17ztYMc97x2bPb81AT70PSY9XtV6Pe4AXrt1zPo8sFnZvRNDEb2brWi9+WIVvTLVEL1tfag8Wl5YvJUDdLtfwPU8d1jbvZuD9zxw24o8Man8PI2eHz19IJQ91Z0mvmuFizv0ud67VYWXPU0Jrzzgvok9iVFBO2xpM72oi069J6oAvLt4GT30NMo8rGEkvo9M4TynWgq+ewHcu2FIpr2l6FO97949vYAFyD2Ao4G9/rAyPAcbO72MowG9U5eAPVaL0TzaKxU9w0AJvR+DLb35LDE93s4ZvRh0Ort3x009poNXPXIIuj2rl3i9iBavPAtx8rx06Tw9AvAivd0S3Tyzk/U8NsmfPfIhZD0nSly8T18ivFjQ5z2EhA+9SmHPvaBzuD1BAMM9lBY6vApenjvZCWM9k42CPSZMorxobe07XHp5PcgMWr1ZXxC8488VPsq4FL2ikye9kVFuPQ8r5bwodAG9YSSMvCfgpT3srdO8YlSCPYwRqD1YSh49LtraPfC7Uz0xZAK9e90APs4GoL05Wy29X1s6vKm/Xb0H3Yw9FQNtvIdZDr2A/0q9b8UTPYhZAT0R4589eM4ivRCsfjwpGAK8w3rhvMKpkj1DHrk6Fxo7PMhHiL3Qp0O910HyvC2ROT3XC+S8uL8mPds7mzztQJW9HJWLu+hpaz3JjRc9",
                "58tNPVzr471AiuC8jI3MPfUAMD29n8w7nRKKPJQPyL1CXx49JL9aO35e3zyLyA49BqAevOiJwLwTRI+8QR0ovnxfDjz9PEG852Z0vWSXhr1yeMA7z39qvKHhnz0yFdA8v54NO90DdD0mjKq+Rs1QvVy8DjykRU+9qhsQvb28OT3pWAE9dyzzPbSHerrTOeQ9w8ZHPbym8jznF1C9ctthPD2gkj2odRM8kGj6O43tlL1RVZ08VdxmvR9leL32TAE+1nndvJeDJT2yzQa9/kmVPCdFhT1/soM9H+gBvLn9Ib2MzQM9nECsPRNxzDyGkxo8iHNoPdAbiTtaXJW9QM6bvY6fOTw89ww9pUkLPQePUb39q+W8NW8SvQSgjT0EthG9WCcsO1vtHL1LVQC8b3g7PSn0qT3bn2+80PgIPqNYsLu6YWq9cxDkvHBlZDyB4HC9JKvtO9RpXz3yDRm9d3ObvO/DEz0elQa8/c20uooQ2rzt8hg99cFAPIYhDz0Jvc89uf5APe1tDj0y7zK8Hs3EPO0/i73szzK7hykZvMa++D39DgI9VQCrvIM+g7yyNvm8B9zQO4om8rrsVpG6hequvJLDKL0K1Oy8GoMcPG2yvrzhqwk9iXNNvW3EeT073+k8K52Lu8HSQLoVb56892wGviKmqL1mrU29ZgAlvIMoDj1NZwY9IOSROhUymT38sI897E4QPUW9Az6fI7a84A5uuxcPW72knMs7RoW1PNF0J757FLu8gWeKvHH6EDwF1zw8vcpovdcayj1U+ue9oAl7PfFesbwdnaO9zZqDvXzk3zxTBw690QrYu8heIjy/Eby85JAhvBpTlL67bQS8ntrHvff0gzzo1bW7qm7QPEk2XD3/PaO8vn5HPZtQs71kgSu8QsLCPCSm372PmhI9p0g3vRAXobynFTO7IFDPvGJn0D2dfLY8+y2EPI8Uj73wgeU7gLmFu1eJRD1ona+8VUZJPTsOML73liw9k7vHPK2Zgb2ijSY9SlkaPaC2CD3var89",
                "h9GMvIN7jLxq6YO83g06PCfMmL3PEh0907PUPV/ekz3p9Og758WxvTLEHL1N4389qEq4PRphn7zhLYS9aEGnPRy9N71I4BA80ywPvbrhdT0XDx48mFb4PWXUwr3z4hK+G3aQPfE+Ez7Kp7y8j44JvqfydL3bDNq8Gf4wvPaTuTwVht08jSvBPRH617og2nO7caicu+hbPTsO5wY9YGSKvZVcYz02zjK8KawbvSPdCb11KbE98NQ2PYCxjTx0qIu9JyIUPU1yXTzSxrm8bhKdPJqHJ718NYy9NJOwPcGDE72z4zO9pZJJveJk8bzbXno8M9XHvDEmuLy4V+A8W5cTPW5M27syM6M97EFIvUKoR70uibG8qau/vZP5ErtA/ZW9/oqWvbfUgD0RQ5q9xSDtPNKe0jyx2Lk8rX/4PXTOqT3+tGq9r7XrvNL9ATxQ6WM92jNeuzjSFjxQCE49Kk56vfLuAj14IMI8fvz/PJLOgzxaPXC9hBqYPVJU5T3zbZM9MUEAvroIwL2pSmg90eOcPd9scb3fspq9CioOPOFeFbwxIJ884dNhvT7APz1f/Wc9yYiDvTJsXb3GdtA97GPwOaw/Czwd1IY941fSPPlJgb26P4E9FDxwPU0GNLwY5oy8/VIbvQIi8DvTLuo8KbSQPA6TqbwG+MG8DUb2vM1XlzytSYK8mq27u1gnuLupmqA8lNeDPS4spb38TAQ+sITWvPG6hjx+xAe9zy3yO7DCoDxGLpi9GjnLux8KJL09CTw9+B48OyYhiTxB+BG9eZ6svYTaa71bcpM8z80HPa47JL0/CYs9n/QkPGWuxruRPLG7QraePRQkdb03sck8t1yiPMAdFL2VEzc9iAF8vP4bCb2EoAI+45VjuztIKbw+Mzc+/l+evK/aM73j3jS9WKPcPN6Ptjwv5QO9wMKOPb/nZD0mYlK9ipCBvBUSlL0hhe28lFuiPeUBjbwSbS+8HVjevHriQTxsLYm9ZtwIPRjyqTy0XNi8A/lQvdGKPL3BgX69",
                "+GWavcfyB7uEO3o7/sxzveWzOL24LYm9ZjGOPd91T7xdIdq7sxZzPMX/jT0nhd88YlsWPVZQx7zaZRm+ucg2O+kWYDz+kZU9j8XFvPRSq7zksfi94aIaPRfUUz2G2Dc9RLttvR6bkj1xn9m7RYI/vPV1DT125zS7oLm5vbJ9qz1wzXs8Sc3YPULBujxfL669Jm/vPN1LwzwD7AO+OkUzvXYICj1Tn0k8++W4PBnZljy8DwK96K6EvSzqvDw4IwM9PCWLvQNeBD0j7kS9Uuv7O9XWV71Hmo49Cz3bPChnRr2Wybq9SR2/vWQhgTy8+4U9iwpWPfv0bLxOzfg9JR1WvNBPQz0C6Z68aR5YPfP2Q72HVfW8ua5DPPur/7yTl4Q9hmEKuzWZPjw2vGk9Kf+hvX1tzD1dojK9LlukvHVHJr1cR0Q9XRahPR4ivbye7768yA6ovdCDjj2WqGI7+BMHvvFy6rzqgtA8zNxdPCrAhr21Wo07TPZUPSBc7bvwl6w8Ejp9vGdGjb2gMAK9diXwPFRum70DL8i7xQL/PC7dEL1igiE+1YKSvXr8Yb27OG89o1TpPCoye701+b+9nogZvCWA0DufkR69O/i8vbuQuT38Yj68OltaPeiYY7sD+8C980OqvaGlcL7lQyG7cnoNva3kZj2TH6s9D+V4PWrxLT0RIgi8QVH2PIbxTr2GyXq852ZyvVinJL2B+SE8NbwVPT1fzjzmHdc78/0CvkD4wj3giIC9QmQ4vSLXJL1kI0O99uGFvQcIaz2UNJo8e/OFPXZLej0oUh+98mu8O6NsQT1zNG69tYAJvWhSiD1/kfY8d+KmPIjQ5Tx12YI9VnQoPZqtWT3ACL29yUK6PKDmmzxbg449R5MXPcwAdr3fFD+7PF7HvfafYr3JdUu9RuAAvbbR5zr3YLQ9YsiRPCLzmjstiKi91q8pPRvNmz0ORZG8m+bHPXqqqj0MmIE8tu0ovQ0/5zyazsC95D6CO5PM2T2ttJa9f6sNvcRLCD0A3ZO8",
                "qV6xO83ilj3YWpQ9c8GMPMalPL3DYCA63ROovWBK8Ts9PUi8DvdDva22Jr1acMg9uK+IvVO/JL0i6bm95pcrvS/aij2idJO9vZNaPPXacTwqBp66L9ZdPD6jBLuK+2s9ACW0Oha6/zz29/88rxJ1PLwiUL1zyzy93HbXvdIEHj60GcU8f613vNhEMz0Y3Bu98wO7va+SZz3aNxW8tqm2vCsozzwff+S8Lv78Pcbs5ryu4f08KstbvZp1BLxcAHM8Ul3kvF3V9Dt3I/A8sN7SPYBTyz07H309vVm/vIXNI71tkKm9tw/hPOB24Dz6BZc8rZAKPbR6Rb2WS7Q9z4YAPG9pArz3Rem5jOMNPLD1pL0xRE+9Z6rvvHI0uj1CVQY+WqtOvSWw9jqmMLQ8TIdOvQUfGr11JWM8KyOUvMvVoL1wS2Q8KckKPZNz/jwLamW8yRVUPhcc4jzzfyy9YA/8O23ykr3Jm1m8U/qWvDS1KD0WoWg9Ycj9vMdGSrtKDTu9RHM8PUjQGD4Mzsq9Aejxu8R88DxC5+Q89A6bPZbxGb3LTGW96n/XvoZswDw9X8I8fligvG9Dlb1T9QY+yNokvV6VFLw4hKM8b94SPXVLg73YJuG8xryPvHT8tT0Egw89tX61vAzI9jtqs1G8w91KOqjI3j2ItzC9eJPTO6tGFD1nG6q7pIdcvbGtxD1Uf4w9z31mvbcRjjyM9q49DjTvPNXqDj1Czza9ac4UPJMAmjvgqQM+CtDPPLs7Az3GDsY9tVFvvX93DT32cMi8dpGMPeUwpz1BrHM82fuYPSun2DyTOVq9sqqRO8c1yLyMQSQ8etWovah5mjxF8YY8pYOxvAds57vJoc082CLDu2r/U7uEaEM9+gfRPBiSobyI4rI9scKKvMx2P72q26i8oYTpvNDvEr2ZLhE9Lc4rPRUKUT09ryK9P69IvQEQvTzK3VA9+Na7vCBxDz3fZZS9DgqQvcAVxD3FWTM9mppnPIYUBT4s6cI8lV5pvDZUu72hhgs9",
                "1IgDvPoTTbyAyqM8x7lsvWnSSL2Dr6U86hGEvLEgIjyZWIW8MTllun+8Dj1TGos9C567vSFkZ70X3Kk8TtKfPWLxSzulj7481D6gvfGoy7wP97c87oJpvHzczr2ZUIu9CtSLPUMjWTxFvoI90ORcu0E2ij0Eubm8vH26vG1i8L11/4U8BDq5vFtPGz2uMqK8aBqFvHboCz5WKhK9RUSPvYnw7zuVUpE91eeUPNEG5bzrJ9m+L40tPZX7YL1vTb48EGESPLKysr2uEju9dzJzvWn4GTyvdx69y/OZvS51krz12z68dlUavf1QJzxqYS881pDpvb2aCL30Cfw8J0yUPN0gnT1QwOm6q/QLPMYO0jupwAM9BaC/PBi9aj2suUG9arbhPJNQlL1+Zze95a0KvQ9aYLtTdTO9H5d0PfDLFj2rYO094vSwPfI4Oz2g8ZC8gZOfvTFW1TxE7v67jXyAvEK1iTujtTU9yyyIvXsvwD2T+mC8XvwyPLlJA7sK5+m8nYBDO+AZBT2dM1Q9B3kpPa7pjT3bycK8bG7GvfGSXL0cbmM8uODFvTw1fb2IRy+9gAUkPTDR/LyGsPa8h/QnPcvyebxO9cq912cWvO2nZLzTsFA9+JqAPcmXWj3HrQU9ToMYvIgsBbxp96K8mzJPuWNxoD3RQIC82ulhvZ2ibr3mmPG7KGAZO5i2Tj0ZjQ08NT52PY9kBb1Homo9rNxqPQoijrwD/t68tEZwPbL3fLz9V7A8k7wnvdeE8ry6CMs9YLCPvWZtAbxO7226bUjGPXPpYb20QiO9jqtvPlzl6LwIvxW8tn2/vPRowb2dzCK9nXKFvZPa5Ttm8da8MRbIvBNmcz3seUq9zr+tPSJ5s734og69o91bve7lA77GU2a9VraPvV0PqD334TU9Q6XoPCn9zT0c2U09ghK6PE8zQL5SCqW9/B2QPGAc+rw1yD0+UCdmPcEgaL2HS5e8uh9qvZa+Kb3kxzi9XYXlvJ4x2D3nVJ69M3gEPVpInTsFBNG9",
                "v5aaPSk/sb18Mky+A0vXvASHfTwvQmW97n0dPdGC1LzcGvI8/BA5PZUwZr05mJy8nC+nvc/QNr2zj508jzHOvfVrvj3uRha+8UNOPdOTM7uy1IG7WveuvclG4b1wjVW9pR4VPA0T07seG5M8pd1LvY9+Ob1jfxM+O88rvm7qg7244a+9NhXrvNLV07wtN669cE6DuzyiWL3U8KY9l/LPvE0iiToRafy9RTSIvemJWDzjEU49YiehPUZkkjywuj68lYAgvVEBGbz5ZXe9vC+LPczYr722htm65QSUPfgJDTy2s6a851evvEEebbzZLUa9n39QvT5AaL2c27e8ewEwPSjCcj0QQa08LxyHPd0V7jsBLvQ83yOTvHSUUb3MhRk8SbyVvQkm8LtNuTe9Ys1mPc85Lb28b0a9hDcvPSe8UT1245k8PLSZPMBydzyGDs09hDoFvYdfXD2yOxE+fPITvpMJBj0SW5U9TjTcOyQd0rsDWHg93k5IPrdV1DyVuT69lWGqPWLBITz+lZ89wGi9va9soj1CV289lGwJvZwjh734jfc8jamQOx87iL3fGum9fR0svGiqJb7Iqqg9n2SGvf4QPL0jn8+9wxJ+vT77qjyX7fq7OilVPfbXpb3Lmk69xm58PB5aE7yPvQc9hrgkPdAnID3kAnQ7vA3/vFiMyrxJKpO8lWg6vdjJIr1N8Xe8hStbPLLsKz06Lm+97+kEvfK+UL00WhC8yYUDPD8VEj2GNo+9Iw5FOz/YOb3PLX49zzpAPFBoQz1s47w7sV34PLRaWL1GYwy8e3WhvCLdirzeLpG7ekQwPfzQOD2rSYo9CKNIvVBmeT0CNbc9bfjjvbpmPr3Q0y4+glo4PQfxpD0BNxy9WhgtPYL1sLx4eak9yKzLvPAtQD3tA7Q8RLiCPbZvtTyJkEA9c3mjvdwgmb2NtI89193JvGYjJT0Cxro9FHptPKju4rzOTuY9TALgPDYKWD0n1TG9Ji4MPOhJkD1uiLI8oZcTPZLEDT03oDE8",
                "7ZoPPU0y7Lyb9e48q3drvRSOub3io629of+VvKhWTrwCQgU9S2WqPVm5o70N5Uk9i3F6PXTY87sRuwO91AjiPIK8UTvIuX06hoxCu4C8hD0nty09u3SlvRbvB75DGnE9SOmVPel8O73wIJG8bs1rvbldgz2HpC+9ZhpLvBvQHT6zxac9sFOdvISv1T2JuGe9zeqMPGdcrL1kuqi8o560vIs6zT1HIjs7kgiKPJjFfz0EbL68a5yXPL+0bjz5XMc7y3gIvce947y5YNW7r8QZPR2uCj4TnLu+8bSZvEatFD6buCE+uNA1vBRg3TuQTW29jfxwPF84d7wrHHc9TJk0PBw5Ej319B09I4FevB7KHT1N8Qg9jL3+vJ32hbvTwKQ79pejPT+3Bz2VusA8A1ciPElkqLyIWoY8DvDPvRTm3DtO2ZK98mnsu+74DT2+ZIO9LcP7OXSeNb1jY8E8Vi1NvM+mkD1PWOY8RYhOPE6dNzxktz69aq0HuniIJL2C3hi9K/w2O/88H7yenpK7Lx6IvYk24T07RQ+9ScW3vE6hmj1wVvW8q6N1OZj9Qr2THfE9BogLPAXzBr3UIXW9WTDovH05dDzSiRw9YRxNPUoJ47zdb8Y6PdumPdpRXj1c62e9eF0fvSOPz7zohIo7IgQkvvPvz7xjQfm8dQb+PM7z3jyUhiO9+GWYPMxP2rxPOQy992oQPb8cvL2sSGI9kqi9vKnKPr2RFwc90GZsvN+6FTsIa5I8ulUEvIu8ybv6Jia9WJQ/vQh/VrzciPa87AoEvfmthT0IBqE8cSMovSGQBj3otzi9QLonPL26FL27tcw9JiJHPfw4pTwUB5m9MPMnPrrCwLyh9No8S2V0vR4sAr4aJFY9tZtiPPmPOL1UZt68p62LvCwQcT1Zh7Q8dkhMvVDiCryQ6H086Y8mvTZ+XD1wNxI87/0jPajby7zru348ejdoPF6gRL3bc2C9GJABvZot8bv1y248DB5GPSb0XLyYvbI9o+eiO3DfvjsfBve8",
                "bTCqPQ58Kbxy9vY9t5gNvJZwuT2sA6I84QWwPQ4zh70CW928cQDCvL2Vlb2wqqi9eOQqPTgzjD3O0HO8sof9PEA3kzy+uvK6naUlPDnM7zwyoro9rPZ+vXvJlD0RpZO875qPPBkdWD35k1U85ebIvXujibzbfDY83TKsvadWkL3gOim87M+PPfos17xNWRW9LfWLvW4fSL3ZL8o8N44lPRjBN70MYQ8+6GapPCKirrxHsIK85eqLvar++7u7N58885NcvTRnhzw0fzO9kFg1vd8QDD0ilgu9F0gtPcGnGb0f0VK98pEevdI/Yj0k86g9pnCLvT2v2jwNL1I9e1BxvZgdEzs7jy6969gTu/1R1bxqpyC93iQqPU7yqTw/HhA83fVOvPhELTxTLRW9yzD1PNEeRj16Z0e89m8oO2cWJ73iJbE8EESSveoypz3gCY+9qwgyPhR6LLscJTw990RTvfeBFrsciJ+8iYOyuwhMoby4gLQ7Ww3PPaMxDT4GQZe9EDRzPWqMFj2QZ4M9QE9uvVMVHrzFdQk9y7ElvAOZE72NApC9hRjSPMP3Az1+kYG98BRKvcDTUjvmGYa9LueHPUL9+rycyyY9NpjAvQhsuj279nq82QRDvW0Y+L34HKI8VKiyvfW0Lj3hmKY9+yODvtIQPz0S1dW99wTAvXZGoLuHquO86x06PF9puTv/VRg9+6wbvifSwr3e/2C9J+OAPaQlXLxACfG9QG7kvAocTj24Jxa9otCVPJoQ+rvf/Le7Mq5XPBEANbjdYRa996K4vXvQgj26RJa9o/rQOu3FjzvWlqe8fa3KO2pdbTyPKFy8waHrOwGRvLxWzIS82MECPR7977t3RLY85IngPVS6ubzMGHM9ehrPO1UQA771pW26PcInvOb6tz3vXXW9tjqAvPIBd703K3s9I2sBPSW9ELzoyoG9e7TmPAA4W70r2KC80CihvZcbCDxeAXq98oaKPSHPQbzYMjY94hahvJWH6bvoDoQ928qCvbl4071roie9",
                "gOnsvAmX5zyZTr+98bKIPXrA2TwcYvg8XuJyvZjcKjzayBq94MauPVlUejxZYC29VHR4vRSLjT2Irss8jUe5vKYzPr1/SfS7xzQbvrCTtTyZ+q29oeYNu7+/fD2Px/479JwnPahEmTyRfRm8uHFRO+11aLxfVc87U/QrPeKT1jzPN828xOJfvafNID0Ju4O8LDCRvM+eL72x48g7LMahvbYppL1TK4m8DTvWvTingb2s/D69atBjPUJTEz0r05e8pylfvVLpAj3scPw7kLtpPFMQHT1C3dK7syWwvXIjpjwedtS9IJ7Au7I8DD3XOFU9cpiPPZ5aETpomQU9IKn1PHp8UL6eC8e9YP8CvgBLszyEa5G8RKG0PKoONb2OyG68jtXau/mtuTyWjwo8kQlfPOPfGL2cjBg8VZloO5m8qjyc7j69FAccPVbysjvd0tu9CvFzPZxNkD2CuVI9gWscPSu0Er30lpa7isZQPJCyoLxtDnq9oEYfvcLOk7sLniW9o6E9u3ochjx7aDY9nGdxvQk3Uz04/z69o4D9uyrVXLo8htw9ic/BvHcy1L0se5G8bYn0PRERob2+eqM620WZvYd96Dwluce8Nc6rvbPMmr3DYCW9szZovBStM71wl3+8A+hCvYL4HD3vhMS89gymPUAwC76uNhm8+TcrPWADqLwlnx+8rlxSvATPtryCZi+9FasJvfESuL12um09vuKZu7qL2zxjjkC9CX3jO9i2TT24s9e8SKVIvcKL/7xiFiW9iQZ5vOEfQr3sWBq8vkNNPDxqjzxj4to9ZXdOvYD0aTzX74s8J0LOvDCeAbypu1u8CMUHvAQJ4TwOifQ8HUpOvUWDB71hkD49GS2OvDtqXDt+NLO8CWWyvYeHJb2ticq9C5h0PZxYRz2oeBK9T+COvZ2Muz1YdAc+mY6hu6VYbT2PxkY9Ue5xvTprCD3qGAA9GZCxPC4bvD0v4+w7670ePXAm9zwZZTQ9T+09vcGslb27qxu9swLGvd2MgT1PFna9",
                "UsmEPWJKDD7+uum8QqIIPX0AGD3XVIS9Q7sSOrqgmjyDtEY8aDJSPBbdtL2CV4K9yr9WPCRusz125US94Xo0PAM+nTyKqXg9d7NTvXDHTj2gRsc8tRn1u/TcYL3t0lQ960xwuQgDWT2eJo49Zx6ovI9Wbr3tSpc7QgDCPeJR87zw7J+9gP4sPBKL2ryrYaq9TP6ovY52GbzL7ps9h+otPUPKtTn/uv+80o0bvVjKLj2ANiM90S+2vIw8kT1PEIS9G/nrvVrcEjsDZrO91+nWO6nHRj3XZLG8Qi8LvU3fCL4enmc7KI9XPVM2pr1KnwG+pzYXvgosvL3JakU9ftrXvIS9RT2hT6o9ZIGYvbzWQr3vO9Q7DKpAvcpCCL5KH4C7Nkhiun7knb01imQ7FCsOu6Ly17uEdDQ8mVAlvaBmkb33BRM9cl5NvVS8RT0IjIQ9YwYsPcw0krwkD268ZuXEvPcb8L1/p2+9lnT+O2/Bpz1RLe+76tYfPW9HV70ZQKE8xKu2Pf2XOL3V3Ey9wAWoveoFJ74zHM0714I8PRlIyT2/ZDe9lRfTvd2CKD1t1E89epIsvUyWCb3LpPg8ZdZuPKUWezsMmau9tktqveNR5rx5rxC95KEZvNtDbD06xIQ9UJCzPfiCK710cZY9OJ20vP95KryzUno9dRwqvfA9mD3+9fE8LkGKvBDbabyXTqW906ZePktrQj1qDjQ8hJ4BPbJj2T0dzHe92H60vaN6BD299fE8roxlvb7ryLlZA0W8TAIMvHiuCTshDMI9s6uXvOP4H7t/0hS9thHfOxhJb70wZ7A8aS/APB2Fpz17IqQ8iAetPCY3UL3AXzI98DhMvQWzID1PHts7VIQLO+ZjzTvpnhq8FinWu758Fb2znQy7QpPVPBEghbyr7JW9Yvc3vdgekbzVq6A8xRgAPXkuQD2slQw++z+cvFcC2LzfFyo7KXwevQVXNLxbh+49GJe2vC61ujv26K48Iin2PYMBYz2wE5I8c7jLPXfVNrwZ8OQ8",
                "qVuuvHFA6DszUXE7KuiNvfnCzD1FQRy9HskZPRpVJDzc2NG8HvDmPEmItb2ffsS8p8roPGY+u73mTY697iaUPJWUkTwtoN+7o2oKPB4cezxa5BG+EZxBPbc6ij1C9eS8tj8HPdJfIL1soAM9Z2yZPcp8mT3Thoy89ry1vcJySj2rWRO9bRkKvbtPbrubD7M9xdsivMTORr1edEW9Ofc1vbdDQT2NjeQ83J0mPQtH9b3cCha80VPKPdK3pj2u+lO8puDlvIB8DL7lw4Y945PVu8/Cej3FVhC9sfp4vDe7ir3xiui8MKH3u6Itjj20m+I93ur8PYjDej0BwL+9LoPMPWrHAL10F8m99c/tPDEwjrs3UGQ8r6DuvAuqgbv5u4q+q/HlPKS9JL0klXG9GUygvTeLQb0XAd88cp4wuoo/OLvdSfA72NZaPGczPz2fdcA9qn2rOzEM9jwsc2E9/3hJPXtPbzwobeW91NrqPLpMB73Hi3I9uW17vaoI8bwcs3w9zeFkO4jw2jxgkiA+dZJ3PS3Tqzw2Fbe8aOumPAYwkryU/sw7Ix0HvXxLgbvvuIW9RNxavKsFtLw+ZiA9CU0avfebLz1DbqG9QOUXPQZQrD2DkhU9o9LQOxqNRz2vHR28fvGfPStmqr3fDC25ATu3PCTvvT3Wk0c99v8QPZXzEr0UdgS9NGOqPdv6zbxuDpM81kfLPL9hn7x5xrG7nxeBvAg9AL1QpaY7S6jcvINPxj1t4NU8FPt6vAfajT12OkK8AabJOw2gGjumIP28EiDnvNSzjz2Q7yC9oOsSPFyEtrzAMJs7VNp0PRP9Lrwtk9O9qKLcPJVJCr1m+E+8bvAYPMu7vL2FcJ49hodpvKYygLycyK89WcSIu5eF1zrSPIK7qlW8vNmE1jzVhWe9hEBDvR/oajrrw4G9UojxPObn2bvQwZK989BFPX9VND2k5om8eH88vRypNr3Mio29D9yPvO8KeDvbhRS82ZIjvQa7Lj2ln6Q8lnqJvXG7QT0cvW89",
                "4q7lPDWINjyWHl09zK85vbhgZD0E9xu9K49bPeSFg73xrm69b86bvMVpvr0pzsW7Fh4JPsQ4i708WC+89GGKu6UflD2MY0g9lYU2PcZJUj0qbom88GeOO25mqDnRQ6+8ohI7vQwJZL1Cg4M9qSdCPbfUFj7z44w8tX4NPaeGU7q9DKC9MvV+PEQr3Tw1IEe9LcyxvCmm3r0l+rO88eOmvKGPLj1MbDe9r2tuPRsKAL53myq9b2siPWQJ5j2wgMg8xOxKvHiOTTxqWJO7mlgmPWqbC74yUQE9+5xvPUHsubxWaC08AdpKvSNEYLx3vE29dF9ePhWLiD3iL409x/r0vQC6Fz4eMkI9gbLaPXM8YrxOvtg9tsT3vOhJHr2p5dG8t6uMvTEwuLzpLPm8v33uvYB7Mb3ugMu89192vbvhmr2TJKM9RSSDvcQq3zwIUPO8cdtaPIEECL1LQju8oyckPG2KSDwwHoE894ciPcQbOr13jbG8rF7LvLBhPL3XWYK8ZGCJvTeaRbukauw80/+BvVCW7rzWz/i8bjZDPItWJr3hrBI9d10jPSUivbtxZ9m8jMdQPGXm0r15rEG7VQGoOB51Bj1hrAI83KoPvF0Tq70RCkW9w5Q1vcnNvzyF5zm95BtLPSmLuj3kskw94l+FvW1sRT2Maj+8rH3NvGbGtDx9aBs97VO6PPg75T3gmIG9ARCcvRuDaD0yrRI8D+BvvVI9V7zPWLw8IMKDPOxedz3tnEa86x7/PdTfDbwwlCa9SnHnu7cuzTzGfoM91McPvWXcDr2OhQu9a3CevfnQbby1oNG9Y/DEPBchBj0bQdG7g9TcPCWz/T28yGe9mi+xPcW+5rvfAtO8BVP5vU1HPL3HgdS8HlYTPlPI6zwEOvc8XmFwu95klTz7WuY9fpjIu/tEhL37VVW97MkHPZaBbTzb3EC8iEGsvG0bkbwjize9qqRtPbaXHL2DHF89SAu9PRqJ8rwTUfU8GlwpPCCvxD00arG9FNYWvdRoULrQgR09",
                "BG13PVgwHz223ui8OsG/vXVznzsAa4u8BGGCvL0LAL1wSZE8wVnNvaZxJ73RiNW9EgRBvaHjF70aA0w93qBxvBziY72xgqs740tDvbrppDz5DCg8fGvJPZWQv7wXOjm7jEnuvOXU5jsuzHC9nxvGvTxYAz2HaSo9rO+lOpElOjynDt08v0kWPdMVSj3z1lO97heevMK6nDyIJeU8dJazPM+VjrxySO68EnW9u9t6uL32bqY86+8RvWkFQD0Neci8rwRwvGW327z79Yk84ChQPQTnBzys0AA93AV0u4EpRL4lu5+7sa7nvZ5BGbtywfo9+pCdvCZyFz0sZIi90Cn+ulKwVrzQoPu8sJA1PeN0Db1+dQc8ccYwvZiYRD3HqV+8o4+lPf47Ij2X5e471k+ePIDEPzxciAA9RBgSvQ71oT0RPBa+9tMpvSWE272qKjE9CfqBPAUZ5LwMTXE9T9k2val1gryu6xS9WHe8varaYjzYPsy8lYDYvH2Koz0IpPi85rm7O4iwAD66/Dy7RaAnvL1297yUBGs9bXijPW+3VL1B8uo8xllFvbTbULwK4i28YbycO1b9Jb2wJAi9t74ivow0gLxa2NY7orwpvWguh708X4s9/funus+7ijzGElm9mHwSPWlzsbzqzBw+qO8PPaUPw70jf3M8DBYPvXJCRD3PMJC86NnBPaUovjwD6Fg94i7RPFy7Erz4D8A9Fx7tPWEvhrzJtY296tUSvodUND0c+gG+ph1IvqCbJDyYujY9TzKvOwcsXzzYkB4935DbvRCs672GKUi+py9hPFHEMb2hcLC8b9WLvYHGhb2Oasm6KT53PD2/Ub1oP767HZtYPRfq4D2vFAG9Sk4lvQTdgryLoA++NOizO1XTqb036/u8J2McPQMahjw6r+09fA/IvAU/IrsJmRe9z+vOvLtpnr2Cqho9XRxavH8ys70FBXY9Lx7juy7qZTzklYo9rc70PXprrb1VUKc52LUZPaUiGDyPXYC9ctiHvWrgx721J4m8",
                "K8ARu1IYoDxlDoK9+mwUvFxWNj0tAi87YEw1PcPHPr2415u621Jevc5Gzbv7jo06/hGYu1UWEj0S9Jy7ZztNvWtDArwtC0q9lYHNPWnlpL2klOs8/EsSvbMZKj2ayem9YdqYPVlxYL1WXYG9E/whvsIN+L0NTmO8+2V4PHpAAz6904K89oFPPmNHVz3TFt89RDrRu5nrvbywUzA9zsSOvBgg+j2P0pM7WkcHvWfyFj1+cBq+YGhqPQIpCLxjwKg9mQO3PGWPhjwFhRK6wMRAvULqpb2glpe9zkFqPMXIAT13Q0u8faptPeasUzwEFD29LLofPDK6tb0Zl6a85Q6MvQczvbyPAca8aJpGvoEpfT2qI7M9z76MPXRwKr7qQ3a8WiKlPSc3Fr358s48HROfvQQufL1pJmO8NsWsPc5qjb0rCU89Ni6QPaC3mT2mN4k9Hs9XPb57AD0H0Re99xDmvD98szyEs6K9sou4vbqaAb6rSgI9sghivbPYVbxt8lm8g2chvQkHgLyM2vA9MUQEPUhHNrwXAkk85+yLPHAndb21OsS9NiZsPbQZmTvFDiY9A6RCvRB+qz2L2pq86VrdPUtf4b0+1a89AjfyvE76or16xlG9/SN/vMBXdr0f8l09ckp6vLRyqLx6DOc9gOkhPceFpL0CNda6bLKDPdaUwr1o/NG76ofWvaLHvT0OXv28yT9GPRK3W73weCq9TcUVPZnBtjtJPoO8CGt+POd15Tw5QkU9dTGKPUrdWL1EoOw80bsGvgd06zyS6G89io11OzHhxbvoLVa9HnsmvrBcqLs+nVa9i62qPBZkQT2LrUq9dOnBvUckej0rqRs8fGdnPRZhhTxximw9wqRdPEUtDr2Cagi97tnPvWsVHTwPJP48VT0UPhIq4b23p7u7fz9BvdJPaD0Kj+28TUZAvY7zBz1GKd66jw57vYTIIb2mtwc8RyaqvYL2n7u1bgi9ZxgKvDCBFr1RdY+9vlWevdUWQDuSXaK92s9GPYn6brxIl/g9",
                "yGofu2J7Br1wXz07Y2XlPDZAFz75J4K9qAYPOoSTvr3Oypg9kEaxO/zVl72+zfK8N99MPXFcgb1IM6o9wlIqvQhpfT0LNVq87BkOvcXIuj1IsCk9cx5UvZzf4Dw7+Ra9BmsQPOEbrr3BTlI9OGWSPJTGOL238fY9tmtXOwJYgj1e2RY96O+bPPd+ljw3rQE9AMkSvf3byrwvUyY9sZg2vC+UF7zDgto8GZcSvc3c6DwJZh89jGuZPJbivj0GZ2S9m0ftvXsApDs8sO87kZYvPPgRcT17JpI9kacjPRt38b1UluQ8Z9vJvX+Dcru23B09lYmdvQRgBL3ev6A8upkwuynzXz2PgVo9dTQMPVL2rbuPvwQ+LIuYPEiuUb0PcMG80BhvvSPsvjs8Qao9fvUQPJ4vmTx2YzQ8gyzmPFexkTyoK4U9yNQdvWVEDr20wHs9ZOyYPADwSbpKOtI8g5fAvBYZajxEuqG+NfKXPFizHLnpgWw8HqoSPaezxTzD2Aa+0CVYvej7N7tryQK9mJeNPfrWTz2hNZq8RTsKPWPP6zpS5Uy9kySBPQmfBr0uELI9ZGsUPe8gxL1sLEa9vPG0u125+bzUEGi7OoRrvA/2+by507C9AIN9vA/AyL325Bo+bxm3OiFVbj3Z7tu6vDpqPNRy+bxqGo69U33nPB4/m73ISNE8D1tZPV8dlD3PNUA9zdo2PXGcmT1pINS8s9eKPYHFqbwONqY95jrDPZjLCzzwVSg8VxIRPaSXW7ycgxo9UV8mvb3ysr0riAo9RffNPH2OGz1AoJs9Zs4lPVB2Mj53eAW8cZr4POTYgz1K9Pe70wkvPT1yu72jgRo9ctsFvPq5QD0G7ag8+1yYvIkEUbvX9be97XMuPLDRKru6DwK96tgsvfDHWz28VTA9k2AuvH43eDzErm49dv/TPI84nz11z3U85cCjvLQudT1AJoQ7oB++vVkJP73aWB48UH4GPV+5/jx9+ba7WofUPDpqLryligC9wooZvQTJgLzn3A69",
                "KNAHvrfTkT0xpAI9xE+Lvd4MTrz2mJG9394VPfKteDy0W0686SYmPZBFij1OhHm8mV1GPcl6bL1kiG894mw/uae/Lryz/a09YUM8vROnpDzKsTu98O/7u2Gwhr0n2hu7mW7/vEAxsb1MBa89K0Uvvdu50b6/KFc91B3VvTp66j1kQAa+Y27OvTl62TvnOsa9o+M8PQKhnbymtZS9t7XVvB5VnD13wpo90PwcvI/QJL2gSnc7ErIEPeDErT347Ac+wLUGPCC2EL0aOaw9VvsuvXUDOT2XpFe9uPtVOUZHujsamoo9jlCAvQkyhr3AOcQ9QoDOvLkxBb4HMsi8xkwyvQ6/mzp/ApY9wYfsu6K/iDztb6s8PekRuwrDi7tp6Xe82yaxusm0jL3z5W28hzBFvYr8Fj5KXRu9sspyu7iEhrsxJCG9fpqlu80iTr2soTW9pIqYvQ9Znr2Phtq8qs05PVmsAD0V7Gm7CEQhvdg4IT2kltw8FjfvvPbRpbynWu49F1gTvYOc2D2c9CK82m/VvS6iaz3Gaeu95A6+PL5Jub1kVwe9T+LKuxvKNb1ZlSY9E5HgPDiLR7wsW/U9znMlvRlnGD1GJ9g9F5ArPuS1XT2lGUW9ZZK9vVQz3Tu59QI9rT2WvcIBq73YFAq9RKWPOxn0Ur04WUE9FL8LPWZqY72AayW9rbQpvX/7Pr6RrDq9lEbdPNxgDbwsEPs84SpovcHHcL03iJ07HBslvBhsmLvPFJi9VvsUvWbqpzxy+JU97TZXvQ+vpTwAhGk8TtIFvjZoar2gXPA8YYDBPOOKzz1C4+s5EsqUPf4u/zzP4Fu9gGe9vILcVj17qkG9akTmvN0NHLzRhtI8tv5UvfWMCj2myZG9EEiIPfGPnTweEo88x8QPvYbSrD3rmrQ9gAkaPewsgz0Y7vu82qxjvGs+ojziVnA7ZIR/vW6B7j27hpI9noZsvdlJjrzTpBW99hdPPQ61lzwhUk68xawKPVLwZjw/fby9Nc+uvKOJ7L3Unju8",
                "AGXQPK2XLDwgWv08UWGvPPRTdb1bV2S7T6WsPJR2f7zD1cE9jBuDvXgsST1cmSo9/1K+vGlH37uSqOg9DhwUvKwu4r1RFgM+6YK+vBVFjTzbh+w9Z9DlPE+VOr3omVy91mkHvX2ewzptwGU9hSiTPBIDCD19iJM9m36WPIbtcLyExAY9gPImPaaruL36Lp48dqG5vcpATz0esnG9Vw+VPeWP4TyYJrg7twkJvYfBRzzjVIg9t/ifvXckTb0cUEm9cxqRPfZCzDtsi2Y9Ew56vfD/jL2KnNy8gjthvCanFD2J33m9kqrIPf4FgzzPToE9nEdqPfmy6LxfhS68s4ULvMKwNT2LzlM8iTAKvDso7zxxZIi9ni3HvVO2171LNd28opHFPINUnj3taGK9qjG5PSRipj2OHEs9vI8jvadp9bypWH89b+CpOy+karwT2mI8eJ37PE7EBz0xj4M9JtQmPeRZiDoAT0W9PW2EvUFj6T1e1ZW8aNYlPOW6CL3oZ8+7UvnTvXXHML2x/bU7rZQdvUOXYTy5Tpw9fyJ3PDQ7kb2XmSC8aziKvJZomjuBJfu9/48xPdG2OLtvsgU9RMsiPfgCTDx+Oyw9FkARvZvioDzkhd48RweVug5dhb1v9nA9sr6zOzs7aD2TPmQ8QqyrvXFulDmN+B280jyovT+qFb2rOSa9MLbYPc2/V70xKY29z0DzPA2gSz3DuKU91nSNvCmjZ7vbLiA9zJnqPHbAGr1CGU6+M3O5vUTg773jVV08gqaJPdFQ4TyNt9u8GOoFPcw0CD20CmM83FN4vVHBab3ulKI9qjwgPUFU8L023/k74tXIPEzXjj3rA6G9KbvvvCdQy72CPzO9Gf6pvCoqjb3nXfo8lRo1vZ6Dnr3B5ZU9F+usvdnTur2JGqs8U8lPvaJpJj34ByU8zSwgvJ0IKr2IA7k85fjBPHTFtLy0pzY90+QnPY4CM728o9U90niEPXB+JDyw0NG8Wq/RPQu2jbzcjsI9dT3BvEz+SrrZMBU8",
                "UrghvDHyXb2BdxK9Ac+qPROMs72Yupw8GIstPfjs2rshZyw+GX7FPJHRITy0mJc7IPwDPi2KmDw356A9IlQmPhc2PryKwnC9+e1tvWS/pzxlWsy85SurvGxRcb0dgNE8QPQXPpdGwDyLdLy8va7MvE731Dxx1Re9FJqYPOpYTzxiKna9uDiVvEasfTvHVGm66DQePSGDyb6LD2c9Pr7MPP3cF724mrw8y6r4O8WohjyhPJS8hokWPUrcqD2gVJY8JnXEO3upJbyi5Qe7i1zOvZsrfT0GAxK9JxxuPB3XHb2y6Uq9FDWLvP7PPz2qFSm9fDoDvFKTrz1uW1a7puAbPUlgy73DYuY84xOpPWa9gD5s2p+9cxMIvOxuUz2D51I9Z1l1ve74rjp1U0A9i01IPbSSjj0Jbdc77l0xvZDdhT0DpZy874tOPe/TC73eZpk9dIXvvN41Bb2eA4U91tIYPs23qby/MhE9+kChvP7z3L2pvvW9ykpavS4FuT1N5K+96FNOvVleKLyD3BG93AKsPdXOCL3tDgy98nXZutR0gL30prs9ANsBPX7lxrxOFr69GnrrvCvzpz0lUpu9Ie2ovFkHibub2MK6hKwCvUyIJj1aWxQ914tEPTGcKz2rt+O8IAf9Og431LzjT4s90rKcvfXdObuwYo89t3jhu2z7QjwY/j887QBWO1Chx7yQu0q9kuJ5PTUKqryAkru9YxuAvAnR77y+IFI8IDZAPUpYqj0CL9I9VycvPfp/kT3v3wy9Yn2rPJtuOz0HR209VkYfuwKoBD2erqs9U28XvrqBJb3eQC69wRHaPEy/Ir1JlPq83MYlPqlhwjxmS+o8vCWKPPeNrL2J+us8sZwnPXBY+LywXA69vJp6vXSPeT3VcBW9WbHSvlRL0L2p3Hm8ZLcNPfl+FLyKqME8mNR4PIG/+bz/eRa9IRfIPGgpL7ymc8E7r5gxvdrxQzx2ziu9bk6nu2a75jwneLS9iC2BvV4ZMjzRdmg7suQYPYdYvrxWdl29",
                "7AtZPOYP1rw4UxE93nydvF4PITw0g249SHQEPCr+rDxgNVE7bjSDvXW6yDxzhjO9wNdivajgYLy+CEK9/bgtvOlugT0gFym9kdgUPnCKDb2jaWw86Vp8vMSSNDywTZU9yZosvGPlxbz75xq+NhVZPK/k5LxemAa9l7NlvfZsp7vlXaO9P0OZvMVwhjxnQye99kGRvRH1zz1w4ai9G6J5PYxPerorIKq9Os4UPaDGAz4XUju9Clm3PVUutj0LgyA6SFvFPSCCxbxYmIO9iPSqvMwbBrt2SxK9rUeOvKAqHL6zUFG8VaoNvYifDb15ak+9ByTgPHbkBz1bWF28ao/MPAt1tL1lie48YwcpvK82/TvrPYe7Y83xO8wPeDvyF/A8MIJ9PdWIyj1h2cy8wlb0O7XMZbzCqBk8IW2LPBL9CL3wZ+89WWeVvXPDMjybUZM72KN3PUT5p7pEpBQ9dExyvWgiPj0BhxE89t2xvBkeYrxIc5W9NNKOPPIMILzx1Kk8XwdOvVJhojwdR2u8krBEPlliijlU2jG9k4ZVPdB0gL3lgge9wDJKvScS0zzzOpK96iJsOvTpH73uULa8sfNMPaZkPDysA8g8uxWYPECyxLx+PLC9Y6FMva2ENT1il7i87iBcu6iItTzor0I9skalvE8lDr3mi189beyCPYbH07zXpIq6zYFAva/5I7pcQWM9jnAIPdT8jr1bfpi8ZACQPFxQJb1qjEg+zRI5O1qML7yEHII9ya82vfHGx7xFo9k9r2tsPEZEaz2zqgA9S6waPd0rJD6oEoS9B0c9vXqtlr2HKoo87ps9Pj4BGj1i0sG8tiyGvfXKx70927a6vQvgPeGC0zyIe9a8QDWePbRq6Ls2KuM8/jU1PKk+NbxhS169jLHVvCiZQT7/dpc7c2krvXvBoLvauxs8CCpsvNIlO7sjGhs9+qmBPWlWhr1aLEw9rZJJPc31ZrvCm7i8OrKevFu7T7x860680CoivUl1Bz3cQ0y9MjwNPYJ6Cj2aooa8",
                "lBEzPBsUuTzbTly8oLHqPT+NY7x5dwy9ZcCgPanxkj1+ghG9HqTkuzgqZb3qzho9EV9Pvc44Pr1tx1U8nifeu0SFtD1kKwO9kzwOvnVRWz3u0vQ8wvvKPDsE2jy0VuA87+SLvOYFLT5EFw494xgRPREVrT3jTqS8uinZPGqlQT2oIji7e35wvTMY9z150Nq9GbrwPOw48Dxv8kO7W4FlvBLPGL06pnW9cRlRPOgqqDyyII89zmewvQECGr/osgI9u8qfvAb4Wb0jn/k9FmdMOsp6ubxcLJS9WACZvJ5VQDw5m8M7YPTAuylzCr2t9Ha7dRQnPT44LLzhszs9mJzgPMc6PT0PuAC+dWEJPfq8hT2j3Ri98+xTvY+9rbzjx0k9T/DXPN1XxLtsZUA9VJsbvbI1sT0HJDg9qm3pvG1xR70n3369sXE1PEA7Sz2LzJM7/AyNPWgxCj2G1Zo8kBPfvNbe1jxN21E8hqrsPFLu5LxLejk9iGIZvYBCm7xDH4y94uXlPWNY+7xLFPk4XfpAPTw9Vr3scre9o1uePR8YTDzAtVq8vFNKvTTT6LwpkZg9EZ6fPe6kyjzr1Vy9tQB4vNRyXzwPMbq9LbBkPZOGR7w6QKG9jCOyPGR2fr1GqR69Etw9vNV6gT08y/S8yaVMvWEQXj3c9IE87yOSPW8pTT3DCde7bhqPvFvCdT3tt3a9/RfUPKo7lj2QWFa9jTYOPdGSuLxhdVQ97JBzvTByUb3vdNw9QW+mvY2M+DyQ7Ze8srP6O59AwT3FuES8zigBPY6dDL2xLVy9lLWJvJ9PWj0EyZq9DoddPOUuI719HrS7VYd5vRmJ9jwQoQE+q4X4vRaslLvgY9S8jA5TvUKd/LxSoYS9Gl25vE4bcrwHkrs9QdOrvb4xQ73CZAQ+dNTOPBrewT2C6sc9EgTqu3qtSjxMmaI7gPCBvk2uK7087a89vhjqu+VIzD2pQSk9BvuNvEoIsTxqqRA9L7LdvB42WrrcrSG9xASTO3XwDrxGeqO9",
                "Bga5vdgTvjxWqaY8iXcEPeeFcD2CQGk8xWh5PK3VgLxRzvE8qpzRu2ORUb0KyJg8HZdFvlurcDqP0Mo6WzDMPIcgl72Y+Ei8Q3Bvu0lksbu+OiS9f+08PY73rL24E6Q82TEbvaj0ubzSYzG8+DWsPpTQDD6qRG+9jLvFvBm0KT0lnJc9UNCTPBAdnD1gJUm9bkO7u7Gmqb2PiME7xFTsvPOafrz2UpC8zYlfvccVhj17GzM6eqlhvcX2Dj0F/JA8x6aEu8X6Zb0LFcM8PI6CPcIETT1s8uM9S+W8vYGYer0Tzks98EWVvBD/ir0eXoQ8U7EDvU8d3jwD+Ok7E66VvLdU4TzkHBc906NjPBtz77tQjb+8rG9GPCyvG71hoIA8cp6JvEnLvzw4/749QTpLPSWkE7xuNyy911aXvC31Ij2Inr47S5k2PAhfJD3d7Cc9qweivIYGqDzMfFM9wYvwPdGKjzzVhaC9AqFWO8bj9rzwB5+9qGd4PYwwbjxeVwQ9JKetPcP5ZjvwSuU8aDrpvJu6oTzHnWs8il0mvB7rDz4R15U8exWpPYowkD1Ds3q9LNz/vG+pJL1Ec169HnmJvUBc1jteMnK7Sg45O71ooDzNH/G+dcmgPIpsdr2TR4u976eyPTDqgbzI4uu5VdnYuyWMKTt0s2+8D7iuPKwCiL0ZqqA9Tnj4vEZG0j2sYRu9AsAZPYnsl7yD9vA8qH4GvQ0lhTw6cpE8vwTnvMukH72giE68Jnl3PEhRtjtCJha9kAmhO23paj3jQna9Ea4XvQd+ZT27B4q9FkObPYeVIb1VCC29H5uuPU+Zcbvoysc8BSk6PB97vz36Gy05YPCfOCghgLyQLBw9HwLCPU7bFr7qDYW9enXIvJECtTyWw9Y9SuIWvRj29jzFxtA74b4DPTxrPz1/m+u9FssqPYJ2ILwjxZG9fdfBPGhdNz13AqW9ta6QO4z2TD0Lgig9I4/TvGOzlj3FiZ28blqQPaphaD2Jn8k83ZKXPNjbSz0VVrq9",
                "HL6RvQ2ZLz1Wmcw8r+LevOvEXL3B/Je9SO3iPUmiXTwR0Mo9+m6kvUTunDsHCa68cJ70PZeOLTz2FcS8ZnESPU5IVTz+xD48r2tIu7IVSbwrX5k8JLwtvElvpr3rgwG9jT4mPdi7A71Nlos8eAqYvCwLSL2ftr09PP+APVKrJ72apQK9m9wAPW4dU7wV8/q8I5aRvJ7KnTxvZNq832MdveG8fDyivxI9NrEIPT4RmTxNiHQ9gVD1vOVgIjtOJNC756JoPam+uj2OvqI8LQG6vaEjDr2zzpQ9D9HLPNVrsL4/MZ69VcZDPAsVtDwcF4I82PZsPbj8Az00XBy7HyjMvE2Vu73fuVA8NNoxPNSFgT0QvU889buovcDRd7397Po8QshdvZAn9Lq6XrE9DzQSvQraXT3hEqq9vs07vSS3s7xAwdO8gldMPMGeLD0vqJE9sWgYPc0k67zvs2+9DJ2DveKkG70i8Ks9z9WrPZsNvjqCRHC8yHsvPP1SWTzmDIa9ot25uYOzob17WDG8vk9HPRIR87xI+Me9nEbFvc1FY7w+SKO7Z2Z9PRO2DL3G96C38IaXvKWyUj0cWoo92zq8vdbrqr20WFG9P5DXvUhuKzz01FM9FCKJvEGVGz2Evwi9nHoQPfBOuDtqOiy8Ojg3PqabJr7xXiw9sVkzvcZv2jpXtEY9LlVGvJj7kb1xHDe76+s/vbttPz3yMqu78C8cvUAfyTzcoli9xiu+PIHvCj0gogS+/MaHPE4wyrx8C5S8Qj4qPYBzZj0z+tu9ucqFPW8+sj1n6qM8LJZpPT/DPT1Z5RA9KbWTPRQGlL2r0iA9yLYHveWwpj0it4U96esTvihIxL0n0fm8vfSVPd3sd72V9SC9PbnKvei2QjyYm5s9oinKPA9AhL315re82fQ/OzfDFzybQAk+w2o+vSLG4D3Jhy693jLiO7sXaL1z66G8I4CVPNjJYz2NVz09vM1jPMWT/jyedSk99PEtvu7FRD2js649lLq/PYKA0b1MT4q8",
                "a4jxvL+ORr0Qm6M8gm0ivbhoebzoGE49+i/NvB4yiryfiiW9b8wlvepdW72ufFs9oNT0PXJ6mryCkqI7aDuyPZmReTz6tq48h0s4umT3hj3KPRo9fc4MPeWINr3nXtq7q47YvSiOYT2pXJA8MAgZvR9Aqj0Zeog9zoouO3LI97uS+3a9l3bqPCYPmbrRTiu93BzgvRTnU70FT0S9awHjvDxyTb0cWa89hDvUOmkbHD66jpS9fF9VPVe4pTyE7ca83tfsO8hlJT0VQ+m8Egq5OjR5IT0jFXM9c42uvECHvLyFOFi9kuTBPKVAiztGN0a9ozaovUuAar2DRui7AvKpPWMGjD0YHSW+vHs8vdWzkb10Lps8n/NBvY4LgLwF9vO9MWknvH84J7xjmA49RSu0O+mnbL0QJ5+9MXAhPW7PCT5IGwg9QUloPejElT0k0le6uDP9vG1VTb3RIS+9Y+s6O5jXYbz1SGA95BjKvOInobwLmYM9qqfjPRXyY73OtzE9JTskPnLtPzy0X4I9yXqLPBsR4brtQq68XLzhOp5pmTy1Wre9N1b0vGbLgb2AELI87kzJvWzbQz34FWU9Q8o7O7W2wz14DIk9HDcZuyPVZT3pYwK85yuSPFncBj00aoA9UpyAPfTooj07qII9VXUtvZahGj3KpL++fj+OPNBmWD3//A69Wk+hPRjxI74xU6E8g13TPIMpmD2R/rw8pSzoumWyOr1fAgQ9Da4GPbOIxryGJL08ezlivHJeRL2dxMs9uhU9PXQ12jvODGY9mvTsPIPqjDyX05e9kFyrOthbijxmKRw9NmMPvGnof70++jw7V0mLO931Abwqjgy82f4GPSgUWT17fwu+z7VgvQVH1L1h4QG9EBKOPEBtxz01kBO9UprVvNvii70/qgK9lr2CPmytJzyvLAE9o3iMPdsSAT3Mdi2+AqelPcVLO71oluU9uNPYPB2mzT2H6zo83XJGvWz5ELxvpZE9AUvOvJqgVD5kfLg8k8KWvQSFrDwLLBE9",
                "uf0juFpxkT3ja7i7XPqovIGpfLonTtw8xDPbPbplNb2H6zI9eZUsPPZXQjwTpcY9OgYgvSBBdj3BADg9Gf6KPJVZKL2bWn096AW9u80LXbtdpwO9w/t9vBDR0zs0D2E9uor7vIfWwLzbzdU8HdjUu9goP716IB+9nh+NPfbYPz0ZJU885c6YvOg1bTy7sJY9EjoPO/KjeL27H1s9vIAhvia+Ib36DVw84powvQcfzz2Fjoo9mX00PZKbkz0sGv486Yw+vf993Lx98G29wAGTPZTFP70aBoE9h9GZPXWdF73XFaY501z1vJTsp7yWiOo7u0kaPJiT2L1k2hq980LVO2/j974NZCy9D6xlu6nFpzwOkFe8MO5XPdD6RjwqSM67hg36PDLS4Lz59w290G1avViYlDypKyi7nuD1PCwjPD34nJG8YHIAvTSiEb5qwqe+wSpKPRSzJj5kWZq7MCylu31/lT0bol29+DPKu8Xcfj0lETO9meuVvT6HobwR0os8CyKAPeRbWjxTFlu9pHu9vS/XPzz4BYm8s+/cvUqUA7wcjXQ9N5EHvb3xoL2kPFw9UMiSvY6txbtDzdG8AceAvDGo/7ywhSw9j0tIvt0CzDov0AE8Fgg8vSoUbD1MJOQ8+mq2vaKxsrw3wx+9gTEkPZtoOr2U8rq8CC6rPfqAUDtWE8W7ccFkPeE+Mj3vBhU9T2SDPQQmZz1+o7O8wgGWPYNwor1NDXq9MKuAvdtdDr36Cfy8jqxlvQbyszwFzhw8cp6dvFTuoDuwPyI9RCfivSpdEryj9B69sJkzPXjSxLxDLfE8tzBcvbBBgj2MIo29LP3Au+RulbxREpW9wDsSvUn2N7wI2fE9JqUVPSNpk7x1mqY7uM2kPNXnJT36kCI+UCiMPRlOUTxph6E9FG1BvcSXjb0lUGy8JbtrPSuh1zt3QKW8A4U4Pac70jxL+gY9HBnMvN1dOb3kw5U9olwFPufAsLzgOmK9UTEdvYdBSj0u8Dq9mgi2vfCoEbzfHoS9",
                "0y2DvYmIZzwtyGI9tvRvvqzV7zzPTBm9qr3gPdZoST3XrjQ9MEcqPfofmL0QFC48oaaHvZGudb1cPoy801yHPedlvztgwsY8VWLYvDYek7thtNO9GaD/u3IhZrzvXt29vXdnvUn+jL257DO9cHC3PDt5Vj093z69TIM5vO8fgryNfrU7gOPfPQwNbL2uHiU9lQ7ePNYHhzxRIAy9L04AvP6bED2h+Cw8VJJBvSWjuL1tTHG8NsvaPdNS7TwVpfU4fR6IvIuUh7wUw4c8dzYpPR8Ho703pIi6P1J+O8MJrr15Aeq8qDAMPSK+KzxUf/4814xPPT1aALwCBsu8XXO4u0CXPzqPJvo8ojOIvX9oUjvXDqW9O/oyPfhtjbtTvWu9Ayl3vUY8pbvLZrq9wMOLPbgSd7sEbwY93d+QvXDVSb0+bDm+Fxo4vTfRIDxKak89MstjPUKRCj3Qi4e8aAdKvRIOwj2xZ1K+TTwOvRLRbLxDHrW9i7THvJ2jDL5jMvW82xr2vBtzHj1js5a8na21u4slFz09FgW9243zPKthLr0G/QI9FKoQOxjxFrtsOzK9qt2lvY7Xgj3GESg8ifmUvfxbbzz+iJm86bSOvH5N7Dtu1Tw9eryLOx9ck72PHQk9czSNvWuklzyW/Vg9Eo/iPc/CHTwyBpo8Q1KLvPwIk70nncI8fomvPYQDcb1e45+8Pe94vWsA67yuSRG+2fEqPU/rLr1d6o28QBXxvMjzKL2u0eO8XFRLvZ8tir2GuTW9f/0LvdrClLvCYWW8g54XvaChDD3UmyA9/ztbvXy0mz24E0w8dg4+vPN9Yz1Ylg69Ob/lulBVRj3ZtiI7I2WHvPkE0jxxgfg9EalBPW3alL0xsW49rttOvWXvDj0eNhS99p57PUzqjT2V6qO9J84mvRhBGj5VRpQ8hW84PWlPXr2lZXc9PnkwvZUwtj2PJ5a9aA2XPHjoGzzcPZc70tR8PW/Tpz28BGK9QKWFPdeABLxY5Ge9e0HkPBGrzrxp3zo9",
                "4R68vC6dxL15k8w9d1Ogu1BFMj0+N8A8FOOJPboEFLuDFje9vAuDPPAvz7zahUu8JuD/OsLcKTw2lF28fSNxPMyjZzv+jzG9a+i2PK3CgD0VE5K8/Pf4vbxDsD3YAbg8m4LHPFwyBToq5o69+TFfvDU3sr2PKyI9sDYCPlb5qzu6vXw8DINWvWag2j0/eIO9odADPGtvgj1eywq97DnFPFIRMrj/67q7TarJu/P59TxPGPO8bJfWvaHrA7w1CGg93/5sveh8zL01FRk9IjmQO/5TJrxEhtw8x/voParLpL21tN48D7cHPfVdLb1ti4C7XWxwvfWhj70Ks8I8OcifvVdYdT3mZWq95hkEvkLlMjtZNga8I+Gcu0WIvjwn+Hg8UnZwvRJm2DtZCbI9RZHZvZniDb1LqlM8DPLNvRaPmrzxyfW9RY2RPK5jU73iBFG9WycwPALul735viG8edeGPNBZj721Z7A9+IqiPCXlbj5R+9Q8sN9Ava3eMrxGUdQ69ZFgvMpOXjx4Xx694TPJvDOIED3UhhE9bMBcvaZv2rzUwMi9YCYHPYAMvL1zBlw7R4tGPDGofz2N1TQ9ef0Svcx4yrqEeLc9BjwXvkR1NL37Ed+90z23vEFscLuY3CE+xESFvfmCmzw3Ua88padCPdKx5TtcTGq9ZEd7vekaEr2Ll1a9GKm2vTTTRz3sUsu8rotDu5GHm70r/iQ9/iU1vUC48byFGYg5ZbZGPSSbq7zPNMc9+rRgvfpzQ72uCRC+mjwfPQrTZT1LweO8JqMPvayHnDypQok8njJQvRMeCr07hkQ9KJk3PfBCHj1AJMA7EMtrvKCHQDxbndw8jPpWPYgzhL0JgZI84PSvPVTW6T1r4D49cmRzvF46Er22xv88NPY8vAa2zjx9aOG9dRGIveiRk72Ajki9uoj0u3LFyTwoCLC9L/1BPMdk3Txk8eW9gC61OvmEar11w8y7p0IuvBNBPz3DHTo96nL4uidB+bmRcD083hC4PQNrYLxDxQ48",
                "iX23vcqpKL1L1Tk9bOn7POcUcT3LttM8FmCjPRtjGL3fLIs7TuVRPDLlJjwh4229ufAXPnI3Cj3fPAQ91i0FvBrmbr1JKTQ8fD8fvROLljtEHCy+FqUJvpu7VT2E+eg6p/LKvUGetb1KGQg+W1XzPGj7NL3rcJE6IY8WPhht8DzvTxY9DDWwvRiugT2OxEU99j8QvqFJfL2zWoy9izQjvgM1jTzyXQa9Oy6UPGNxfz3NS9y9lRgGvpNNNz6skeo8fhLgPeeIlbylNM+9gXyzPXsuy7357Kq9lVPZvcjaOTtlhHM8xZkoPVVUAzynVdG973rlveGyHb2ZUtc8uVVuveYqobrAJyq8Nw/YPbKwfL1Y7TG+FjGFPdpE5jyaCFW8bcapPX7TsD2t0+k8edXbPGSKyb0Jdag7preyvc1wZD39Ojy9BS7VPchr4LtWvTI8psnrvWwnMj1Q7TC9rctfPW27ML25kpa8/ebxO0Sygz3vH4Q7AWAtPTCq6r1WGQs97pfkPK7eR7xMHTs9bdlcvFvZhr0l4bY8PEB3vH7/87xtviO9KQBCvaMsvbwN2Cu8ZdzLvbL5kDzf8ag9K4j5PReXabpcOQ4+LtNfvO97iT2zJes99TNTvcYhJj2/ZM08ClPfPNTS0r0fCv29rsOBvTf47Tw9BSa8Hn1LPS2nqLyxJWu9HR2/vGzbnr3rOcI714K/vdUNEr5X1+O9xQHLvO5eH7x/Kss8vbZuvVsnMz4HnV89NPhdvS36NT3xrIy9kK0VvfAKZ71UDl69B3BFvRbTi7zJrr08Cm3CvY/KgrzxWIM85relPAiZCT1muou9tbrJOyeo3LxaaQI9cwkWvZ0umruiA9s83H2lvRrrPL1lUiY+vzW+vFF5+LwaXqi7DeudPIE7Br2HVhY9E89/vQpoy7w9C5q93UOOPSQdKj3Do7G8UJDrvNvJdTvx6Ig7VrsJvakBPz2Uw02873anO5lcnryAiOc95yJzvLtW9T0Cdoi9BEA0vUwxGz35RoY7",
                "OIVAPgMAOj5zA9W7tSmpvOQPYj3aKny8GC9fvRZ2kTuoJdW8RFLevEnzNby+LSe84P7nO5cH/7xg+jU5OJbCPT3wXb3xKwG9u//pPEs97T0NQSQ9hXyXvYZTAbobT6A8y7smvZ+0sruhwSW9g0A7PP1TabwSnQq9Ti7lPOdOqr3LfeO7NJk7vTYWPj1Afqm7TCCVvIiNsb16uM881u4qPYaF0rsOqO89SbRtPCRQ5rz7soO8/wEQO5RvAj31Axo8JpS1PMe5FD2m1kG92HK9vcy30zw/3Ts9vnQ9PQOUBT0Qguu8n7VvvWJuMD0m4KI829KyPCfcFb5GGSa9yLF0vLfO/TwaoSu9p1atvTkbOD2+ARe8zGG/PROP/LzJXUE9LaS6uwem+L2LRxa99ZdAvf6UoLwmEYk6cVkgPV4Z+L1EegM8VImvPcx6pb7UmhI9cRuFuwxa772RyRe9hfkpPHbbqT0s7GG9OXZQvaHEFLtYRk893OXpvAzW6j2ng8k82szWPcIHbD1VoCY9hCUDPYIiK72Bkyg8cRiovDdjeb22X9u7fN+rOwzHmTy4Fhg9FzStvNMSejzTGGY9J9oPvf0Sjb2c9PI95u1SvVqIlr3IFw296oZkPSuz0rxSWxK9gvbvPNh9nDwLJrW85Yg0O2ohtbtnAUi9F4tivTKWh7xITWw9eB8CvdCpAb26c5g9geXOvLoItDxLGoe9P/vNvNxv+7ySJxs8zYe0PM1IEb26W4o8CVnMvTQPljw1JgI9tYiWPBN3drx0h4O8vbhCPTpyUD0al/k8NKDVPJXLTb1EgBC9KXk+PW4ojzy7+ZO97qXKu6Uldb0ca508mGKgvaa5jj0cjTa9fnwvvagDgLwOOcG86s5bPFseuL2U1i29QnLcvX7QWL3/6VU8CcB/PYYQgLxvp2k8npKOvMvIwbwV5Ug9yNNUvSlrjDzl0sm9N2PUvcGKbj2EBac96HamO5E5rj22S/+7iquwPF22RDo6UiQ8UX8IvLXoXjxIxmu9",
                "NzhFvuG1X7w/x+o8ouv/Ow/klL2aRIM9bSEYvH520DzN7o867C05PL0Ikzz5mBe9H52gPKdKUz14Dsy7TaKEO+F8JT3wYo49XosDPbFPYD0lRgS88nQzvlhGdr1DVJk9Znk5PUEDnjwglR69af87vejk1rxwSNu7Xeu+vCiL2Tz6WPy8E5wIvPoGdr38+LQ9rQkaveWdPTq0FAC+kInGPf3naL0hVwe906G9OzH6i7wj9KI8EguDvWdsU71HQWC9rDRdPejbUrtMb3A9QXGvveeQz7yKf6q8ZppavFD1mr0mq+W8avNpOy9nEj3Nqpm9/21fPTYqrLwznuI8PcnIOyeCDb1i5K89bTCdvJjfBr67c8K9Mig8vP8nrL132DC9fv66vUEIJr3JbLM9C1oZPHwrFr7oKPA9WD6GPFmGOj2d3hY9TaElPTzGEj5ml8W9NUhRPW84jLvlNvE84kAWvI8Hsz3lfGM9DO4ivHAu0rxCYb895WQ2vUFmdr2mxv67r7uvPJfplTwlJty9bcekPQoVLbwqlT49Fk6Hva9lcbymCZ08Um38PSyArzxeRIs9/WzOvKcw4bopHR29s0WFvc6QET1mAVu8BrVRvdUAB70aslK9JN3lPGdDUjxnSio9cYDCPW52V71ucJg9e5fSPVLJYLzNNgK8oYN9PVO+Xj0ezwI+cp8UvSFJDj3IXeQ9mmWwO8KGBLwv+/C8c6a8Pc350jxubhA8KoHqvP5uLDwWozq7NbEHvdCOpL1Mbpc8n4xMvUitED3JAIC9oQ53vVRW9zoC07Y9pBFLu5d+yb1Nb4O+PTqVvJ026bzBkNI8a4QhPtSgSbsTtEo8J38ePdluYj1CiDY8KCOhu12AjL3m/609LIYJvYLd1L3FAhq+a5fjPC4tcb2CXtm7er8yvZcnXLz7eTe9rfJWveUChzptHDo9B22bvdqgWz3o6fS9NbAWvN+sLz02lJs9pJlJPC+gzL15Eyw93KhKPATtWb3xu4w9iWtlPAYGZz1/xD08",
                "ioCjPKlBKj7B1oU87boovcmLnznIyd+7htKoPSBpbT07kAA9vgVjvVS45jyqj4S87Rk1vfmEjjyQ7t28jt87OxwIYD3f1ZQ7GxCmvS+5DDw38ok9Ax5wvSiFnr1VIy+8lc/CvWY08TzFbXS9AyAtPekuiD1pAvG7XHEBvVbpGDmgPKw9HhujPNWuDL48gvm9EooTvqZMBLzBp7m8jdV4vCKBtD0oVDc9rpyFvYwajLxyfOC8FIonvWQYI72ZYBe9eRgrvQ/G+jxhPjI8feSGPcr4V7whtBG9MKLGPEkxGzwG3HE96ILAO4VTTTw00lU91aiGvYUcX70DKok9kdArPtksBDycDTM9Q9FHvVjFR71NzMc9Uz1APeYNPD3YKAI9de4aO55Nxr1HPVK9pvgWvrCYrD3DZM08NmBBPS17yDwBtlg9UukgPWG81DxgmAc+6M47PIB8zD12AkM7i7YLvbHGlDyw5cG8QghJvTes1b4eyKE8SwOovXGfh7zHPyI9o9EgvPx1Uj0ZKDI9Ich0vFkq2jxn3cg8nNPcPEEZuL2uRCk9aJenPU76U72j+bw8QxOGPS+Mrr1Y49S7bJw2vVkvCL0mkSA91eLIO+MNGzx6RfW8tb0nPZtylL2nD4Y9IKzhvX9Km73hnra9+8W+vQfcJrxE2tu81ot4PMkjiT1F5Gi9qpjZPNkDbr1vTMa8VC8VPH46KT1jSp28HG06PRsBj72GVQK9OXHxPO/T/Lxe5868b8QqvSHwBL4Mg7O7du/EvCiLTD1r4Xs9lhQevC1Aib2zJdi9eHQKvaVEG729w8Y9HOj1PVEfhz1QCGu9188oPYkxj70A7ZG9qOiGPez8gb2fBIE8yNyDvSAnebxDFZm9gMs9PQHx7Dzj0M49BXIXPiNqXTwNE568iFDFPczZPD0m9ji6dATLPWnWTL0s2HO9HzzrPGv7oLz24be8WAEdvU+paT29YD09Ha+LPJFrwb2+kfK8X1HFPIbX/bzmQzG+dP4bvAF2/T27LEy7",
                "NzWkvZ2oIbyFshg807epvDv4Ob2G0Qm9y7OzPFWRPzs5mxS9YwiPPZEh1L30xE09pfmDvK9rYj3fQJW8mHK1vHghTb2oPmC9rpmHPXUK3zz7crC9MPfTvCIzgD1rHMa9VqQFvW/VUj3sloA95KUNvGvjNb18mqi8mZJHPTbAX70obS49EizAPYs2k71DHgE9OWipOMRPLbq73d85GzN5PVgUzD3oGYa8QWSzO64NyLt7C0m9oK+mveB9dDs2PXM89akMvI9GFz35FrE8EJaLPeI5qju77E+9eVnUPdtYr73w/ZW87qOVvNvnmD03Z689xLymPEelUL1juIC8zsL+PNGlxz2Gwgy8MVYDvAiyM71NrLC5uYx6PeAJ1DtJa949vrpNPRLqJrzuW1u7M//aPJOEa7xOHJQ9YH6MPWrMmrwF3gE9ymxxPN+1ED0Zsbk9ybPWvVaV7rxWU7C8St+APfw5zL1szMg7zNz0PKIPoTufYZE7BNr/u2GsZz3uhxk9bAJKPap0Yj3SzOY8eg5/vJT6dj3YaLW7UUY7vC9CBz3IwkQ89nguvXwPljzi0cK70tFcPfCSlLvr5ZW9QOdPvfQPGL1Sk6U81FY1PCdserzirF69+TWgPBqSaL0frGG9aMK7PatltjsJxJ87e34kvYmLMT05IVg983ndPD2tqTxorDW9do+IO5sodrqrCHI932CzuftnjD3/n9E8MmxMvewN4b286Eg9+4kpPQ70Rj1YhIG9C1wuvTzgGLrOSzm8HuGNPCGvKD3v/qm8NX5EPUsuRj34P9c6/dyfvfQC1jw6+nM89HjWO1xSRryVb4Q784hdvc3NhD1mZSq8wYjOvGdpSzx3w66+Mr87PXR0Mj0GIGW9rLvhOu58Br0wcEu9qA2nPJDsjTzegfY7fkDmuVnN+Do/rfq71tH+O5TUiDzXQte8rv3lPHXDrj0EWrI9f94vON+sn7ydfhA+AdtQvQwkGb0cKaA8Bo05PfmL8r1k8hs81K1LPSl6CD1X28m8",
                "qZkvvJnZvjsbWHy90b3hvEOxdL3o/5M9Mgf5vPX7DTuq8oI90Or9PFQirjx5W/s9en6HO/dbrbtJHLs8BoOPPcayirwxirq81DBVvWkIU71x/kS9Y+aYPRrTMr35AEi6jnEHvh3XqTvGeY48xOgVvA/Dnz1ZqIS8RSRxPRTsAb4vuI69xf3ZuTPHb7wgs0q9UjY5vbf3uj3AJSE8AYypPH6rar1Mnji9ZIRbvaTzELye+Mu8TjuJPZqvSbzH6DO7eLVbvUaDrr0sEca86wAZvXCB9zxOfFm95n+CvRyXV71uufe8+xBgvTlgID2XEME9eM5zPI+esT0BAJ699oOEvVmuE700Mw29LhSXvdPa0rxEdTq9hNF1PXSwvLxqnLy93m+fPdlWO7yNp1A77ES/PZem6TwAJSY9Un4Lvqmd3L3KtjQ9o7nsvAoGcz3Xs/S7vQm5PQTFEz5Mppy8McaBvSitVD1E/4E8B2gPvdoPjj3WkEY9EsHDOvf1h7tSuN+8Xe4rvP/e6b3mzjy9SsT5vO25JjwaU5c8JRzPvSKOHz1RWq29lyXSPeuXNr0kvVk9lwxpPEAbvjyOUSG9ffZfu3VlortrmIU8IJQ3viN/srvNi9w77wWQPZ7Icb0BjYG9td9SPWhiRjx5kCe9Fq0mPDHqM721xRu+rrlVPW7c8TxLxGc9b6CKvGuJm7zJUvM8lrbIPCtiEL0lJ949xn0OO7QyFbx2L1S99jgvPTvgS72FP+Y7Ny3LPQGQMj6AsxC9brInvcepHbvpyPY8XXvxPPrfgr1ILlC8HiBEPRPobj06iH09IFu8vDfSpT3hu9e7fzk0PbjNGL2Rf1W9XHeePMSBe72MvKw9sC4VPaF8frzUFyu9JHdQvR52oLyMi8E8jSrhPabczbw4HQ4+1NYGPVxflzxHdGO9cDPYvUSAUjyjFCm8sA4Quaw0fL2hzkO8gkZKPR0lq710KrW8PIPBu6N4T7zkfDk9qYfFPIElGD2gbpU8QpetvGtYCzxkHOK8",
                "AMWJu7e++LwxeqU9Lc7YPNL9Ob22Jxq9NLdEvWqBWryfM4+6DMTRvCjF9rynsvo9BX+Fvfz1rL0X5HC9WhF8vdqTLr2blvq8Z8RZvdSE1z2l++w7ntCnvdNNWroCyf28JE7fvUsuDz2Pr9A9ME/hPRjiPD2R5MY81E4IPcwLQj2ir2E8+jgpvYqG+LxBSAi9RaGhvNdrgj3K62O8BduPvjotX73GfK69oNelPVCpiL0lq6W9VubIOsRKlL0YmME8RbZFPT5FpL2/poK7+vVevB1+n738WaS7R1QBPZot3Lx2emq7kMZKvRBLrzz0edU9QG3mu37Gk704Ow49S5UHvJY0bTvoSEC9Ro+WPDTpY73X/OU8kpKfvUwugTq3m+w9/lPnPAsbBT40eDK9KmWyu4NIjb1zUHs9AiF0vAhYiT2akw09jMhEPc76DLuI8ss8qEAIPojcKr3/cIi8l3YKPnX7Ar3g8zc7HmjCPH82gD0fPZc9Z+VzO64tYr1h1So8+YrCvMlhn7ymbba9v+livPRkfb2OMiQ8fx41PbpfArwO7388GDsqvQ4yWbx1tJ68z8VHvAb2870GH8a9wmWsPeKtWLzcdgi8vl0DvhzOYjt4o8s99up6PWNAsr1oMd+7028gvCmzBT3TQOc9S+U6PGEe+bqh6cq9d+V+veKJULvlBpq9aDvXPIhHxD0+WQs9MHbcvc9jkj3nsys9zbpbvHB0Vz2u53Y7moYcPrsvMLyMm4C9+GTbPYXVgbyS7hu8aRGCu7cWKT3LeM280idSPKr5NL3EB9w9wgaVPf0DoDxC+om9284NvMbrAbysuqS9QL+9PTVTkLziQZo8caOBvaQVsz18Mji+uu61u1uJj71xI4C7ppDyPQgWIj355RY9N5yvvWw7Mr2AKR++eBLnu5c3Crs/qO887JEKvpb6drsMb249KICjvMwFMzx2n1W91DGxvHv/g72VFeW9BfSCvWi3hT0jE7K8zhGmPUK2tj0yiS2+dxWMO5MVZz0hr8M9",
                "DN23vPtIOb3D4lg8d0/pvMMMXbwj6EU9z4mNvHrozz2tsru9j8/jPcQOZzyEB6m80Zo/O2NQGT3oOJ670NT/Ozn3XT10Wsk8WmjTvCvum70upkO+6U5KPXfBg73RMC09LjwIvoNanz15bz0984gJPY2ukr2SUAA7S7AkvmMrQD0Ltu884+XHu8lqKr1OSg89ypKTvQ3wrr2BGsM8VmjTvGE29TxOc9E7NVsfPML5A71L8m69ZXebvRp2gzvCZT4+RLQhPC8fMr2OnAK8s8PePK5BU7xfSmw8Y7ORvKC/hr1RATE8E6UoPcBSyzyLBtE9+8o4vUxHhzxbRnA9VL3KPdUBnb1I3068v9eYPF3Ka73T5ZI9dRKFvXuiTLvYnKq8r8+4vLIFEj6apDE9RM9HvIYErDxvXZq8iUzwPFAMpL1plUy7ENPBPUKOEz6VzVy9Bl9CPg8+iLw1hTI+yKaxPLKpGr7HGq893Jb/u4Iy8b0yvZG91jipPDn5er0u3u472Mf4O1SGEb0qe8G7z54YvQU4z7yXVd48J8GTvKeJLjzNVwc970XNvKcc3L2e5g09VwzsPbhVir6zV9s83WjKvRJDOb3VMyE+bvSfve5hfrtzSZK9aoc5vZHnFD3GYhO9wgvfPJgvB7xB6Uw9YL9jvRmszz0f9ne8ujCivJHZsj26l6C8IJPGukDVGr2HpEQ8IGlxPF2/DD0I40Q7VpISPW6OcDz15w+8aDDEvIzaAb1Dyc09J+2SvFBHD7pNaSK8kiz+PebuzbsSoLo89EcivS9CEL1ZFGE76EuWPRGfJj7pkdG7G1/LPExiaLzWdD09dAzLPRLnYzthdGg9RbBvPT24/zz8EUs9oc+BvUucbj1dAk09np83Phl/sr3DtkG9IvxpPYf7LLxecQW+KpnuvamPSzv8dQ89tIiDPcECSb1TGJ+8ALi+PKfMpD26Sou9ciDtvb8/nDylzDO9wAaTOp+X0TvKnhg8UBsoPVgS9TwznCi9Q8lbvf7PoL3aRCK7",
                "5a4FveTHwj0xWSe94r/SvEUCObt8vhY7jzjBPHx0wbyT5gg9UERaOxDUZz3BOim9nZN+vR8Rwjxnu5U75JlcPY/nhDt2Y448MUWUu/jv471s0H67Zj6DPBOhDj4ivJU9wpxDvXs1KD0Kmae7oDqPPMIvAL1cJmc9uxhAvX9VVDzCEE89OMuRvWiaojx8kUk8Wb3PPTtdyT0R8LW7a/zMPBGza73Jh149ol8dPWZs67ub9Nu7oj7EPaitE721JBk9LkbjvvODzzsm2q29ud/cveEh271EQbM992i7PbRP970/r8S8xhGCvbt2uLtRu4a98W7mPMe+jj1BJZ+9gPI+PSM5Vj0F9E48oajiudNeRLxZ+vI8TG7IPH4pmT3E63G9acN2PPnZJL3VjSg8v9gcvGTOmb3PcGM8Zna8vel2lD3ViMc9/EucvAxf3j01aYA9TfEmPu3JpD0HLqk9sqiavRSWzz1uvxG9cGDOvd8xVj1c+c89tnJdu63TzjyzEYG9nCxgvCx0m71FNm68BZQYPQZkAr2OGPc8KQGUPfdmGLyE/zK7/ABgvXlKmL2lGLM9SBGYPNVXy7zV56o90RABvZvEKzwwtju9xIUhvW2VMT2MHv48ns+GvBcgfz0N6J28abecPO6IrLxTZa89jwIavBZUpjtcxHK9ohHvPL9BDz6gTHu9u8P2PKr6YT1PbVI9SfH7PLkTAr7/nX+84ejlOkGKiTxZrJU8/nJKvSa+J71qW069yEQOPNtyLL2Q+de8oTKpPWkvRjzOfc07iWiZPNEbIj24KTm98feTPR3AqTyYJ5m9T2wNvQD8tr2KmC49+Id+PNQ9BT0UTAK9GTYgPQHvALxhQgg9qDLMuxTMIj0v0Xe8Jla0PehTKD3a0Fg9s1KzvVJHE75mOym9SWPWO4elmD2q9oK7zcGtvND4lb23P4c8x8wfPacMgTvK0gq+k2bLPPb/oT0BubW9W/EIOnNMAzzaokG9CilYPRLFkDyOPxs9UxkjvGDvAbwFOZs9",
                "SXWsO/bFMj7nRS29sD8rPUH/krzQV2w9R3jSvcCVWTsjwze8AyzgPO1wwryYhB29GpfUPFC6lLzGYls97/gFPP1Dj7v6jLw8VAjgPJqDkrvxaYa8fEuUvRrjszwesA68FCgOPaC22rsXnkO8DWjIvHMlpDy/VaQ9ij6jOof+BD4qiOC9UdUkveKyCT3Nqzs9f52SPUjEZL2MXoW9BcrjvLzQTb0pTgW+TksMO630GDwF/i89GOB5PclKYjz+AIO9CkfavBc+e71Qix69o45cPajP17xpAHM9dOXSve/qij2KprE9+YOYPYJ/L7wcG1Q8yJsbPd7WSzyatqi8UXoWPQJvvjyH4zg8slFqvZfYJL28vGE9fKZHuwpmcDww5KW9GUS4vAoAt73N5+u9xpchvWO8jb1Ks6m8pKVSvZp/aT05DMo8s4tvvPtw8LxsiRQ9wrFRPUxM1LxQ84+9hqF3u5bFUj2HBaE93VW5venk2D2euIA8L0FSPpOo4bzLLMQ82s8jvd6Xjb1KLUi9YjLnO6iWXzxW0qg95rLsPN3NVDweMRy9vda0vXz5zDsn2549ZUpJPTbV17olE248ULtjO/8E17wqzGa9tbwrPMdYrD0LdKK9RSCFPX77gL4scdS8yY+rPGsBhrydDtU9d51PPaMVo7xx+Uq8R0CqPb+5sj0cHbM7Yk2bPRAaI7v67ZO9ZZjIPXGpPL1HffC7Lzo3PWVWkL3YS8K7RUVePZG15zudox084vFBvDsA/ztQTOy8+6qAvWTewT3VQhM9H9spvbzxIT1ARB+7bV7eO8kdbrzDYI29NbpZPW6RkrzBYI+9DtKFvddSJb130Zs8QNMPu/TYhD1Kcpg95YvXPOFwELwNPoc9/jzRPEATyrvmZwA8lRyHvB9KzDtsUZA7AvusPKiZfr0NnSO9HpRePGWiiL2onFO933GPvPRJyDxJr0Y9jfmTvQ2rLD02ZKU8j9EDvFqjYT2GEnO89JqIvBGNHj25Sma9M6WlPc6PEjtx0Bk7",
                "bTlmvM0ZTj0YhUe8DFzMPXZ+Zr1LR1K94BnrO67VEj1urrk9SU5EPSeKgzxVoOS7FroAvMwo0zuYPpK8IA66PN1l+j0hK7I9eiUJvOkdZz11eM88nUhGvZ4TVbwl6MM87U4HO9znpbzhhX294l/OPRPeaz4QpIo8idINPXiZNj0DVBq9bZCRPVTVX710IjE9OPGTPTaXc7zWtEw9IfgFO7HYQj27Kw29z28WvVziSLxKUpI8vpEaPc16tjxeJR89e6IPvJNRWryaooW9DJ9avQbAjDy0IAi8yZrLvMZVhbwXCk8+nd7/vsoxXb2joyM8cW7rvfkn+7wSxS49Xe+VvYEOT70fA4Y8xL6QPV/KHbqHJUO9gTi9vM93MrsCV848Wu2KPBpXPz1KNYQ8chjavc/amjyPQg29LtCjPDTI6Dx5QAU85SEhvRf4vrypcEw9nKBIPS7MSr2qrxU9ePHCvMypZr0Sotc8ak81vfB5TL2/dgK9p60nvXSxProLO/K7PKQDvSxCYDt9Jtw8vWwAvVKpXr3OQ+S8WFRGO4isDb3ZzzS9pdyXvaNXnLxOv3q7UXqGuslXT7zbek49qNjlO8cktj36y+C9wP6wPP6K7zwJejS95HT8va/8DL1UvaA9hCyvvZGPQz0KYwM87CDePDtPor02s968Bq09PmJGHb1FgbE8N/3wPObvPr1audk4tQIeuvbiA71zzYC8pylPPWefNTuVzaM9TwAYve7yhbwuo6K9wUdjvf2Hdj0urVG7OuW3vE8WDz0TdKI9ce4EvGU0JT1drys9+UVfvaxIR7yEVcy8Ln/ZvAt8fzy6TDi7uYkBvVHoNj2m0Bi9mb5MvQlzzDtQvRU9HuUpvUD4OD3J88w9B1Cqvc+P8LsTcDi9SsG4OlDzwz1IFbi9LxFXvWt8QD3GwkK8DJQ/vTPFEjygJqI9fnUhvNKDcjwiLZ09lWvPvKvdjTqmICe9L0lDvUmr4j1EiRm9YCK8vA5oWr3vVFa8yTM9Pd6HdT3H1ra9",
                "O4YBvihoKzz/++A7eoUnPWfM1LwVBXq9eaPCvFvGKrydhvQ8OViovZwV2zyzmOu9vhToPAV8pr3uWLW9CACnPcuuPryDO5s9JJgTvXq6cb3WBRa9hTmsvBDLtLzjsuu6ug6Yu8YFWr1cHFQ85+LDPcjFer2sRoK9s8G/vZ0uk7320vg7pd1dvcO5YD25zeK9TFtMPSTI77t9Vqo9UnP3vJMJSL3PivE6dawuvo2Nij13QVG8/aMRvoQLOT360MQ9x/TgvIClvb1m4ZK9Zy9xvE6/mL2dSJ09CcWlvXb7+TxozcK9H0hkveENmL0eKms9Azyzu4MsZz2e0ay8xg0dvTenATxwBQE+tTaevXXgJL4bqPM8vfABPc+ffDzmnJO81jISPMhD/b1/1xM96knwPKOb4T2jU7G9vMlbvCc2Hj0tEpY8QaoxvWmo7bxxdQu9X3/FuaeuOj1DqQs9beV+PHVfZz1S/We80gNZPS/VJLvzHL47E/41PO/oxLqcFdE9dW0uvfw1iz01XOc92WXLPfPBtj3FRr28vkoCPnk9Ir3Qqh49Gr7MPN4Ki7xubi89mv9SPI/+PrwR6JE7LdGJvN7LVD22Vyy926OJPXHXMz1d9zk8UlzjPE3av7zlihO87FBDvGGppjqFp0U8ItrFvdH4sr1s0Yy9iITcva2egL1vdAW98E+NPJxdiD275Ma80RCJPdHDUT0eh1k9g6rvPX6QBD3r5QW958gGvfAblD2hILy9l7ptPfz3372SasC9/KtyvTEQhru7vjq+CYLgPLZhhD2GLWC9C8qDvZYCEL2oEZU9/qhuPbeOoT34mbq9bm+xvMxcvj3pKSG9yH5jPe7luD3BLUi8aZxNvfMt8Lzum/U8f/cgPfZ/FT39y7y9XwKCPYvTirwlTtc8y60zuyLPHL2lD6M8ILG1vf7ljL1GcIE94vK+PFFnmj2j3LC7CZTHO/+ivTo7+kq7GbQQvXY/iTtbbz89GhrRvVP7Bz2PsX89u/VovOo1kL0G0ta5",
                "9hGevVPdpr3wChS9VhrhPNI1lDywi0W8awqpvShzdzxVB9C851mAvVpBFr7SJTW9HffWPYsMjL2b2hO+eWwhPQFrb72eDI49YoqLvTu6tT04YjC9wCyOvcB5Sb05A9U9V28wvUYf8D13MFg9nb4kugl1Xr0RqXC92WGdvFKNYr3h5rS8obx4PXkt2js/ZsW9cKepvWKZBr1vlB49RA4HPZ9wAD7CxbU9DlufvVHcKr2+KBE8RwBGPVlsaz0YjUm9L5UZvRWq/rqGRIg9qhtVvffUjL3y4Sc+MLuiveAfej2lB9g9HVWvPTZSirxxUig9dr99PeaEGD0caBQ8xhzKPVR/QL3g0lS7fKebvmcSNz0FcnK9ODYJvU311LtJtjA9Z99SPezDkr0UKQq9vyXxPfSrfD0Jvy28DGeiPaC/4Ly7Wr281fRCvV+/bbtmArm8BbgYPb5fT70Gnoq87QHUPcWoSD3nvIo9wjOHPWBZST1hPZM8GTbWPILGvrysRz29Za63uxEOTz2XnwQ+4+QEvcbVNr1q/1M97YGaPRVQKz0jUqq9tavkvDKear2pVn8944iPPauq0z2GNEG94ZtcPQBa/TvZiA+9m3LOPLsE0Dy1V4e8XmmUParwxT1Fz4G86oFavdMmQL14HjO9xw1Cu7cG6jtZAYS9U9WTvQp7tboD2Og9akBLvDIHwz1vf7m9OdScveoIEj0Glvu8/kXGPVhNu7zWzf88W//4vL6JQr3b2ic9X5DRvZOjFzwMG+O8NACcPTbaKr0ngE29zFxEvfMv6jubkRo93ygFOxNoIj3FU/w8gHicvHe4UjzSjeU85JfxPRXCHz1elvQ71do6PfACfz0Cw809+YvRvWn+zj1H6pC9bAWOvAJQq73PlmS92juCPdOKeT1JG089ZT43PJfQUzx/022973pbvSVxdj2/8iG8EM3YvGTlSbzzR2Y9JzOoPASgoL0AZv+9SfccPQFMjboWR4a7st4LPf3lsr1G/Gg8HKVvvQelGrturv28",
                "yaW1vPWuq7sO/hs+KIntPXeVVr0yJtO+MWbWPWtsLL3HqcO7CeYYPo3AhzuCpAe9T/dyPIXEH7wo6zu9FyQRvWvvpr0PSw09RkkWvBeGKb4th3a9b+CFvKkGuT2OMtK8hIYRPQgxTb03MQC6Ksm5vSikNT0hsAA856PEvMKFFrzPKxu+YDYtPQxDDr2MLRg9BhapvRn/rrvbO6a8cxyUPYQegj30BAS9gHzQO/tePL3/cWy9/vLIvRYKMzwgqvI9cuImvcrwkDv5zNc8kBmLPdn/RL7aKTE8YChOvIpVWj54R8K5mFWgumTPu72hpS49X7EHvmbhjz3+9ka6fCwAvbEUUbwRx888/OdlPKE7x7yKSCi8xa19vWbFGb3SFly8osmBPXZXvT19woO9fCxwPR6yNb3kuJ09ux6jvObAvbwB4vO8u6L1PA2xtT10gy288QA9vQRWZDw/E5S9SzSgPNNPfTx5fSm9W2vVPMIHdT18nMK8cZPVPOmcITwCw2c7pSUQvXuyDryT4Pi63CY/PcjdCry4NSk8a/yfPdFez7y8WSC+27jWPFulkT0efZo9+JoIPossIL1+UPu89qAuvnwqHz0/CyS9s9/2O8sOJ7wpYbC86+myvAzXSbzggIM7DhIwPbwao72iJ088CqhDPnZByL08Zuo9G/uCPTtAbz2uEKU9yGclvTS3zL25uma9rd4Mvudo/z3zzqc6waaOPaKU9r1THUEQwb1AkHW1QJBxqkCQL/lAkCUOQZCIDkGQdN5AkBXTQBDGrUAQZNJAkMMaQZDI9ECQr7lAEOuyQBCjBEGQKBlBEACpQJCa7UCQDKRAEJfvQJCg80CQ5JtAkJHrQBAEn0CQ8CJBEACgQBCK3UAQqI1AkLiPQBCXFkGQ+vNAkGKtQBDm1UAQbMFAkNyTQJAc7UCQBKVAEASbQJAmzUAQVANBEBglQZBx4EAQtA5BEIADQRCZrkAQLJhAEMfpQJA8p0CQ3udAkOgDQZA69UAQx8dAECiVQJAzq0CQ",
                "9uFAkKwCQRAD9ECQg+lAkM2WQJCM6ECQdttAkDCQQJC7oEAQY6JAELKYQBDuCkGQkJVAkIOWQBBmCUGQPZBAkO0NQZCcBUGQHMZAkF0aQZAgp0CQ7K1AkI6SQBDmuECQSblAkLWrQJDc6EAQavlAkBGnQJB0k0CQBdNAkNWnQBCHHUGQ/btAEH2lQJBC5UCQeelAkFP0QJC6zkAQ/upAkMDKQJCyl0CQZMlAkFofQRCHqUAQctVAkHMIQRAaw0CQFeVAEITgQJB20UCQD9JAEP2lQJBD2kAQAwFBkNfDQJDt3kCQSaNAkCaWQBBWm0AQ07dAEKPxQJA2vEAQAudAEKjBQJARx0CQIc1AkOuXQJDWyECQd+RAkIDMQJAR9EAQm9RAkNGmQJD+AkGQzMSLvmNmFr0wy/Q7cnd4PRzApz2qrj+8LMxuPeI6Azvt9/a7vZJKvUmQkjuCNn09MEvkO86XqDyXNH88rN9DPYADX73jiok9HLOzvAMJ0TyLF1o8XIQWPEQLKb1cKrO7hVJuvQuIsrwEUYq99LWhPLUzDLxl7jc9jKTrPPu1lT3C0zG9vkwPveZPDz5xDvm82foPvawA57s3XUy9f42rOyEiJr2V+Aa+rXKkvYccIbxoH7Q9AwvTu8+h87ydF6c9IRy8PG6WEb23YLg78znCvTeGHbshEY297l4hPW6bmbkgQua8BY8iO7Zt8bgsPnw8olvxPETYvbyRHc06tWPKOwr5rL2EJwW7iDK0vXqW5LxN1La8mYNYPc12A75hJwa9ZezGvbrsKj3peVM9uUmVPRAsmLxu+Fw8ebmOPZp2Gr3a2s87VZtJvKuk07z4lc68N0bsOzwXhrxCCg+9GmTdOt0wuTySYny7IKZ1vUlgYDxYa1S9AEq5PXqklrswmOk52K/YPPcKVjvLCjq98SVmvJ/+q7v1Sxq8a494O/5BEz34YhQ98LKsu8UlqT3O6tI9hEw0vdq+S7w1tD+7jdWPPAtIBDwonlC9XjHwu8E3MDzFSz68",
                "ezY0PW1K3zvxGo87rl6Fva0ewbtz43I9C52rvAFoxr0Iuig9bphavfIKnbzmn8a7X3eOveWHbL0lVJ29d3wKvTPqzb1hhpe9x8xSPUQwgL28nCq8DFeAvBaaJr0ZbjA9f+skPdYEajwv1U296kphup3iAz3NUA69Dn1vvXqSFT0x9Wg9XDjFu6UnDj2TAay8LZJWPYOd/rzOJdU8RcxzPEoZCT0QXwY8UTUDvQMvh70TvYG9vITdvXVPAbvjbz49IWSYPBXkLD3tmA49iihIvcDSGD3YVd48d9gxPcU3sj2flRe9DSAzvOVqWzy+fwU9tuMIvtgvL72ikyk873gvPHgf3ToV2yO9l2UsvVbqRz1kjJC9T/xEPW4Hn7wHDwM9XSGEvc5mXb25lIS9Nr+nvDDmUL1g96M8lgUivOibO72szCQ9g3tlOrophj1gtv29/WAlvZSw8LxO9n861tqQPVzeg7zmyjq8Iey/vIEY9zt91BY+U2tbvPPOfT1GMZC8UKcZvZ+Xiju+z6g7rimVPGwRjzysLay98N5gPfPzAT27Pfa5HvKBPXuAPb2mNim+7F7AvFWKdr1WoCy97QSEvVqNuLx3AA0+XAjbPP6Kt7x5gtE8uLkcvkWwl72M2MU9miZOvk54+byqnDG8fegZve8wWb1X+dK8q8vsvGh7rLybqpA816NFvcxLpru9vg09T79nvagzr71J6cO9dPpnvM09Ar3Pyee8Dy2aumhd8zyT65C9LdC1PSuhRj36iEU7A67+vOPslz5ZNfo8QMrNvasth7tXECc9Eul6OucpG7trN5S9EqkpPUV4xj2XEAK9MI7Ou7stizxrmQS76RyePfuDs712Lbm8AKMUvVbgH71BgDS9G48nPjiBsr11pmE9/JqcPCX5OLsuwik89INwvb6ykDuq/3+8UpTdvS1oSb4G3Sg99MsVPbBOfLy7U4U8DgCwPeZUtD3IpI28mANYOw8SF75TJZe9eBzUPd6hor3dXKS9+lq+u0fFQb2UXyg8",
                "T44nvDIzaTz92tm9wogwvH+SSj1Sttq7OeiOPfYsKb7kAB09z9grPkWYrbzsO929vjABvWh5kLwBuqi9/Z4FPl4NUT33qZQ9hxljO5UzrDz/2kW9yyhbvJ5hOT0N/4W6HvpJPcBMEL3C6bI9sKRpvAhnGL3IsEq81SMEPShlW7zKLZQ88EKOPTrxWryXdJG8ZEWYPdj7Aj2CH888ilkRvdGjpbzKrc489q7AvaJeX7u1coe90tEnPTbyqb1KIdm88MTuO/8uWD2QXF+9yuAvPCjcTzoiY8G66M6huyaiob0vy3m7o/2GPYifCT05vtI9t802vN5YLL0FDYA8BKPLPe9SgjzkqtQ8rwPJvK5n0bzugZs63a3QvTeOMjyQYOK9tdINvUfK0Lx9BEC9KIJcvTzBmDrdPC48QAUsvSi13r3RFP67j/8zPjmSsb2ugFm8L3yhvldNhLz7DvK8039FvYc1gj6VmB09MSNYPSA2ozzHPrg8fI60vPov9rsqqBa9/dWiO8KGnLu+00O+KucUvRtbCDyLksG73dfZvUEhubxZw708ofTiu5I1l72Gcii7YhoyO2xMWbwW4m29nzIUvkIbQbzmlRs9Y3t/Pce+ujwAizU9AcCbvKppuTwJomQ8KlvBPMTh2rwWC3+8LKgTvSPP1zwAHH88OvNdPgvu9rzXe2q93YMPPSAf1L2UxAk9x44RvcZ6h7zcMBo+lS7fPI24mbxHcpW9DPeBPQ3oMD0ihHy9fnrDvQl7oD3Vg7Y7ZmipPUjXyrwg0Rw+xIGXO5oeHrwCSRC8nBYAPWssDTs69Ow9xQfEPNjpp7vLCA29weMRuxwKuzoyRJQ8RGs6Pcq6fbwmW2G8yFLOvea6K7y7v689u+BuvV+b1LpLF5Q7hpW6PP+307sIWsA83u+gvWUVH70F1iI8O59yPfKmfjwFJ1s8Nm/APC4Qzjsn9LO8htLVvNN4MDyTRKs8lDijvHM6iLyFfM+8jYJevastC71CXGY8hn46PhZjv73khl08",
                "QVlsvCB9jzwHTMO7GBmwvO1soL1Zbcc9VLuJPcbMm73N/lc9/O3OPNgttj2Vb4M9tNqzPSubj72fFNa86UIMvWSrsjsdJ+m86OH1O9zyQ736fyq9xe3TPChvfz0D7O++EkAoPYDFkz0XeQk9+clOPXcOCj2ShMa72F5kPXhSWT0uyYK9LqZKO7t21bxPVVA9NlWZPY0KnL23n8+8ktqAvIcyeL2A7069GGuoPbX6Cjtn95U8jsQfvWNAZbwJ3DO8FK9DPKWrjD2DOU49zVbOPKxBB77VTV49FvUrPWk8NDzoNxg9PU2APaI/Tj30KAm9eLA8vNA3wb0XNtq8ZNwFPkvOeT37/Y09o3WLvfWlAbyR70e94kjkvJwoULhPHu88u/CGPco+sb0J1f08L/InPeXFBbvqXgu970UJPaIpjLsWuMa96VdFvd5rZzy7B0W7DgHzuyec3DtROXa73K9tvEnq3DzajGM90ZyCPUTfwz2iXgG9fgDhvdxtDD05y5e7NMCZvXTIOz1HaFa9kpSVPAG+NT2hzOC9Zy7PvczRoT0Q2Sg9OhUMPa5Fgj1hg4g8CmLxuznTpD22DTE8T0ueO14QZr3TB5S9K4YnvWBD97zn0zE7k+YUPBNh0Lw1ekW85+H/PYokOL2z9JS9dGTjvcV60jz0niE9YzmmvIanvzo2fti8wX2bOktNGj55bhM96kgVPT5hxD1seKq7G6S1PeOpRb1u9IM9sZzHvRaE5zwjBJA8vS1DvEqe170l5Ic9W5YUvT6PAL04p4Q9ZCcPvWXEtry4BeE81w0YPUKq6zyp5l+9Ca/FPLB9ZL6pf9072YfnvHhXsD2W+448F+CVPDo8gzw084A9E0Neu2m2IL4NojI8tZQLvagSEDxNTZW8XZKeuh9+iT1HGlK7gQEtvEjtcbzGQtK8wLPpPDSbVLx/ifo89toGvBVuML28b6O7b9GHPB7jsjzvmwc9pNJ/vZYGEL2kz3M9C5rBvG1rdL1eYTW8iZs/vB3crTywqY09",
                "jHScPHf9i7zyHUK8YRlOPH82Dr28P6e6tdP8PVvCM72+wZU8EeeMvfQskjxDPLE9TYsiPpfVNr1ktAy9ul+CvDu68T3jj6K8AjzDvE8m3rwjlIK8kNXiPOfbgr3yExO768idPb+Izzx/tU+90kVbvX8XmzwWrBc9Z83bPLnNOTx9cB89VbSovKCOgz300Jy75TjFPRDs+j3Tleu7AlRqPetmFz3vHuI7bcYRPUj1eb3eXI081RtUPZeqLrz+x+S8bKEWPTU37LxoYeA7dLJ7vANkdz0ftum8jOGAO95DhT34agY9838lO8gjJ73lSz28b/sPvSNcv7yLnVm8p8pQPZQIlb2rta68IpC4uqEgND2cJRK83I9IvFuGR72mlO49NAaOvdorZz2etGK9ek2WPTdtH73vDLG8W9jLvYCDR71Oan4+pXUHPXonzz0Yyz69nTT2u61Jbb2d/Ni7OLoZvX9DprtIT9C9OH1lvJ3BUD28T0A84mj7vvYYUrv2Tgo9UY2TPcYTLL1O09G996C2ujAnOr31x7i8b0KXPZn2Lr1kCeK8yfKbvAi2i7y7M0C9LkmfvH3x2TwPrgW9rW7wu3G3hTxdSPq88vsavQvUTTyBTC8913nePGgA3TnRrGi9WTEBvug4Gz3I1l08oB1FOxGfjz3Gnb+8dS9evAucuL0VDUE9G7O+PdevzDxy2ig8lTquOnekDb22WkK9OC4bPX/QobzRVQ4+SVtovT86sT2MKxM8EAuGvMinVL1vO7W9fFWtvXiNor1hBQE9g5/GPXJHIbzTu8W98AcPPVpIPD7gpZw9wBKavUqjr7sIMnk9rIKQvbIsZ70k6ka89byAPce0wD2iqRI9PeIcPZWUAryx6Qq9HHEvPV8EFz2MxRy96T3fPQ0YGbzZGAq+K3gKvpWcPb1LMfO8nY5WvaPCGzv3OGC9r/l+Pdxnhz17o048E+TvPF6aljw5DFY8GLpEvPzLgr3Wnsu7WSquPbRs0TvctIK9oBD8vM9tpLxn4SS9",
                "07D7PP6fzL2BXFE8QKxcvdvFXrykSC29Ab/BvORP+D0i2+g88xyhvQEN2bv5mWo9Xrb9PA8dzTwQelk9PJbAPN7mPD1qvRq8mVoMvX0jAb3zr808lIy0OZWFPbxpGp890DrTPItXrD3V+Oe9TtyhvK6xgL1Z9DQ9HRuyusVUPLxPkpq9elG8vToNbrxHwqm8RGtJPVvmMb1jMng9sYerPQMcB7td5Tc9hhUeOpxkLr3Y+1o9aW+lPL+Cjr3XHBm9zKpkPGZOrD0M2y29BGgPvczwi73VZI49Nb4NPOLKsjwbnoc8iSHNvQrH3rwQtPm9DmXgO6qxzTwmZaK9qgFePJ1k2LzbcDM99q5BPHRAgL22DAm8T/SDPI8QRj2MF1a7oV87PR26mD1o8ie+63/QPAD+eD1w1Yw8Ur+rvda3LL3h5n+8yMvKPS5InL1EfU88uitSPfFqszy4+y09Dv8jPe0pqL0VH4u88SxavGLHoD2NKqU8oIEePdtILD7nGXa7xMHPvU2t1zx5iZe9C8sQvSC3hz2DH0M9gOudvMKqLj3O5Km8g8yHvWpvBj3cm7Q9FnARPLpzmr1/9dA81pt4vaeMfL3Wyr+9eAljPH0WLrzTWku9GRN+u+FBEzw2x788Zr5WvRKz87y8Vpu9Roc3PGHKPD3doVY9AR4NtwMGPD2lDzK8NPfFvL4wKj3V45e8HGXCPGu0Dr3Q7Wq9T/6zO6vrXT0zzVC87Zi0uM2r7Dx5Q0m9EcejvZaCVbyTbMg82TadvbxvGz2EEsc8RzExvSXG+jzUgb287fSovSt6rTzpKFG9gVwzvU7Kc72VCNM8h7EGPNoQZr2fkKo9xZYVvJiUsLzjNnK9PZcXO21r3z05rAm9LusaPNCuwj3kvqs7qeaSvT8gtr1+u/o9Tv9OvfCitDsSyDE9fhOOvGyi2bviIMc6F/H1vGkwwr0eILw6TuKvve46Bb0rYAs9VkcrvS2+oLwCJ3A8kNb7O9ecUTygEvu6Nw+vPaGDlj1Uev47",
                "XIzfuxeqRz0YbLy7FEtYvByberxNY4C7AanQvLuwpL0++g69aBT4vQ84sD0MXsO9kieCvKik/73pso68Q/TpvBxzvjuX/bE87ryaPTKgvTu2ebE9Z5QgPo5akbyP79e8EFddvQJYKzrdRfO7fsbFvCccKr2ECKi9qnREPWJZTTzkiU677er3vdbj3jzXDPC8iKvNPBOfqLwed1M8ivehvXW1sb0P6A68eNwkvShMAb1LRSA9Nc5ePNmrLLxt4dE6J5+Yu9bmrryVYVY72qAIOt7GIT3ukzg9e1YGvPtXtT2c/ca8VeoUPWsEPr2BlOA8SKp4ve39+z1b0Rg9K4FCvdFw27wOmdm7VjjfuxmNIL270r09eAB6PV68pLz8kpi8FHcGPTMCkD1+Otu80WKQvaJNZ73tvgC+aqbEvFnjtL0Vrvs74cNKvO2liT1Npke95FGPvHkD5TwbFBo9VIsaPY4Fybx/72C97ABdPUqf67x0AKc8iFJJPbitkjz3Zyg9cE1pPFv2grzLUaK8pE20vZn/Fj2oWQc+ubbwvZ74kr2GF2+9LqB4PNxIWr3+SYo9igDDO1yk37zp7Kg8PFJvPZVQwjzeI1G8/2qtvXIRMbyIio29xHvoPAj3Cb3+qSW+LjOtPShK072T4nM8RXWaPFcNIz1P/Iu8rZGJPJ3KFr1KNGK78brOPP4yOrx5fRi8KnAwOo0INr2TBve6YpGQvKMAxbvQkaS7/lESvTwdm7xBNQa8RcJVPEVvobvLPdI6hESAvElF8bvyTwm9RX6xPBRbS72H5+A7WVUlu1Wg8jwlh0S9PO/PPVkRaTykm+W8Hz1pvSMEIT00kRQ+dMHEvUvJDL0ZApK9RhPkPQSJHb1TClm94VC8PM+9i7zoW7K9PQ8xPSWbQrwXt+Y94Lxjvdnb6r1Qi2g8som6OzvQHjwzG6O8VceuPIriWTxNMxQ9a52rvTRQAz1DO827iICvvEGWNr2iJ4Q8iRnpPOrzATwwK566ZIc0va/L1rzYhEC9",
                "OfIUvCRvdr2qKsI9N4dovaHB/LsNvDQ9yHGGvPekgTyUZDM9HvxAvTcC2rwmDWS9e5Jvvb8fnrzzvLM8qqeZvG0iBz4wzDw7O2BzPdxXkrzjPyS9RgdavY1nub0i+rm9yudKvbGwVjvLBDu8b0CLvAxvpT1JYvI7QiqbPBN9aj1/cya93MjQPMCQvTxMNC48WfriPLetuDw448i8Op+vux7Blb27hYY8Gm8bPRcu1DsJNKI8Zj2AvcTSGz01Qd+7va0zPVzblDvRP+y98MDZPHj9C70QQRw8p8VOvLj9Bb4xexA9hh4DPRJRO7xVa3y9ckaRPAdLxbyZHk89SMhRvVELDLy3i3M982sXPSpwG710fvM8WYhOvAqTvLrFaus9deyDvLN1jrw3p6G80MekvTfzXrwe9vY83vh6vPbCsDtFkCO94GitvYLXHLwqjAa9b3qwPdup+jypCI69uzkROwC/wL1euxg8wwiCPRVAfTturZw8UtthvcxKOjwo6P486JCHPMBcnL07z5q8t/bivYlESDxaKdQ9tHDBPGMUXL23dnc8aG13vWhnSj1QzwY9otBgvf/spTzxo8o8K9e0vAYXpLy0dHg8h5AsvSHuWLoE+5k9pFgZvbgnpzxBKQm9BHnluy9CdLwMoo48wOOEPWxSCDyyouy8jwFUPN7lkD2xjqI8LqlkvCskFb3XLwg9Ux6EuTsjWL3u8AU9mVW7O252LL02aVE8OXAPvHC4zTyoRoC9C1KZvbiPTz1jLa08J0XzPPCrQz2PctC92XimvUoolDvPB8e80Qq7PQ7aHTnjFao9X4YyPfD4uLwJV1U9LI+dPRl36LwRFni9INhSPVySU72XJJw9zi6lukT/gj0p8a69nhT0vMN3Ab0TAaI8WfJ0vclyIr10wpk9/Io6PVmZwj0uoeU9HjTxvEdfKj0GUag9LFq8vH+Gsb0FUoS7BPhLvO8hnjw4Oxu9ItuzvGmpuLw97589WjKEPOWqrbxo7gm+ijeNPYA3Rb1CHZw9",
                "I7d7vD16kL1HdB2948EkPZ7PMD1OV+Y86DBIvVYaOjoG04I8Jb18Pagvo71nFcm8C6PAPBhYnz15d9a9qTXiPEYCGD5N9Aa9kGsPPUbU470/nIM9Lw+QvMTFZbx/CB+86IOjvey8xjwTM7W8C3JOvRw8vT3y/3i9qsNpvMj2VL0pIG49kAGevTF4tDwvK6q9qHg7vG5onL0t7+M7vCuYvfaosT3Xp6U7KCuqPQL/PD0YTre8FhMkPf9J7T3oEGS9efiSvS9gIzykT0E9xKOkvCXvfD3RwM08RucbvePS+7zvwHu9yJeTPVJ7Iz1KizS6h0wOPZyf+bv7YFk9G5WcPUvl4zywejK9UrUWPs9CKL227rU8kJ4evHKNxb0DrQK95ZYyvtWier1L+pg8rumavbZJlzzSS9K8xrARPIuhqr3ISL+7+IbIPNE+zjw/vYS9gPAmPT0F+bzo66s9ofDFvKQRPDw/ZJK8sj+DPHurALubJou8XgbFPbF3W719tnk8lGilPZrkOr1LZ+U8owBMPI4Rpbs9Gw28MuarvE0auLw0OL+9+0/gvSsbJ71/ncK94kMCPV1ANL4UkNE8ADLBvNxqLDx+wNk93aXQvDbpvjyJHJK7PnGHuxjtwD3L95Y94YIUPim4Eb1A0Su9rw2oPKrnmr27oSo9uYUtvAEaxDt6uzi+UxogvPQNKr3RYos8QQgpPq0fs711nqg9sLvHvBNeN72gqok9PvDVPJDbuLw8gNk8Q3CePeuNCryd7AK9Nd+EvE2LmzyE/i48GFv1uVlSvDyT0Ia9c+ufPOkvUTyLEP68qw2avIMTcb3uenK7vaGLPcdNHj2vYY09GnYBva3eq7ySXfe8If9/PGeASjxM8uS67mjgPM8jvb08ZOM8SvIcPnbtBDwF+YC8owQcPIvuaz0aW9U9O2GBOyy/mTzaW4e8ateSvI/hij29+l89cYLzvFEhczydhIA9sTbhvL3SqD0/rak8XqrzPGQzejxV7HC81tvFvAqCu73vsWc9",
                "Jxf9PNkDh73047m9lKOyPcjg0bzsjFC9/LQCvTntt7zqM0I9JiTsPB2M1LvOxfE7DgaHvXcqCz2HtFk9v8QTvSgpOL2dYqa95l5svRkLa73nBOq8FuIZPUUyir249b28AU2IPa7Abz1pFAU9HtWKPAoFcjxy8N29g4JOPChqvjt0eBA79WgRvcWKlD1Pb728D6BFPVXW5TweKAu9M+jtO40dizy2oRo9dK8EOu+iSr3kzE+9UlKGu53fXL2iZ+W8dz/+PZsjg71wemC+dLaGvP9Zs7wDp4O9sCLAOzhS3ryL7ZM9Vh4BPYJ6hLxVtb090uYivTb3Aj3KyEg9m5aPPNRl1zw8rMa9jiVuPHtbvrshwsg9v42qPD1f3Ls5NxO9EsXTvGLF8Tyc96y9RVobvYcWgz1MO/m7zs3kvOKZkj1jA0296RD4vchQnTt8jSA82/FyvJMG+DyNbDk97rsiPIfBYz2NAOo8bCv9PP1ba73SZAy9Fsw6ParS5j3glC08sY9APaYzF7tDOj09yTj9vJKIYT0EWZw9KHhFPILC8Thu/389mdt+vXcwcTvrkes88JKYvdgSAT2y7YC8i5tDuwuKLb3rsIC89tvHu5kmCD6wmG4969FFO1Zbibxti/q9e4sHPld1fT0qk349cJtsuomEA73PIAi9vN4HvVYiiL3tS6w8i+OSPGGXyj1af7o8uxoyPWBrkb1wjg69ops3Oxsw3TybUdq9L4tmPL685zzVRGW81Va0POj7lD0V/MO6RLFaPF/UfDu1/2a8rNLfveG01zzyVfI6cjlcPM/FnLy+RIo9hiNwve35Vr1/txs8eyMyPcUZaDyjoJQ8QDiAPYlrBz2Q67q88/K2PecGSj1EZmc58dWQPUiAh7zM3Sg8MX4yPFIZibzkei89gFU1vSXk5z3o2qW8Sb18vWHJSzgCwwO8yE0CvdazW70NYaa9p4JYPHWMir7vmUCQxJhAkOIEQRDVmUAQCZNAEHAeQZBxk0CQItJAkFTfQJCikECQ",
                "uhVBkCrpQJDLn0CQpeRAkBfRQJBlm0CQOJ9AkAztQJAlEkEQT/VAkKcfQZA/tECQrLtAkBgAQRDREEGQ/w5BkJD2QJDdukCQW7VAkFiSQJBEw0CQo/RAEGb/QJCPGEGQBwVBkGYIQZDZn0AQQMxAkHUkQZBpmECQ+e9AkFn7QJCPokCQOLlAkMi3QJB7IUGQtdRAkGzHQBBnDUGQP45AkGACQRCWtUCQjQ5BkBHwQJAnGkGQCCRBkDbcQJDT6UCQ5a9AkPodQZC13ECQ9bVAkFStQJBI/0CQcapAkNYcQZBsJUGQM7tAkP6bQJDxrUCQXCJBkIP1QBDqnkCQuvpAELOfQJD+v0AQmNhAkEMIQZAzFkGQ+bpAEBG4QJCYHkGQG/hAkJTmQJDWDkGQDZtAEC4AQZAetEAQ0fBAkHIKQZCl+0CQ2+dAkC3UQJCloUCQRrVAkHz1QJC/x0CQ6rlAkA2lQBBuAEGQV+FAEJqtQJAT6kCQI/VAkLYUQZAF6ECQQ9VAkP/TQJAduUCQFt1AkFDbQJCny0AQxvtAkF7yQJDBpECQa9ZAkHekQJDKu0CQ8aNAkHofQZAUFUGQDZxAkOmUQJDB50CQJhRBkEurQJCwykCQwZZAkEStQJD6mkCQrZ/xvdMSKD1Szdq9jEWNPCXkEj74dXc8YIequq31Lzxht7W8+bf7vOGC0bwPnpC77N7qOm1mQD1NSce9aUjKvE3KNj08GbI7/N+gvTnhoD166se8zO9NvbwzAL1HzCa92RvGvD9DSbxUxWI74p+9PThljLz3zc49VhJdvA2bzj0XrCq9xYuZvbCk3TxPGgs8QIhvvYF7Kz0Qhwo9W3uwvAdJ87tCiag8DBnnPRmPk7xcy6o9NM5sPM4U4bzNpFm8YuzmvBkka73Ggw8+QoA/PWS8m7yrSNw8+r3ivDS7Cr0dDha8/OPKPBlptT1zB1w9hOEzvT6QBzzOrpW97o0NPW1PVb0bUjQ9bRE0vaU64Togww09Eo+PPWGYiT0d7rU8",
                "6niFPeMusT1tvaA9nl8Ovv6zTbwI+Gg8gTRXu4jpv7ztBoU99nDovI+/Gj2ExYq9v/w9vbRWFbtb4/U9zmVfPV7EC70ktkm8n+HxvPa1SbxGbfm8JFXOPFSHdTv1k4Q9guxbPUVNhD0eLgk9RwItvZVclruxHms8ismjvdoxirxkNZ89BaCEPbgV7TrXR5K9buHxvDQI9TzMG5U6coX9O2/KRr3tMYG9x++OPTvbxbxGeJM9WeHDPBYATD1O3V+9pshJvfH0Zryh3Na88BWpveitiL0uybY9chBxvWyQI7stgdG9GjyCvWU47L0F9bq+ztA2PFF287zDpbo8RW3bPVA/ATtbB+I8qKaRu7wnmr3c1JW9OUX/PKJCCTwVwBA90dSRvJBaLryxbFY98WYZPWS0Bz31i7o8PV/4uoRBV7s3wE097E4/vYPzLj0CRJq7nLPEuzOkEj2YuT09IJpRvW0LJbzsmvS8r5FIvWUkyruloYg7RfkFPLpFxzxMb9g8cpzKPRtbUb0hitE7ziUXPUVl77zvYTk+zAqavDup5rzZabK7FQN2vb1je72c5TQ8d8GIPamyjr2zSEo8HKpbPCBUGj0zrpS6p0qFPf0eAr3o3qa9YGGHPPj2QLzlEZO87y8kPKIvzb3aUIy8k1bcPPDhvr1EDGe9jakcvBaZlz21lLW8ylQ0PU9GJb2GtnC9JjHCvG4Guj3JB5s8rxWUvC1Ue7veieY7INCwPFhiozw/kkY9NbJRPU90l7zwgy09Xa+7vMTFwzzDZ7I8mzePO8KXyTwx/4O8HGzQOpmWhr303YG7nWfDvE9ADD36iTE9Y1eSOnbHgD1kQLM7+FYAvQNDtjsT5VW8kqMGvPIjlLxIQ+s8ajxMvV5dzD3lNDa9KZyYPO6oDD5AcTm8BSEUPIGobjzjuNE8vzu+vMkhjz25BCo8E4B0vC7dwD0/fmQ9j/uMPEwgFz0IrFI+NIBpu7Fk77zNSIY9iRq1vACQmLpQeMW9IREhvWTJnL5ac5c7",
                "MzD+PewlT72r6NM7mN0ePey2UbwHFiY9rxAqPLBBdD1/JgQ9kr1QvDuaCz3kEFw8ZVNxvD4dh71u9z88zGdRvq/h9js4bRS9N4SxPG8Adz1TZPk8E967vFKMlbuve/48V+0UvYjzzT0edLc8YY84PZ2TJz3gJ32+GYqJu1XUGz1v7YG9XPulvfKbAz3HRTu9mPGGvQYne7wbW6C99XLpPNOH0j0juTy8c0M4PfWkvzx0L0W9cZGmPfLRkTuQ9Te9VFiPPVE9ozzvS029NUy5uw+pWDxAGye9dSlZvbUeAr5DJhe+SwDZvWMA/D15iJ89EZzVvIjkmTwSb6w9Miy4vMwpNj0oBKO9HV2yPY6ajr4MMQy+XfP0PT5wk7wtsdC9YvnkvMfa2zs7THK5vjDTPe3g8bsBlwi8WO7+OykGd709GtI8IncvvQAkPD2J3lG81p2NPLBDC77GGoi8yq+pOxcXBT2F0+w8aFuqvL4rQb0sB3A8x5Mou3ud+bv6ZC2+hznLvDtaT74ZHKc8rPJMPceVwz13wfy6Q2sJvn6JPr2reO+7sTKRvUFkUD1qx2091jRvPakJA7wWv5a9RYdsvsB5jDzJeBW7MyW4vJQB1Lzm2C09FeCYvfUanjtT6D+9wdoFvQSq6Lp0SIa9B91mvGjcUb0tIAu8FJmgPWcE8zxbUji7sf/bPBPrrzw0qMA9aUWsvZ8Tbz1W9Ce9ye2JOhFCaD3zb8u6sfN/PclYFz3K5Qm9WaGFPCsUI7w5RwA+sVoDPQuBU7sG2yG9lnX/PLi3jL0zE+G9/8cQPkJO+7wqTCE8uaYSvGC70zuLJ4G85zGePIACVL2xr4Q8gEPEPdrI+r1gkWE8KOfTPcIaDL5Fgw89SEiwPbVq2D2r8nm9/0IJPW0UEL0tZO08hOZRvQs3+DlRw7y92DZYOUBhZT3GYS4+kdQqvLw5hj3VGjG9i+55vABCjj2DRQQ+FdxsvVv/AT3luFm9LNmmPLxpBL3bIRa9HOB6O6ouazyExoU8",
                "08ZGO1Bx+Tx/S7q8FwZtO9FaNb0965Y91tDWvdzaST2zj188iIoUvaEFDbwrd4M8gTf6vLRhpLsqXTq8YccpPfcghLyNP9e7fmNsvJDZOj1fwBo8bhxGvAZOKr2pg8A8ZT5bvHM/MTwoYv48XW+XPG22670O6EY9gK5LvKXynbwg+ds8uhrQO4J95DyjvEq9O2K2vbVf9jpiIA08gLb7Pdwco71uHj69ARvsvI+9zj12ivg8uHsZvbdLtD0VHqC9mo+nvYYdQj3wCUY9t0aJPFqioT1N0z287oBbvbRt6jyWH/K8NiNkPfj4GL3vugw9u8FIvbKexzwXT0+8+yZQPYHnrL16xRa8PYkgPc73XD2Ai5K+Pcw0vVb0zr0/1Ig8CWbXPGdNZL2dLIC9vam4PE6siL20HlS8dv/8vH8drLykt1a91dAhunZg2jucvAW95FQ5PSpTFz0lZnC9aVMHvdo6Pb08Mg29v9zKPXQPbzxTy0u9duEUPFgF7rxmyhM+rFwMvaHdpz1/6FQ9LVizvTSllTvm+Ao8IpEKPcjimLyh6L894bqkPVwZWb3sd2C8mulaPKnmmT2/+na87wvKPCHhqD2jx3q955n0uzhrQj3tZyG9VQu9vbLE4jyJCUq9UG04vLnOFztL0QQ9qpGQOtUFZT5YD1q9xaZBvryFzT16shS8Ab2zvcjiy7z0MJ885aekPTdTC72EPK+9ZrGlvc2OozzHsPW9RwihvRI/Tz0aY9a8uRebPPddTT0T1i08edb1vKsz8Dyzh9A9Fn5WO35z/ryXt2o9JnEQvL1NMr3yoYS7Lr8jvY8hoTy9VI09kg24vHH2kj0Wyuq8wqy7PYSMf71JwDw9J9EpPTLfuLzL/Yu8oZ5SvfABx7ts/iq9+jjtvGthvzv8cR69ukjQvZ0svb0pwbY8HewTPgd+DT2pYNY8DRzgPYupvD0S7b88ar+TvDVWpb2y/Ia8+Y7kPAj0Zr1in5w8qE9WvYOkQTxXxMW8zqSvvMqgdL30Jno8",
                "q/5sPQpxHzs+Q9Q8FdydvWYgor128AM9g950PIs3eb6hvmG8y69ivfcjrb3omrK9Q18TvoKXgz2Tip29jRGzvPxZ9rwufTK9l0mkvUmC7rsS+lG9/mXqPX3NcLyuvCq9B74GPQeLuT0kFw29QC7dOK4jpzw2fIm9NRGJPM5rJT2/JJA9legmPU6gmLx40z89+jBNvUBqmb0+qge9kE+wPBy4hz2X5mA7KEvWvP+0Aj6jPCU9QJ3evZE8E72gOiI7kQpLPlK+jLwSxSo9wiV6PIA/G7uVfxw+6zKZPfqqn72K2pS8+omvvfikszzvtWc9nh/sPbmhS71K+lS97YxCPluvGTwcCtW9yESSvTkx3TyQWaO89mI6PXBA0zx3+O68Sle+vfBmDb4/IiS9rzuvvbQ4Rr2WTtu6ntVAvVccgz22yEu8m/AuuWgA9r26STO9vnQpPdNCHD1MDN69entyPf/lA7wWVUY9mZGAPbWNRb3s84a9256NveHj+bzCl309KllYPfShNbtCcfA9Pw6VvL4fz71wEKk7EJ4svS9iWjzhMz08QDsWvaZotj3ViCc94gdhvRBu2jzMiea9Jfr/vFQrAL2BuFM+Lm1PuomIZr20WJy8ms9SPuo8rDytgn88XM/wPLqU0LvExFg8f1jMOflsj73fScW7elEPvbffx73QGRC80MZ+vHPOi72dWbW9Exwyu9Yu8LyzwRS9U1iCPgtJMD2mbRK+EDfHvuIAkz38hsO8444hvrm0zDtMYji8L3m6PfcbjD08t1G95gOWvfj8gTsJ/pK7Ft6DPQUj47vpUHY9sxg/vXJ4p70BVUc9fOu+vb+WBj1vowc96zdnO/XLTT2R9lQ9zjrMvLnCij3xnAc9jAFkPburYrtK88A9BgLOO8FrdTyBIbI8opsoPSv6Xr0uhy69TUdVPKqJwTwvKjU8TbDJvXsDS73KOTo9P//2PZdYQLyNoWa8Hl8tPYvv8jxLKhi9dCUwPM1T3LwMLqq7iFWrvWmvHT3cPiQ9",
                "42yePAsVKD3XQxw9eNiHvGf87z2Q0wS9xL47u0vyCDwyBl4+GVf9PMNnIb3g8CO85c5YPSrGmD0itII79Fx5PPyo4j1rqyq9QmnEO8jOvTz9xbM7xwv8PFHR9Ttp70s9BRQuPKXLv7s5jUk9UNk2PajJxjsj9Eg9hAJNPcjahL35csu9SoThuxyLODwSYJY8TR71u3uyCjx+nAQ9l9FUvROzjL2S12g9D3XJPDuE3Tx4twG8LrnKvdw31buh+IG8oSu4OyPXvbot/BE9ueWCvewDCz2nWsc8cw3bvDcmhr3WAp27KJMdvdf1vL0AmKG9SL4DvFkPIT3pGvQ8O4rOvSB2SL3offE8xVY6vWCynL2gzzC92+FpvYfXrb3cTP+8YHzuvKcPJL1nfGW9t9nVvBjsnLzni2++jdlsvcCsiT0l1a+9qbBTveb6Gbwromq9uN02PUN06Tw4yQ+9JsYrvW9oXTwKiQ29Gq0TvdJD8D0zrhU9S8V4vVY9vb07JBM8+EVivWW7qzxjDfA9T/dOvOCI7jpc+QC8PlARPYRtDb16BKI9+MgHPQS3BD6wyJo8PyJCvUBqXT2JulG8DRGLvdWmgr1mKqW7tplRPb0yGT0uJLi936ufu5J9gLzGN4M4zaKVPaSJ37y9pYO8/PDEvVLxnj0VLJG8uCdMPpnJPD1TdFY7WzW7u46vgz2pvx09NS0QPX6Ip70aofK8Zp5dvf4Q7D1k1TO9KfhJO6GmX72Zt229CR+hvNvTQb0zKCK7QVlFvQ1Wdr0CXJi9sH92PRN6LLuWMgo9NEI1PH3WhL3q3XC9ObfovBo0p7zovZC9Re4QvfdnZb1tJw29nPxjvSMhk73cDIS9T9FVvSe/fb2KMqq9apJNO3it9rvDLJY9LRz5PKtrsLvRWrO9QAa1PKSzDTxq6uO9BcXgvQQuyLx1Mkg8q1O2PEZDAbsjphI6N/KwPNBo5byFL5O8zgkKPm8/OzxCfha8OIfsuzxo2zxjFq69SSUTPbPlPzyAVYK7",
                "LWMBPWP6yDyvnhW88Y6mvAsRFL2ulmS8vXuIvD+ODj3nAyC99GisPGIkPj2Atjk8SD6+vAkPirw7tpC9f27BPaOml748kEo9e7ChPEQ4VTuFqYO8r0lKPCCIq73W3Gc8sJz5PEBBQr2Loam9nTJXvYRmkj0iNQy+JfVEO+NL8j2rVaY8U0e0PPj7zDw5UnU9PR8tuprzoDwMEjm86lbNPBujhb3q1h89UR83Pa6/Uz01Ida6eK2KvcALXr2/r1E8md3MvAyV6rsJPle8SxqHPaZ/xDw832Q98PyaPDZpFT0pKgi9lJoKPmMJoDsR4FG+MUtLPbKDGr2UYoo9zJoyPa+BHr7gB829mbpGvE0Diz2cUMe9pBHTPBuKCb2eBK081oOZveYWpjvKBp+86iRQvZZ8Jj3K74k9KO9wPQW57jwg6Ke9teSKvcURPb1Wkr29zBJ/vZBS1TzqCwC95WH8vbaYBj1H8jQ9P/rsPL5OFjzlSX+9AMOwPdmqlz3lvD+7YYqSvawGur2FfcA9YCxAPRMD5b0PfJK9gVLwveusszsX66K8b7CwvVQL4z2TJyI96zOCPFbsFz0P06e82x3NvOs1jzxGhqu8A2Y0PKWpqj2byDQ9TwB4vK0Rzb1Oc5w82qdcPd78BD1Xc8Y982EBO1PqML3usJa9PLPKu+K2ID3n2Te9pAJTve8GXzxVo1Y9H1gmvIwlXL2pB4I9kfUxPPIlxDxCLwo9OHlCPTkqo738kr89fti/veWEIr1h9mS9xJUFvgcm77vkgsk9ndrJvRw0lTwaOFc9RJ/EPUAtPb2IlrU9Pe6yPWalKz2N9EC9opSNPFKAXj0SoZy85wH2PBXmQT1a2hE9/j+Rvb6oyT1iSCK+FsmxPfRQnjw+TE872WCPvSlrAb2YIxM9wI+zvGV0Cb3K9J084frEPL4iv71uAcS91g0APWuLYr062I28FKepPMP/w726rfS8JwWMPYeQIj2J/h499hkHPDMeAr5PXKY90sPZvXrDeTteU4A8",
                "Q6i1O5GbOjwcKfu9m31xPYoCrDtHnmu9sLqQPG7OiTwANoI7uYzCvJOAiL2+DUA8JylTPda2M72xgDG9QUlNvYNsAz1SUIQ9moODPUnifL1nctc97TODvFpUDj10pqK9yUWbvGrXkT1JlEM+hgu7PYNnw7snCgG9hsBgu0Ocqbv/0bq8tDaXPNrw6Dt3m4E9B672u0T3WTycX7U8Hw+0Pbo1PT0VVnU9KzqEvZGbOLswoBk9Ci8QPGNv671o/Sm9uSM7PZXLwLseMiG9/0O7vI26Wz1nqA07bdbOPPsCQz25nFc9qgc8PHFQODsbZlo8i6GNvYMV3DzrIO88xxLbvaLZmLx/Gvc94ValvVg7S7xyuKW9ZQexPUFMhTyF2ek84pravEB7vbzvqJu9NvuJvWEdAz3rqbG8PkaBvKWTor1qJHK8H2KQvXc/EDx3Y4w9c86hvaAgVDy+THq+QbkSPFuqSD3rMmQ89XHWPVy1Fj3dDT+9rocCPXDDGLztlQ+9WZEPvdYJWryEEAm9E2WgvXluLr7gOfM6AXO/vTmenL1Xyae8VzeHvVJ1q73mgi297s/fvPgozb29e7y9SGK8vWkOYL1zIYI9wWAIvVwJ2b2Sbwg9d9t0PB/q2b3HD1I9BNYzPkz/Sjzvm447/L3CvJQG7LwI7GO8oit2vSXQZr1ppRs8TXdkPU7i47wr4f+861h1Pd/qpT3novM8aUx0uhOzsj3egT498E+0PB2/YD2Xm4g9/5mmvZrTwLyTsZO991DqO7Qda73qmpC9hEBtO1jSnj1ANEo+LpmLO96VU72DRcC8EhBnPc4bkbyqNqy7XOXjPFeSwjyCWFA9bhGMPY6Al73P2zc9RIjCvF5NV70h3Rc97e+CPFqlOD3k45Q8DQ9VvqNSHj2xQ5Q9VqVsPd+ia7zTUvK85l8TPRRFDL3ttrQ9bTcrvm81jTyoz4u8HgIXPTXxYr1SwLs8VnvIvHZf+zzg4g8+lJFWvYz+Wz3qoXQ9Q6K1PbXJIr3LHWa7",
                "HnUwvr45Tr0WeL29Ob0cPeU0ursZA6C9WcMMPiIzqr1WXxM+ZdIDvVwQXDz3Uus9hwewOvIHnbzBkNY6W2TPvXbNs7vjgGq7Dwe6vVnlCL2UcZM9K/k4PYbzMz14aqK8DhOhvcf5V76tvDE9YvBtvBJubT2WjAa88qPTvNDNqL01Poo8vK5kvMMY/7yLNXQ8mQFsPS9gTz0PWeS9n+pzPIg1Y70tmpO8q/Uwuqdu+LxY00C9cjmRvCRhZz2SLwg9jQV9vLmh1bu773+9tsP+PD4l9jwTwBA9NS+kPHWn+zs1SuU97xy6vcJ5iL1qsou9XyghucNU27ylO5e72Ld6vfV3vj0dXrm9JHtMvf0qgD2nQuE8zvUxPcr6X7tQIBE9MGyLPYy/k7z8o5s8V430PRNdSL6KTHm8zN9oPaHUoj3y10u8GGVFvcl0gD0V3wG9FHQFvY0vU71udpo9GgClPdHkBj1VwhK9OHu/vAZvNL23gDm8hA6UvPz5+T3CnH25wRrnPKY7Cb3SCaU8WjHBOVb2Gz4wmo+9WPMUPZ1TBb3sH4o9mGM6PV3gH71Tdng9njM2vO2ih7zNCbe52Of4PQ03Tj0n6Um9WeocO7D3NDz51lc9GYhhPSd+Db6kD5+8tmZYvCQAVDzeRnG916YuO+TIk706qoI8xN2GO+hpJD2DMto9NrAcPauphz0hViq9YerTvIXJOr4wy6u85inovUhT0DzsgDg7mPDdPOqjQzz+Wp697EuWvZRM772b5Po9Nt5vvRn4DT7a1go86qS7PEACxby7tuA7EVRbvQ0C6zvXDSy8WIQGvJd2gr2EJam80mS3vqPd5rwGkou9YUERPlXg+TzhfVi9+oMSvsC8DL0AX8c973EnPczmSTyLMGm9BVKhvNCivj1Cncu8WkwcPe69+DzSJAk8X3yuPZ1eIb0EDQy8BWBGvTcp9j2/DKk9XbbQvO2EhbzWeLi8sTK5PGiVVb0rB0y9gycBu2bribr+kz49vs7lvG6MXjoWYkG8",
                "2ho5PTfegzzuNWo9VaMRPppEHT3Wuj08rWchPPW+ojp4AWU9EG03PalGNr2iDJM98WBPvVOUezzFHNW9xfEXvXLarTvGHFm8lBU6vSQOnjweUCM89XwxvVsGaL1ikhs9ppzkPF4wAj2H/J89aGEuvYsKPTtsfI49NaW/PAfh6j33gYG9i+zbPPDCgb1tVja9utW2vOXdQb3OETa8n7KZvTV+ZTx0uCI9E2GSvR3WLjvQ1gQ9GUINPXbKcD0WiDa7LNqhvafYnTxfsBo+XqULvXe8pDs3TOq7PfL0vV82wT0oz6e9Ah8RvQXtwbwO/iG9noFmPdVfsb1L0Q087kcsvTFOPby+eXY8FR32vbqDDL4X2jk8VWkUPbAuDLxBxUQ89CZnvSMMez0/F3k8J6x0vUC/kLw+zzS9vVUXO0vQpr26fCK8qTvyPQ/wwT0jduI84rfRPbPLbj0Y4KA94Awyvfn4mrz7RS89pLSlPUR+FL4WIqc8AdqzvZ5Yvbxyvxy+TKMGPSxKuj331eC8grgavebfDz1bY2S8sfRfu1mCRL2bjra9N9bpvA/pG73AmqC9WckEvQxi07z3lSq9sWfEPGvYrryqvWg8/Ey9vdusDTwWPoI937QFvXB9k7w3Puq9O4YxO5e5aD2YHj68lJOUO0cDVTwQrdI5QDrDvee+ZT3TgYC9kA1ovWI3hL2sCkM9pSNkvDo+k71laxY9zkGDvUwBtz2sY6M8rt2SvPOlUL2kOGS9sdGFvU2fWj1tseW8gUS/PVdwPL1LFBg9SO2Ou3EgHj4soBK9ziXEvAZDMT3Bwfe9TVEEuzb7bb3SVvs5o7XGvd+4HT3ZDQw9ZdPyvH4DAD3j+lS7vHjuPFBvvb0p76u94X1cPQZd3r0q1Ji95ZsePUX7Qj1nX/A9ZPMLPOd83bxYrqW8b0OzPcYx672Bs6e8sGULvv41WD3iNos9Mbt7vTGyEj2uA368eb+QPOGRpryN2HQ8kXSxvWy+kbufH6q9tQDyvGEef7xneKc6",
                "gsZePbmbJb06maw8tBHZOEdThrwc76I8h3h8PVdygb031088w4QTPh9P9DwP0IQ8u1+fPMn4qrwJVMS9rI2mvbH79ju/UXs9VIvFu/Jps7xMvEm9t4sRuyk+JjrXV269AqVRPHIGmbxaLZ88Qj0IPWk64700rZW9Mk5gPTbbuz1A3Yg92jWnPfKveb6srSe88z4tPSubIjxk8uu98L5/Pef3Hr1mKh89BW7CPGT6v7ztVm08csmvPDihoLwa7jQ8FDCwPO+yMj3rYMu8S/kQvHcI7z2Ad+i9oXShPJPBnz0e3Z09ORGkvGs9AT3F/zy9Sgv4vCazVT2pqOi8onL0PO5xNL1yS309okUTPXB06LzFlm092y8MvU7jybtgdm89jSNUu80IJT2TzTs9zSncPUyRqr0EMIm8q2UivZhZ4jvqn4O9tn+dvc8mijxfp2K9HceTPVGl4D15Co89tKWhvRW41L12KA6+BedUPhLmlj2IB5Q9U3mFPSNwY722MF69VacOPcEdzDvnQj48Q0JTPDYsOz2waJI9m9BAvT3N2j2zlQu96ZlkPsV7Qr1y9ck9CknBPGutoTxnOx+91NS6vVpodLxUnSw8NAtgvXf44TwO7wy9GtOQOye3kLvIQxQ9pQIkPUgizzzkKIq9ku4sPYaXqb1PxsC9aKCQvKD6nz0EHkA8IhYUPa6d8rsNFAC91cJGuxA9MD05yKu8r85lvH1n5Tz3zla9pwiRPfKfiLzGBc27D3OoPbkKlby4oxM9rxS4O0HIXr1oj3u82BCePRxLmjwJkCW7ZKrXux7BBDtffAc9gjEOPUrSzzwP6rU8iAHYPCj5nD3gcSY94PcPvSy3GjqI0jC9tvLCvJkvODvQqE48dkaOvnYOXrxm4nE9aa2YvL7dvTyIqPU8oOcyPRsVq7txZzu9+glJPHC9tzrNKw89BmlBPKZiGzzmjh0+z4Z7vaZxQr2CJ3E9TpEMvjvyZ72kbkC9voSuvMKcjD33e008zarpu55WGD1YjTI7",
                "pzVXPQ4o7DyKGOO8EZ6XvKRZSD16TOY8NXmVPaJfBD1Tjjg7nn//vEWH7L0lKXK8G/k1vBbEprzlQOk8MSctvc8hHr0zzNi8vLGxveZnvDuUojQ9UDEavbmRXT2gDyk9aoa3vTsuGTxo1Oo8F6zVPc7/a70BL4e91I+GPMzf5zzQk6S9CqKqvJctTT0F1ZM8LoUOPLS10LzS5R29uuRpvNYMwD2n+569jsGdPIH3OD1ZTWQ8XqZDvR80rjtWC4i89mRevOZ1Sr2o9wC9/tYdPbiPAz2YZYU89EaivINo3Dq7Zf+8McH6PDP9nj35tXS7/mIPvO8LLz09/088q+wVvlW4070Fgxy95qqMvIvnkTzU2VU923pTPUrpZ71vjmG9AO5iPS5XEL3gtDO8eMQLPnmk4jy1qsu8CGPpvAQrIz2lM6i7HnWsPd1lNrx0Xw091QSbPUTAWr3FBwy8CDgLvfZpVT0HVda83w0EvSXZjT0Zl0S9u9cEPJh+Or1Hm0C9TlGoPJ406zwEicU7u0eVvQgkjT3wsW89M4ohvd5yBz487uG+EU5POpfHrz2Y1S08RcZQPbwzs72X85Q9IeXVPfPd5rzCGFY8QjVlvXlZzTzIjSo9O1rcu13I8zoSIBc8sXFAPQyyn7ww5jI9VubCvMWdSruxE3K9pGitvT/gNr3OYJc9zFqSuzjAZj2ZTY68eEEKPaU0gD0c1hg9xscAvmpXX71P7dW7179hPTTId7w8O1k8AFxFPV+f7byu31Q9OwE2PbC2pz0vLpm9WIUuvSYHG70+HRA9DzgYPvEI973imIO9LcmUva4yQz1DbGG9fJNIO3UN2ryg06G7ygCpPDVhmrzEzTu+wP+PvWOC+bxmfJC9A8MHPcl4Rz2jZHe98m8avVs4Xb2c1ae9tMmhvCKjHDx3EYa9nF45PV0Chz2xQWm73gcovuFxsjwJQdM8cpGwvEnGQT2l6Vm8T+BjvEOdgbth8Qu9ybMPPVQ5SLz4+e69LPdhvCW7Xr3JhhW+",
                "1v0fOydOSjyzYci7pL+WPaThUr3kKv88uCqQvBEZT738LP88woB2Oc2PNz3eYA292DmxPetQ97x+Vse8OOOTPB+IoDzEazG9/1iwvdq2JzzyV4U7OPchPcbtQbxCz6e8fZNgvqj6tb1zpEA90edYvGHohr272iq9tSCCvDg2ALsIpq09y08SPca4fzzk/Ii8dbb1PObiELycl9W7L+8qPYs20D3VHiQ+tocIvD8MJr6hp1o9H/AousjPFDuhkS09QbsUPSmU0rzAkJE8EDGLPXwvi7o/GDG8i3JgPKwxwz2RYLi9z0lWPR7DZbyPiJe9ra4avb2Sq71baVS+Am/hvS5WsTxiSXY9yg63PC7UHTphpDU9xe9dvGrXrz1LsVO8GHQLvTXL/r22OuG99bQbvnrpOj3id7q9Jeieu8UMTjyqT4U94U6nvIz1Ur1BX6M9NGWJu3wL0LyAW1a94HNDvEIIGT2lWlw9e/k+Pf2MHz3kzDs9p6lEvXBorjz9/Pi8/9uUvSviVD3s8J09RQRmvZ0kHT3r4Ju8rZLkvbVm2DytDeI6XsZFuxULHL0zBD29eUE+Pboc1T3fEMk9xUTCvTaZ4r3EfJO8Kx4zPeBhAr6pn7A9wo6MvCiVBj323IU8ALhsvKcqEz0UmYU9wg5tPbOT8Tuexgm90CGfvGeRVzvzSpY8ReOQPbUdiL3PyLA9AneMPWX4b73iL0+++yraPLse2jvbtQA+nKAEvt5FFT14L5U9gyIlPMCQLj2girc9YOvZvB+Lvr3Al9M9ZRq6vXLhmjzykY09+KcbO2FPg71rQxA9+/sJPsOE6Tv24FC7ZTqxPD87xD04zJg9VgLHvKcuEb1kbtk9YkzVPB58gD31xJi9aTnROQc8eD1IpMu9AU+qvQVZljytUm09FOMiPTxmCL374LS8GP27vvTFBL2Kg5Q9S+ZWu/Uuyz3jPJ296prBPVJvgDrqXXC9wDmuPVK0Tjz6fcQ7THRdvYoe37uPC909Yo2fPCuDYL25Uo49",
                "1s3cPafE8rq/evc7VprivN2Nhj11F5u8q8+rPIcc0bwGjgM9FUf5vI6zo7mCKhW8669DPd2nabzE7tQ8mDCwPF6y1z2EC928ZiujPYbDwLz+6wg9dHHWPFagirxerg++xF2lPKpWN73rH6Y9Ge2fPULxjD2BSlw9wYgVPZ7iCz1dMFO9ctkSvULGXD2Nj2o9uJYGvdhuZD1+Ctg9rE4CPmt3ej1HFqu9o4NCveDl5r04+tU8j30RPBBYpzzys1y9MFWIPBEkCb5UnI+9M2AbvHxXIT0B+ek7rB+nvIyRBT0qVtw8exhFPT+pkLzxlSs9qEedPWitlzzgvtu9w1y+vFVDEL0/yes9QnirPMu02jxixVQ9ZxtSPYN+G732hfm6QVmWvNxyd73SBCY9FCIEuR16NrwEN6w90eo2PIHqeL00Xdw8c3n3PcOJaryCEt485182PhpoNT2aIxi9SDWsPTj9Gz3n6iM8IDR9OhIIIb6Un0m9SHzKO09g+bxgGJe8FiaHPN4xlr2g1TK+lj8RPWdAAb5tcro87i6tvIIOmD1FPXK9yOSPu+4UtTtBL8k9sLFFvUEiAD2f54k+itB8vbQoBz7vTp6+NYFNvGNBDD2xAYu9XJIFvd6uejz7dfc8uaA4Pdsjhbwr1yU9P0YCPDwefrz8X7y8zgNjPX3A6LyKeoG9vtXnPL6PjDyHFqw9MJSVvFe6t7wSd1y9nZDAPe5L3TxheG29HbkIPEQwyDxdRDe9yIc+PD/KZrxW3c+962jcPRk9wrsAtbq82seyPPKA0rzc3cQ9XO2DvaYlIrzD/UA9Xayeuxk8qj1mMAa8SUMlPY2eCbtE6UK9pZ7tu2XGFLqw+Wg8s2a2vcUjmDw5ZZ08OvPuvGwjGLxIbeQ9Ci0Evq0hcz4JXpe8zPaGPYJ/1TpyS+48bE9wPV5eNb5N79g8Mw5ZPMy6k7wkVMs8ZV8DPWHnmj2g3609vooyPTpYGD1Q+US8D1aDvaY+Oru0Jl88esR2vPX00rpEtCU9",
                "t+Y5vYhAAD0MaCk9Ddmsu7aRkTn8vJg8d+w4vLghWrwhCSa9Jg1cvZ9tnLze7hS8YMM0vRJtIzzltsY8u3RZPZ7TDz13qNG8K7FjPbicijx1doK8QivEPEoqJ72RhKi82PYyProqpjzOyPy86oIgPdJgzrwHlu68EjQxPXEsgz39nxO9QLduPI9vJr0m7828yEwRvb1k/Dz9i/A8rDZtPcZsib2eWwg92pwcPUrDgDzuB2I8LmsJPAqYqTvY1te9ldEOPHvXoz6tPau856HVvBmIBb+fYrE84YJ/PdvFBT0GG349jnaEPV9+hz0L4kU9/lKMu5iOJz38/SE92i+JvCiaLz3xZns8iXlTvHLSAz6yXx68XfkUvtas6ryAg0I9m6nkOwmqVrzzCs88oJ/6POt4Lr0x7Jc91Ch9PGIBwjtNsT89CHUCPe8QULynCZ28vUxKPWSFn7tZy9O8SgDOvBt6ij1wgbw81tOLPXJRvTyAwEI9E1KdvEgpuDuH0KE7KK7HPF0U7TzoMDO8z9iGvLTuF71G1E28UeD7vOwVUT2a8c284lTvPb+BaL1a2JQ8aZr3PTxG7L1UT5Q8a6NMPKPDeLyi3Z48RzifvOkyYT2Requ7h98/vdiHmzyxLDw8b0ubPY/In710qBY9sbKSPELPEDtJS+w7AB9gPeWrGL23FNq8uYgWvdXnEL1vP6K9/uOOPLWZTz3UCp495oXzPO8DlD3uzNE8k1caPopySL3sJxa9GBxevVkCCD0RsxA91qHcu2qgCT25W2A9nFJsPWiidD3ZI5s5RmuRPOsUYb1/OLq8PzJPukuhDT0RUQe9IYyNvWKAgbyf2Lc7NHM5O61kT7t/LQ69CAs7PR2vrjq5GT+9E5JMvHn47ry/nQG9p4Yzvei767wqdfM80QE6PNHOxjydi009LwpsPS5gEb0fNAS8R+E5PUAUhLyghZG7GdzZPGJnij08XWq9L4rBvpNLd7yd9cO8k5gpPY3N8T0k+NW8QpNAvKN+ZD1LYIc8",
                "wgpNPUoU+rxHyIO64yJBvQ7vZbw1SXK9LXgBvFRSJbwTURq9vkJePZS1Kj4g0027VlZcPWjE7DypuH497M/5vDNEAr3y2qA9UMYlPTjaBz1iOuK7ip1dPZ8n4Dt15Oc83dcoPIhhDr1Kg6S9YtBgvQWsRz13LXQ8vwqavVYi9j0hj8Q9WsKYvMi2gr1l66O98BLzPFzE4T15ET69BYmgvJtjGr3rCu482TxYPUHArDxRGha9QM2ePVZsUzyvkeG8k8ZpPcWIHjwhZaw9oYxsPV8YD70DHxE9b6jqusAV8bs4bic6aSUVvZo6C7woWu48j6NiPVuqCT6kORa9KpZWPfWagz00Uzg9IO1OuztNF71t5RM74GGuvDzT1zxg1Vm9rSzPPHj7Xr1F/SE9hWqvveBM2rz0Gbm9j+AqPJ7aHzukNrW8oZykvRNruzvJ0q+8BtV7PEZTVLvB97G8vClVvQnmx71oLrc7EG4wu0o7cT3hh5O9OcCbvSANczwb/jk8H3zJPfMErrwXLwM9AE6PvebTfjyVmak9xveCuwgs+TwxkOK7sSuNvcG6jD1NlTS9PA0mvTe0wb3axik9U3tmvX9BNb3AKdk96xhAvQbHd73nw0E9gZmAPY/M+7h6JjK9Sf+svXQeuDsdG9y+VtnIPHhVyb0fAv27Mp+GPAuMnrznvbQ9LJomvbmbmjxrGG+9KWFaPOpd8rqj0vO7XsurvMWZb7w/Hpw9FE2avHLQqDxZHZ09Yv6yvLUG+7wruNI8BXFQPD538zzRlNU7+7o3vRk+vz2Ui4a8vzGhPJztab21UYC9QbNVPThcKj0ar5W8G4CZPLDDJ7ycTEU8x/CxveMtVr1H+QI9AiLmuWXyy73Tf+k9fimhvJQRvj1PREo7rKv9O5RMyr2yLQU9N+ozvb94lL0s1546o0KnvaDFEz20pCC89Z1YvUbVn70Hpfo9YTanPUW0mr1NdFW995Q+PKAazTxnCTI9yPnlPExe3j1eOT86RksoPGHGtj0NEQE+",
                "/3GbPXrURr3k5f48u3roOy8mRL2SuVk6OahRPRdgxDmWTjw94SbkvSkfybw5Ewk9lhz0vA0BSj03jji9MMGNPFNG6zyYGjq6/+xvPK+ry7lkVDG9r2aSvZPikb1jOZ08h9TNPOyCTT2jcco81mOYvBg54rtDDFw9dTaXu+4PkbycI/O9iaCuvFbLFD63vHE9PQRGvbdkJj3Qu+y6qGH2PCdtorxyhLY8IDVKvWRltDxbWgK868i2PNZ14T2EtO47Iy3NvMKiU71ZB8684N+FPZdrArz6flq9dTMQPZ6rnL3mY/E8ZzZlPO1TPz3fAg49v29DPTFgZr7gsOc5i5HyPGbKLLpxL8q8MokcvW0SND316yW9nxw9PCpmqr1xcxO9YGkKvCOsar3KxVu9/gxqPc2/fTzg2908GtqHPfkqT7x0sqa4CSidPWIsqr1YUxY9eKGZvP6kHzxEZiE9IS1gPdJ2srqxYgi9ViXTu0mPcj3o+ow8Jmzku+g5qj3D2qa9K987vAsPuz3HqgS+/rDyPZx007xLKCu7OK+SPE0bkj0XA8A8X1Z8uvX0Wzwoweu8QG33vN+xhD2Z66Q9xa89PWdL3rxJr508t/txvUwUjLo5r9a8w8IVPBbWJ72eRhK9rp8Pu126CL69l8e87fYhPQxDiTwzyAG9IOQtPpLxqL22CzS8WzvRvRlQRD13EzA9l72guz31vjznCz69KUCePbwqXrx7rtE8JTo9Pc7pib1qk1I8AtvIvEeCszyZpxw+FT5MPXJrZbs3jjU8VjzquzyhC7sWvZi7WfYWPRnZLT2OD5i75/bDPG3Xfbx2BT68AxWsPTxFnrwdUzq8NSYKvb/ckD0G/IK9OztpPKi4Pz1960G9fG6oPKJxET3uusQ8Yz8LvI17r7wQJQs7PjuzvR1zuj0GAau9MB4FPBYm17yfpBK78R1Hvc77KzxX+ak8wKsJPZvMcbxnBcc8U+pBPHCfsLyfmNq8HPARPV2epj3hVQa9sV+tvA/y4jrUKwU7",
                "f5xtvrbixT2I0iA9SMqyvfc9gTwRMSu8cf+dPNSGprvpm1o9Q3WNvRM3EL3QwYI8HF6VvJhjC7wQwpK8wRwSPf+L1zvL7SM8wWoTPVS4jjwb1rA8aJGivKxj6r2KzAq9pJJuOz0nKr26hq284p3buoLpTz3Ukw2819TjPaijbL1FUWA8tZmkPHJlLjye9OK8kj1IPa55Dr7ASiO8zOETvdK5cD0WvPg9LIIyPi49vDwBfxS82KInve22Cj6EJpU9qZcUvJfsoT3tzQS+r77gOqaiLT1NCyw9W6DJvW9sET2M8UY+WZhnvJj0Qr3ywRq9uCd9vL8D97wixRs+L1gbvVO/trx/GAo93NNtPcPnOL3Ov9y9YGCpvZSr4r1Izfw8IMYyPEG0vT0aqSe9oFuZPKeEijwCnY672gHXvUlvKT3cuBs+xh9gPaQSRToAP0w90Xd3vAMDt7wNQCK9ssI6vaWGezxfAKY7rghvvcLQCj1yXhc9eieCvQHIvTvzs4m9I2mJPDtB9rtey0C8eTk9vTSctTzxbHS7VyEevTS1Bb7RRXW9BumtPAMNCDt6des8mJdHPQmSRbtSqqM9jK9lPDT0OTyqtS49AQl3PfiOVLyebGi9jWuGPYqcNzy93iY9dhgivTZ1vDsUY0g9sguEPWTpBL33tY+6xmV3vUTimz0w+aQ8FXgpvWxgAL1/Clu+RdvcvCaOjjyPVOA9tYmLvXQeWr2W6oK8oesfPVDs/zwuvqm8RO0yvUshAb3qx/Q8hMmCvC+HO738NEC95MuoPZBrTT2IwTS9xzMKPeOGxzvVeZM90Um1OoOekjzJSLO7gMJbvClEhzyO7L68tyXqu0g58TwKvgO9DpJcvZgqtL19yF29FX7gvQubpLw4ncO8KSmtvewwk71M6Te9kEWMvJUk1jzqLho+iTZovSA5XL35MJ899lNfPQG3gz1oppu99VxbvRCBJz7c8hM9xZS8vOO9AL6KEOo7aNhUu3R4xDykx169tnFdviIidjyp3iO+",
                "S7luPfbgwzyaMgI94RPqu66I5Dur5lw9MnyBOkLspT0f7qq9gQjTOtncnzzPVki9iLGxvZKxh73YTYA99g3zvGGxKb1s5+C7SWOKPXWfkz03YXI8MgHrOnFEKr34IB86msMyPeXpHj0pSVC9J42NvMUpATyTLRg9PDiWPS3iK77fnOC9kzPVuaDTXDrHEhM9bnOCOyvgRb02x6i944tyPTU2jTzmLHA8C5hYPa9Pkr2HW4K7I+UCPaeyIzv6gdi8cnp1PHRRRj2F4Ao9V93GuzfWtLyEIIc5/AvWO/JcRL3odG69zEPnPWyxpzwmPOQ9WwuQu3VGE7yr6Bw7ZtuOvUvutby0e4a9SkpNPKLeTrxzRwE9Iy6Bvf/fk76zwkM9oy9NvUUtED0Rqe09LPu0PZzptLxqNEM8W4eVvJn0sL2zp4O9X7SrvYSfBr4fr3k9K1gUOxmlDDv7Z5u8xPvqO8skuT04SfE7+jEivV7IJT3eagu8NRHSvXDpnbp/aSE9sYZgvTFelDsmjeo8BU+6OojEEz4av1w97dWKO46eYjywRMg8ohNvPFuwrTqtfTW9m5czPa/XkL02fC29Vvc+PbjxDL2wuiI90hXAOytU170w0uA8Q+YVPdCoWD3dMbY6RdUyPZGvp73IppA8mQDdO1GlXbvEiza937sZvVN9zz1UC4G9UaGTvJbAB72fFK47VlXEO85qE77M7+265X7TuxwWjb0knNq9mtFQPfWMeT1CZca9mk3VvEGw2bxWYPe95qIZvXeOiL196iK9Dol4PIgc2j0+xoM9Awp8PTDBCb2/2Wu8Bv+xvVPELj0Rv6293hcpvdXZBb2CX2y9wgZCve+slj1Lvb090Tb1u3VzOj3WSpW92tKmvVnt/T2oNNm7J5yFvJwqeT1egpS9CqKIPVp+9bwj9Y48ESNSvFFFAr2/cy6+230zvWpLCr0xARg9czDvPbIB0z0m1/Y9aWEnvmQRzby6rc4941aYPaVHqL2AARe9EecSvY5Se723Wjc8",
                "rtKDvW2Ebb1YKE88NCShOZG+ib1D1SU81FEYPU+2nb3xzw6+Sf4jvoRnF7yVpk49RuKrvHF+FL4AXaI9AA85vUvl3b1Zgfq89wpDvOeWlDtIsMa9Io5SvVVIMT3H/so9sDUgPLQcMr2hppc9plzqvBHFJzwnXd07U6lpPALxTz35t2G7+5owvbZhJT2P4BS6vgkgPokNYjyHPpu7nYmqvSg4Xrv0DiQ7kUJDvVs5tz1X8Aa8sY73vU3bXr0pZG89qxZIvXizprvLFBS+vtjivId0mb1KFOg8MxU/vL17nzwdYYk8noHAPE10Ij4dl6A9JxLVOwrZbb16es29YDn9vQ5Zqbvzsws9AeDYvLAQ2z08U7Y9sm0VPc+yUzvNsGs9K2+ZuoMyGD7fvxi7oGnrvOFnsTzG99o9w8G0POvCib1CvK88QC3evPTjpr19P7q8+WW7vP0tQbxieZM9UFCMvHnFuLrrT0y8aF2AvGlluTxm6Zq81BiQPVv5KT3Eil07++J3PbBvG73/42w7bWbwPUQHuryDTr69qLPVu4h1o7y3gag8tB0jPbCz2T1XOQA8YePlvXB1xrwTETS93aeKPuRGWr2dNgU9RrqePQWOsr3+ALK8YNPVPFc0Dj4hJVC9lldcvW4xUb3zjXK8pxYtva5E8T3HQY482PoAPQZEHj4uXg6+goofvXp2CrripI89FsJmvXzfF72jC8K8sMyiPcWXOr3/nyK7uiR/veIcjT2IDCO+1mC0vNmU2rwnK6w8VYc5vNoiCLzumoU90CykPFSr+rzdslY99AFzPZerhr2LyF+9SzZDvcT5GzpFzp69PdpVPQ4Lpj128LK9GDFNPMqM0zyYkY88I3qhPetj47zPO1+9/lEFvc63pb0hnN29NztnO02esTyjF4w88/MnvYRqhbzOr6O6oaJKPQlKI7yNgqw98hr6vLJSlb0WtSi9dq3Zvdsxjr0+kJE9+ESIO7qAkjweNgc6VPPIPawZ7TxqTYG8KWYAvor0LTzV5vU9",
                "M7k2OG9CaD3Zo8K992TFvWRAoD0R4Lq9ZV/mvNSanL0H1w881o4gPH8z97zrIts8Ix6SPcOUFLx36lS8ky0LPRlWAT70ete9X5GQPXNd4jwFHVi7AqU/PR/vzby7Av67AHXzubeUA76c+SY9IrcVvJJxKD2bqjm999sCPe+Rcz3SmbY9l8NPvUkCPL28Ckg9FRqkvNCbaTzx04I9rtWEvG+68bv5tTu9GGELvZVqET3w5R29fLsUPovyy72tTKE7uIgRPI7eIjvadry7oQ9XvbIUdb1ykZw5ifvRPN/WrTzWrMm95I9HPdOmmz2Kow69CA7iPG5EkL2ZqT89kxJRPIwM3Dyb9qa8W47mPN6Ei7xWKsG85ey0PILutr2Nu267fRCfvJoX2b0o84C86OUMPMtrALyLN6Q9lWbLvV4ne724y4C9fEEivd8phr0w1AS64mMZPYiDk71p3WM70hUKPMqW7z14fau7AcorvAS1kDszzpm7V1fvvG2TXD1aq1W8TCIovZ/TUjs82JC8PdofPT/nBT4Eiws936rYvBtQgzuZOZI9hKZUPfWBeD1Erwo92bnIvE3gyrwFYvA9zdUNvTeotjvhLos8skyLvROIwL2DmlE9yndBvUD2Wby9gQg9IVSPvesL6r2yote97WeAPdKNwr2059a9UvbmPeL6Xr2NJBg+OvbTvfStpj0A9FK8YFeVvMtAHL0D3qe8EUTPvWPoKT28WBu9Ya0YPl1phDzr0S+9pWYIva5ccT1wnEQ9CWdQvXgWmrxDKVc9MuyXvU6PMz4cmQy8ehA9PSIcS73JMi27hxfvu26vO70KuKK8hswqPT8iLz2v2K+8jZGovTpc9zwIBws8t76Mvd6JC76NZOa8zuMdvg6IKryTPKE9c2wxvTuqgzvJcPm85h4mPo2k2byShde8GesLvX5aHz2HkHu94s5HOkKmKr0wEYc9HgYEPbL8djt0QGw9x8YjPqDZpTwLrGs9ATpFvT06s7wpzYK7fJr9vZPqfjx7Yz+7",
                "HRY7Pe/UTr3ABH+9Ep1bvd+6b7wi9Ce9tCJ7vRC4MTw14gG+KrMAvftMmzwkXJc891zDPBck7TtfKOA8GeIgvf+FRr2shJq98BQ+vpAmsb3zzpq97BnIvPFaojwCns89R3pgPbk7kLyaupA8YkshPRJbIrz0KSm9kNU+PYm1zb0LHPC9hZZsPNjwsjwEQfm8WiVKOexrLTyjWCW8YiU8vNKWu7wfx7g8wZpvvcSUKb1t+vA8ziU3PF1JujzTM9o9wRGnPZQ64jx6xQY+U25yPQcs3zpxGe69Da/IvSpZbj1nB3Y8fymAPN2Y3L0blrG9seP8PSy2gbw7dFi8bZ8jvOPj+DwcyTi9Zt33vOomFr1PgaI8w/rGPQIDRz0ITpy9oAwKvWkHE71i5u29X/hrvaKshj3rai6+rgEivh16BzopLtK90yOHvKIg/rxRAn69AdvLPNzxgb1M8IK8CcyDPWUovj327LS7CWcjPVJqlj0ztaO8nShYOw/Lar2UNIm9/ygUvaTMbb2+yX499OOgvXgebj2pktU8u5EJPfgkAD3MaeO9928rPPNW0L11b/m8MRtDPeMKUL1ty0A8pwzgPOcavjvgcRU+V0C+veJzGrpkg8G6OfeCvCFPTj1m6Rw8rvf1O0AOHTxHXxU9xVyUvERkKL0dMny921PEPZw5Bz1ItBE+JR+avSJgfb2ym2694CKMvFFwejzUifg8noiQO4mAbbzwrPi92EwEvkV5HL0nW1Q9POOdvSccqL19htu8cdn0PRDTS70h1GK8MAJfPdqWtb2YgSy8bRoOvNqdnzvwn3w8ZOPpvXW6DrppxQY9IpzqvKotlzxNjJU9P/YTvBonLbvPHdy8isY0vEelF73WFhQ34StTPRLSFDwOwjW9NSc6Ow5VJzuPKFw9ykCrvW8WljzVT7g8qdiRPQoPgjxfeem8LJsCvRfVu7zfJWM9d/KJPbJiJz1RXrE83cgSvZF22b1paao84wexvKYlwrspeB88pthcvRZfi7xMmmU8",
                "JmUmPa+C+jxYOEC9WGi6PHYLG708ftA8aLXvvTxpOD1QaIy9TRuwPNelXL0maqw9IGSBPRbqir3eU4y96JPmPPJ3Eb79NT29C4J9u5PQFL76fZQ8Uymvvah1Ir1Hn8i9Ie8VPaBaZDsNpJU8HK0WvcDxfz3uXrA9GE6yvNWFj70NFAQ9tHE/PJMyNT3eCgY+e6Q9PMDFEjvcSZs8FNnYPaU7HD1ICos9yTpUvWuB/DzTuN89gra9PIrlJL2bODw8kucxPMW+Tr3POi+6FOfOvP0xVD3AUOy9qieLusuWxjtF4/y8QTr+vEjeXT3226M9Kti3PE90/7x8Gzm9Z8mdvSXtmT1NOye9OyC0veszxTzTFLo7euVOvSPZJz21jjE8JFQbPVgzk715+I29tF9PPPm4dL2msaW8hdKYO7h6Ub3cCvY9/QcsvcEPMT0XgIq91wTRO9z8Vj1pDZc9xfF6vTmWcj3ELRi8W92JvRjrTzzCb3C9O891OkfvIj0zJXg7EpnlvGRFobwpAYi9OVW3PJIfuz1BXN29O53bPJ+vwrxpTR48TdjmugNWNz3C23Q8cRWDPEGZkD0i5ba89nGGPd1jCbyG6Bk9ogLoup8TCjtkkGe8ckZqPfNnIr11IXw9/UwIvT7eNbtjI5u9Wj/mvfSLNL1zXCg9gYwxPUV/6L3So7e8x0e2PT6Q9zyJ6z+9K4YdvVG2Cz3iLxo7uJZNPADSRzxPo308CaY7PGCzC70S4Qg9HuK6PVNxUb1wWuo8Qma8PQ/OK71oUQu+4sSuvCAi+b0jx8i8+LhxPLHu1b3TT7a61HWEPfNj6LzMn468kRxFvEMXeT1finm9+V6pO+AjUb1iiKa9EF13vaRWxjx9/wM85Rv5POWPWz1Y0da7b4eJvXOcQrlgMR4+t8CfvawY7DzWZxS+pdh3vWnr0LtFIjg92EupvZcWwj0dR4w8m8uIPUxqmb2x6hc7pxXYvCjrsbz/z6E9zj3yOrLWwL0+URm9fHWzvBBuCzzE4aa8",
                "OlZmOt2hLb06t/C9YJVIvbCgNb0wKP47p5fBPSjiSj1Ev4290AdNvGl0xLx0SEA9OVoCva32Z70RVhG8S98MPbztNbw6lMq9IfHrvIfg37yU/IM8LfoKvZnHyDueCxo9jcbJvE4U4DwC4YW7WK4ovTBV8LqJmKA9OAsRPVDS2D3LEhY9DLAFPKRuI73N1EU9R3nnvZP9A71OgBy9vMiFPYDmEL36NbQ9BFyYvc+pID37X1O8rN2bPAnYCb/Rdcs8QZffvH4TGT3/BhQ93ISaPa7pUr17RMU9efQFPneB4DygzJq9VPhiPOaULj1+as+8BNgZvJFt17yL64S99E0DvOXUAj2enOW8J4nYPL0Ljzzt0OW9uo5puz8Pkz0jWlg7Z340vGV9oz03Uua8aOWGvdRBCr3m5XC9F4QHvX4o/L1zIhe8LbN9PC42dr2A4we8jmlOvUqNGL1+0NS9pHpFPer1Pj21oR+7ot4uPbI9ST0aO2W8OTuQvTveZz2Zx3a6jtmeu789AT3fyQc+YNZmvI6cgDweEKO7zOo6PVeiFrxcw9s9glZmvMq9Jb20HsY9odTfPdXKE7z6Bfs8E3sSvQqa8LzhEgC9j0wlvDyFk73tQAk8YrVlPaRbh70U+zE8hqg8u78ZJD3AxBg8n95lvVlsBz2MBbO8txMkPQYZQj07Vim9t22QPYuV9j17dLw6FxnEPBO1Iz0uM1i7f9riPBCTmz038Bo+x+IuPfo5Oj1NGg08HGCRPLFmtjwFtfy9TKrQvIWUlD37DEA7tGMYPBVTObygqmy8mHpJPcL9x7zgDPi7JltHuKWrW71Iy6u8PIZKPYtzZD1rbWW+pbUsPbCqlbxizIm8zXUgPcqbx7tRzd66QXiZvKNClL0eMfw8V1GevAfxMbtpeLE8slc1uxIYEr0mduw8glMxPd1DFzwcARC9BUvSvW2ILjwoC9W8BGWZPNPFAru681a9LymIPc/Aw7zvTc68Ho/zPCW25bxS6vY9ovyLvc7+2LsH0NS8",
                "8/BRPQZS6jyApwc73abzPOGTgDwXwMk91ixGPJlC+bxg5KM+v0acPX5cxTzpsA69N+OsPVhACbwAxy+9fqOYvZZreL2j6YQ9/Ku3PJ1R7Dv6D4k9zTy7vIVQLr15uYA70Dc2vevIJrtSSCI98wVzPdmEJz17tDE8450cvaHoUrx1DaM9TYiOPNRuVDy2B+u8DT0wPBoruT16K6u8bezGPIrVhr2pT3K8oxjqvAK1x710yMw8FEN/PbfJbz3vsMc99EDUvEW2UjzPcTm92mdbvP+5cj2ENEg8ttu+vGwuljwDSNK8BaUevIWbqzwjTXU93W9XO5EYv7wGrvk8wnOpvcJuELwTbkw9r1k9PbxGF7s/dI086MzOPLYu7LvBnVs990+NvSMdwL2LaZk627pDPaHbBL0ySOQ8+64QPRBMIr22CMk8lOYtPYqlBb1Oxmo6gg2MvDIM+jy9sg28qtx+PKWhbz1Qk7U9951RPf4A4LzZcNS9+joovcj7fzsfFs090MJwvA9u4r45CQE+L/IOvQ2s7bw7xS09LOCOvH3qcrteUnS9EUHHvd05jb2tB4G9ySZWPbWLSDxZCCG9rSbRPKTSTz26rD+9J7c1uy+d5D3hB689yQwTPBp+7r31lr48I7kLPfK6EDx4iha96N/mvdtc1b1i3is+jkvCOS3qhb2c5Yu87ZNnvQTRFb7ooN08RIhDvchO+z1MoqM98GD5O41iHr0Q97a99ysVPfBtCr3v6L+7JQhKvfZBkr28FQe9/scjvrdExbx9vJK9QENevcWKCb7rnSq9QXe1PaBCDDwoedi9SuZTuvfINr1gwa29Itj7PJJjsLtcjoA8XXLfO3q9Fj0mbYi9NxU+vVZn2j0c1/G7NbtDvUFkxjw4Zge9LTmcvLWWVz1BxCA8UEYiPC9vCz4OYue9uVASvS9WQT1u1QG997NyPcuVO72KgVO9TgStvWj4hz0cBmq9HL/3PGd4X70FS6m9dLW2PNnXbbx90p89lRKDPcx+k7sSe5Q6",
                "pCPuvUZJwz2DT+s8YguFvELfY7t2QcW8QYUzu7cbtj0kldQ9XF71PCEoqzyGKay9n4UBvDHGeT2ExEk82snzPQxsWb2Cw4g8Pbp6Pf1DvD1yMXG9hyZKPGTFKL6gLSA8311JvSAdHz2jjI29dbSkvet/xLyzhAS8n22uvXSuA76hFKA9PoLfPFnMoT3/48A90DdovU4JhTxtbwQ+GA7xPXnmmrvB5Dm9kDIDO+EnL7xStrW8DFm2vRpQkDyIQT06MDLWvREtYb2hU1m7Qquhvb9OEzwGEIQ95CV+OU1b3L0ESPC7O/nFPTipnz0RJPI7gkeUuuj3iD1e7tk9HMLKPZiPnLw1kS89uXVZPUIXyLywspC81cBCPT1s+bs7sWK9T3N5vHomPjn/lcK7/qPKvN4SoD07Lsm9mcGFvDQ/y73yxgG9MBcfPSntKDxKJoo7XwmIPYYbCz0FjBa+UDmJPety1zxSyKQ8E6SAPSWb0r3ixiW9MADBPbVRCT2zSYK9Byy4up9TljzsGmO9zdCgPVpmOjwdgXI9j21OPLdVwbuqXuU90JDIvQVjuT0jmRO98r2+uyx8Ab0iOE69ztmBveXpRD0Dhru93YjkPNCRqzwiVFW9GopEPW3pQzxaTak9K9wkvZGUGD0snNm5uqGvvWWIL72rjIg8MOVWPVAro71hUi+9QpFAvAcfRz0AE/S817wSPX3QaT3Ow4e8EnPMPI4cXLyhGAG9f5Rluyq/ybmJ9Ja9YiggvFzqRD3A+po9b1FYvSNURL0/P0O9MSUtPVTf1zzuwym9shqTO31L5rzMsEM9CltYvD0mRz231Qy9Y0hfvNg0CL0H9M08RDrqvPJ/lzx9Rz89A2FuvdP5JT15J7G9x2SKPLuvOT0rjuO9XboWPbwLIL5u6P+8GEWCPbSxbz2XRnc8EMEePT0+eDxDBz69fS8/vMbILD3jTpM9w7R3vWQ9eL3yvd68jM0PPSpxor2DUHE9f/vpvPGkvDwDM+28Zb04vQeSED3TDUW9",
                "dW6PPQ/3tzwO8QQ9ttuCPCAdP70LkjO9a15EvBFfhr3QNEo9i2aGvJW6CDwDLcU7W/oMPbqDM70zpKS9HFIRvX3Zaj1hRy09Npj4vXjIXT3mkHm95jcmPXPpiL1icls9bgRWPV0lvj1yEHM9rBjLvDIzyjwcO7o98K2APcCJlL0xU/I9+NkSvauhhz0uQY680WWcvD/KjjzXpIM8Rj0HPcF/7zzk0lS81J5CPLC7wzyCNUi9dyi9PKMqIL6f+7s9chKQPeA8BL0GMxa+s3/gvP2GPzmj3VU92yuVvTgJ0z3JXmE+IyD3upMYKL3ykv+8WRCDPZpzXL1KSX68B0CSPWOitrwcvT090EngvIco4j0L4lo9+KMIOz8qGbxdWwm982taO8VdgDw8dpg9QZl6PfBUW70ORzC8xhAqO9URlL1UyGO9OhcivRb1XbxAeX89hySHPYQRDD6AEKy8XXJVPa6ZODycmYG9cW29PITi071O9Oc8sGxCPtOxmbw5H5I94TitO4gzez3ga9u63dcbvU+ZEL3fAo49MnatPPoptbzECey8w72uPEVz8b6k4aK91imXPepCJr6bCIi9cybTuwzShb1EDqU8RTumPWVmTz04IMk8tJCouy02WD3Q3YW9OGZnPVirUbyiWjG9xnSDvBJGtbxhLTS9StvLPfWRtTvD4d08kugXvQqtIbzZ6ha8kytxPb1q/TxOvxC97e/GPJuhA70nYvq8hwnBvM1tyjxh29A9FZE4PW9BTj1ff868QTVlvcEiPT1YLgG9Tyi2vR17TT2M7SC8IPpTPZZrJr11pa89W+czPH9SybvEJAG9JQ51PZn3Trvs80u86e4IvXx38LxBBlg8WVdHvWj9XbzCQ8A8kd1OveJqI70tIuW9al56Pe9NKz1LTk48p9wKPRVUhrwCSg2767NJOrMiHDwKVQY9SWTNPRH4dDynRY889HEiPXr+a70/uT08vpeSPb2RZjt8Ga68GJ9XO5cjpb1hqo+9oQIPPM90Vj3zk0c9",
